<unk>	0
<s>	0
</s>	0
▁ເ	-0
ານ	-1
ອງ	-2
▁ແ	-3
ັນ	-4
▁ກ	-5
ທີ	-6
້າ	-7
ລະ	-8
▁ສ	-9
ທີ່	-10
່າ	-11
▁ໃ	-12
▁ຂ	-13
▁ຄ	-14
າມ	-15
ັບ	-16
▁ຫ	-17
▁ໄ	-18
ໍາ	-19
ດ້	-20
▁ພ	-21
ັດ	-22
▁ແລະ	-23
▁ທີ່	-24
▁ມ	-25
່ງ	-26
▁ນ	-27
ການ	-28
▁ຈ	-29
້ນ	-30
ົາ	-31
ື່	-32
າຍ	-33
▁ຕ	-34
ິດ	-35
▁ທ	-36
ົ້າ	-37
າດ	-38
ົນ	-39
▁ອ	-40
▁ບ	-41
▁ການ	-42
ໍ່	-43
▁ລ	-44
▁ໄດ້	-45
ອນ	-46
ວາມ	-47
▁ປ	-48
▁ຂອງ	-49
່ນ	-50
ວ່າ	-51
ວກ	-52
ັງ	-53
▁ໃນ	-54
▁a	-55
ັກ	-56
າກ	-57
▁ຊ	-58
ຂອງ	-59
▁ໂ	-60
▁ຮ	-61
ູ້	-62
ຈົ້າ	-63
ປັນ	-64
▁ເຮ	-65
າງ	-66
່ານ	-67
ຫ້	-68
ີ້	-69
ຫນ	-70
ສະ	-71
▁ຄວາມ	-72
ັ້ນ	-73
ໃນ	-74
▁ຢ	-75
▁2	-76
▁ເຈົ້າ	-77
▁ຜ	-78
in	-79
▁1	-80
່ວ	-81
er	-82
ື່ອ	-83
os	-84
ປະ	-85
▁ດ	-86
▁ມີ	-87
ອກ	-88
▁ສະ	-89
ົດ	-90
ູ່	-91
▁ພວກ	-92
▁ຈະ	-93
ມ່ນ	-94
ິນ	-95
່າງ	-96
້ອງ	-97
້ອ	-98
ົງ	-99
ຸດ	-100
າວ	-101
▁ຖ	-102
ແລະ	-103
ິ່ງ	-104
▁ຍ	-105
▁ປະ	-106
▁ເຮົາ	-107
▁ເປັນ	-108
pos	-109
▁ວ	-110
▁ເຂ	-111
▁C	-112
ຫຼ	-113
00	-114
ິງ	-115
ໄດ້	-116
▁ເພ	-117
ເຮ	-118
▁ຫນ	-119
▁ວ່າ	-120
▁apos	-121
mp	-122
▁S	-123
▁ໃຫ້	-124
ມີ	-125
an	-126
on	-127
ົວ	-128
ອບ	-129
▁ບໍ່	-130
່ຽ	-131
▁amp	-132
ຄວາມ	-133
ະນ	-134
▁ຂ້າ	-135
▁ຄົນ	-136
▁ທ່ານ	-137
▁ກັບ	-138
ຫມ	-139
ຕ່	-140
▁ນີ້	-141
▁P	-142
ົບ	-143
ຶ່ງ	-144
▁ຫລ	-145
ຫລ	-146
▁ເຂົາ	-147
ື່ອງ	-148
▁M	-149
ar	-150
ືກ	-151
ຈະ	-152
▁ໄປ	-153
້ອຍ	-154
າບ	-155
ຸກ	-156
ໍາລ	-157
▁ຜູ້	-158
en	-159
ົມ	-160
ະລ	-161
້ງ	-162
ີນ	-163
es	-164
ເປັນ	-165
ດຍ	-166
ແມ່ນ	-167
▁20	-168
ຊ້	-169
▁ເລ	-170
▁B	-171
▁ເວ	-172
or	-173
▁ພະ	-174
▁A	-175
▁ຫຼ	-176
ພະ	-177
້າງ	-178
ເພ	-179
at	-180
ເຂ	-181
ໃຫ້	-182
່ມ	-183
▁T	-184
ງານ	-185
▁ຢູ່	-186
ົກ	-187
ີດ	-188
ຫຍ	-189
▁ແຕ່	-190
▁ເມ	-191
ກັບ	-192
▁ນັ້ນ	-193
້ວ	-194
ພວກ	-195
▁ແມ່ນ	-196
ຫັນ	-197
▁ໃຈ	-198
ot	-199
▁-	-200
ູນ	-201
ລາ	-202
▁ເຮັດ	-203
▁ເຊ	-204
າມາດ	-205
▁(	-206
ຽງ	-207
ເລ	-208
▁D	-209
ເຮົາ	-210
al	-211
▁g	-212
▁ມັນ	-213
ຶກ	-214
ບໍ່	-215
▁ຫມ	-216
ວນ	-217
ັ່ງ	-218
ລິ	-219
ic	-220
ສາ	-221
▁201	-222
ຖິງ	-223
້ມ	-224
▁ກໍ	-225
▁aposs	-226
ເວ	-227
ັ້ງ	-228
▁3	-229
ຈາກ	-230
ຶ້ນ	-231
ຽນ	-232
▁ຈາກ	-233
▁L	-234
▁ລະ	-235
ໍາລັບ	-236
▁R	-237
ທ່ານ	-238
ຄື່ອງ	-239
່ອນ	-240
ວຍ	-241
le	-242
▁H	-243
▁ເກ	-244
້ານ	-245
▁gt	-246
▁ເສ	-247
st	-248
▁F	-249
▁ເອ	-250
ing	-251
ື່ນ	-252
ິກ	-253
▁ເພື່ອ	-254
ໄປ	-255
ເມ	-256
າະ	-257
▁ກັນ	-258
ຕະ	-259
່າວ	-260
▁/	-261
ືອນ	-262
ເຊ	-263
▁ຄໍາ	-264
ຸນ	-265
ຢູ່	-266
▁ຕໍ່	-267
ol	-268
ຮັບ	-269
່ວນ	-270
▁ສິ່ງ	-271
▁ຢ່າງ	-272
▁ຮູ້	-273
ຸມ	-274
ac	-275
▁ຮັບ	-276
▁ແລ	-277
ເຈົ້າ	-278
re	-279
ພາບ	-280
ະລິດ	-281
ົ້ນ	-282
▁ຂ້າພະ	-283
ບບ	-284
▁G	-285
it	-286
ຕີ	-287
▁ສໍາ	-288
▁ມາ	-289
▁ລາວ	-290
..	-291
ອດ	-292
ຄົນ	-293
ດ້ວຍ	-294
ເສ	-295
ເທ	-296
ູກ	-297
ູບ	-298
່າຍ	-299
▁ເດ	-300
▁ເທ	-301
▁ປີ	-302
▁ເຫັນ	-303
ເຮັດ	-304
▁E	-305
ຮງ	-306
▁ເຖິງ	-307
et	-308
▁ໂດຍ	-309
ຜູ້	-310
ບັນ	-311
່ຽວ	-312
▁ອາ	-313
ພວກເຮົາ	-314
▁ຖືກ	-315
ທາງ	-316
ໍລິ	-317
ອາ	-318
ີກ	-319
ື້ນ	-320
ໃຊ້	-321
ຊີ	-322
el	-323
້າຍ	-324
ໍ້	-325
▁5	-326
ສາມາດ	-327
qu	-328
ົ່າ	-329
ນີ້	-330
ົ່ງ	-331
▁,	-332
▁ຂຶ້ນ	-333
ຣະ	-334
ຕິ	-335
ຽກ	-336
ou	-337
ມາ	-338
▁ໃດ	-339
ືນ	-340
▁ທາງ	-341
ູງ	-342
ພັນ	-343
ຕໍ່	-344
ນັ້ນ	-345
▁W	-346
ີ່ມ	-347
ດງ	-348
ໃຈ	-349
ິ່ນ	-350
om	-351
▁4	-352
▁N	-353
▁ແນ	-354
as	-355
▁I	-356
▁ຫລາຍ	-357
ກະ	-358
ືອງ	-359
ເກ	-360
ຢ່າງ	-361
ວິດ	-362
▁ວິ	-363
▁ແລ້ວ	-364
▁ຫນ້າ	-365
ຖານ	-366
ໍານ	-367
ສະຫນ	-368
ຖືກ	-369
▁ເມື່ອ	-370
ed	-371
ລກ	-372
່ວຍ	-373
▁ຊີ	-374
▁ໃຊ້	-375
ອອກ	-376
ຫຍ່	-377
▁c	-378
ືອ	-379
ດີ	-380
ຜະລິດ	-381
ຫາ	-382
້ໍາ	-383
ປີ	-384
▁ຫນຶ່ງ	-385
▁s	-386
▁ສາ	-387
ທະ	-388
ສໍາລັບ	-389
ຽດ	-390
ro	-391
ບິ່ງ	-392
່ວມ	-393
il	-394
ວດ	-395
▁ຫາ	-396
ໂດຍ	-397
ມັນ	-398
ເຂົາ	-399
ະຫນ	-400
▁ມື	-401
▁qu	-402
▁ບັນ	-403
▁ດີ	-404
ສຸດ	-405
▁ທຸກ	-406
ວກັບ	-407
ົ່ວ	-408
▁ພຣະ	-409
ຫວ	-410
ຕ້ອງ	-411
▁ເຄື່ອງ	-412
ກັນ	-413
ຍາ	-414
▁quot	-415
▁ຕ້ອງ	-416
▁"	-417
▁ຟ	-418
am	-419
▁p	-420
ທິ	-421
ະນະ	-422
ກິດ	-423
ຫະ	-424
ີ່	-425
ຕາ	-426
ຫຼາຍ	-427
▁ແມ	-428
id	-429
່ຽວກັບ	-430
ພິ	-431
▁V	-432
▁ເຂົ້າ	-433
ter	-434
ື້ອ	-435
▁ດ້ວຍ	-436
▁ທີ	-437
▁6	-438
້ອນ	-439
20	-440
ຫານ	-441
▁ຕົວ	-442
▁ນໍາ	-443
▁ລາ	-444
▁t	-445
ວິ	-446
▁ຕາມ	-447
▁ບາງ	-448
▁ເອົາ	-449
ch	-450
▁ກະ	-451
ັ່ນ	-452
່ຽນ	-453
▁ສຸດ	-454
ເນ	-455
is	-456
▁ທໍາ	-457
ງິນ	-458
ຫນ້າ	-459
ະນາ	-460
ເທດ	-461
▁U	-462
ື່ອນ	-463
ເອ	-464
▁ດັ່ງ	-465
ີຍ	-466
ເດ	-467
▁ອອກ	-468
ສັດ	-469
ບໍລິ	-470
▁ຖ້າ	-471
ວັນ	-472
▁ຫຼື	-473
ສຶກ	-474
ເຂົ້າ	-475
▁ລູກ	-476
ເພື່ອ	-477
▁K	-478
▁ຄື	-479
ສ້າງ	-480
ວງ	-481
▁ແທ	-482
▁O	-483
ຮູ້	-484
ທີ່ມີ	-485
ແບບ	-486
ປະກ	-487
ນະ	-488
ເຄ	-489
ອມ	-490
ຍັງ	-491
ຸ່ມ	-492
ມື	-493
ພາ	-494
ad	-495
▁ພິ	-496
▁ທັງ	-497
▁J	-498
▁ເວົ້າ	-499
▁ນາງ	-500
▁ກ່ຽວ	-501
▁8	-502
ທີ່ຈະ	-503
ອຍ	-504
▁ຫວ	-505
ແດງ	-506
▁ສາມາດ	-507
▁10	-508
ຖະ	-509
ວ່າງ	-510
ion	-511
ທັງ	-512
ຕັ້ງ	-513
ໄດ້ຮັບ	-514
ແນ	-515
ເຄື່ອງ	-516
ທໍາ	-517
ຫດ	-518
▁ໄວ	-519
້ອມ	-520
ໄລ	-521
▁ເພາະ	-522
▁ທະ	-523
ur	-524
▁ເບິ່ງ	-525
▁ສໍາລັບ	-526
ືອກ	-527
▁ລັບ	-528
ຕົວ	-529
ຽວ	-530
ag	-531
ຫມ່	-532
he	-533
▁d	-534
mm	-535
▁ຮູບ	-536
ບັດ	-537
▁b	-538
▁ບັດ	-539
ສ່	-540
▁ເຄ	-541
ຊາ	-542
ຜົນ	-543
ສ່ວນ	-544
▁ໂທ	-545
ແຕ່	-546
ກ້	-547
ໃນການ	-548
▁ສອງ	-549
ສູງ	-550
▁7	-551
ິ້ນ	-552
ເຫັນ	-553
ສິ່ງ	-554
▁ເຫລ	-555
▁ພາບ	-556
ນາມ	-557
▁ກໍາ	-558
▁ສ່ວນ	-559
▁ງານ	-560
ig	-561
▁ຫລື	-562
ກໍາ	-563
ang	-564
ະຫນາດ	-565
▁ຝ	-566
000	-567
▁9	-568
ລົງ	-569
▁ແບບ	-570
▁ຄິດ	-571
ເຫຼ	-572
ື່ນໆ	-573
ສໍາ	-574
▁ຮັກ	-575
▁ແຕ	-576
▁ເກີດ	-577
▁ຫຼາຍ	-578
▁ອາດ	-579
▁ແຜ	-580
ow	-581
▁ແປ	-582
່ອງ	-583
▁ເລື່ອງ	-584
▁ຈິງ	-585
ct	-586
▁ມາດ	-587
▁ເດືອນ	-588
ຕາມ	-589
ຂໍ	-590
ປະເທດ	-591
▁m	-592
ຕະພັນ	-593
ack	-594
ຽດນາມ	-595
▁ເຕ	-596
oo	-597
ປະສ	-598
ມານ	-599
us	-600
ໂລ	-601
ຽມ	-602
▁ວັນ	-603
▁ຫມາຍ	-604
ດ້ານ	-605
ດາ	-606
ແຕ	-607
ຈັດ	-608
ກ່ຽວກັບ	-609
▁ເວລາ	-610
▁ງ	-611
ຫມາຍ	-612
▁ເພິ່ນ	-613
un	-614
ຊົນ	-615
ຂະ	-616
ess	-617
ຄໍາ	-618
ຄງ	-619
ເພດ	-620
▁ຊີວິດ	-621
...	-622
ຫວ່າງ	-623
ເຕ	-624
▁ຍັງ	-625
ຮ່ວມ	-626
ເວລາ	-627
ir	-628
▁ສ້າງ	-629
▁ເມືອງ	-630
▁ນັກ	-631
▁ຂໍ້	-632
▁l	-633
ອົງ	-634
ent	-635
ແລ	-636
ສີ	-637
ລາວ	-638
em	-639
ໄວ	-640
ຮູບ	-641
▁ແມ່	-642
ຫ່ງ	-643
ໃດ	-644
▁ຕອນ	-645
▁ຕະ	-646
ຸ່ນ	-647
▁ແທ້	-648
▁0	-649
▁ອີກ	-650
▁ຕິດ	-651
ຂ້ອຍ	-652
ເຕີ	-653
ຂຶ້ນ	-654
▁ສາດ	-655
ay	-656
ນໍາ	-657
ທຸກ	-658
ວມ	-659
▁ໂລກ	-660
ໃຫຍ່	-661
ຈັກ	-662
ັດທ	-663
ູດ	-664
▁ຂໍ	-665
▁ລົງ	-666
▁ນ້ໍາ	-667
ul	-668
▁ຕາ	-669
ຫນຶ່ງ	-670
່ອຍ	-671
▁ແນວ	-672
ສານ	-673
▁h	-674
ຕ່າງ	-675
ໍາລັງ	-676
ຄ້າ	-677
▁w	-678
້ມູນ	-679
ຄິດ	-680
▁ຕ່າງ	-681
▁ວຽກ	-682
▁ອົງ	-683
▁Co	-684
▁ກວ່າ	-685
ມ້	-686
ກ່າວ	-687
ຊຸມ	-688
▁ໄຟ	-689
▁2018	-690
ຂອງທ່ານ	-691
▁ໃຫຍ່	-692
▁ພຽງ	-693
ເຈ	-694
ສົ່ງ	-695
ຕ້	-696
ສິນ	-697
ວຽກ	-698
▁ເປ	-699
ເຖິງ	-700
ທີ່ສຸດ	-701
ພວກເຂົາ	-702
ແມ	-703
ກ່	-704
▁ນະ	-705
ong	-706
ແຂ	-707
ເປ	-708
ໂນ	-709
▁ຜົນ	-710
▁ຫມົດ	-711
50	-712
▁_	-713
▁ຊາຍ	-714
▁“	-715
ine	-716
▁ພັນ	-717
ສັບ	-718
ຄັນ	-719
▁ຊື່	-720
ri	-721
ຂອງພວກເຮົາ	-722
▁ຈຶ່ງ	-723
▁ເອງ	-724
▁ຈໍາ	-725
ຂ້າ	-726
com	-727
▁St	-728
ຄາ	-729
ve	-730
▁f	-731
ຈໍາ	-732
ຫນີ	-733
ສາດ	-734
▁ລາຍ	-735
ລັດ	-736
▁Ch	-737
ຮຽນ	-738
▁ສີ	-739
▁ຍາ	-740
ໍາມ	-741
▁19	-742
▁ອັນ	-743
▁ນ້ອຍ	-744
nd	-745
▁ລິ	-746
ການປ	-747
▁ເຕີ	-748
ຫມົດ	-749
ອິດ	-750
▁ກ່າວ	-751
▁ພາ	-752
ຕົ້ນ	-753
of	-754
op	-755
ໍານວນ	-756
▁ປ່ຽນ	-757
▁ຊ່ວຍ	-758
ຜ່ານ	-759
ສອງ	-760
▁ແຂ	-761
▁ສາມ	-762
▁ອະ	-763
ຫລາຍ	-764
ສົມ	-765
▁ອີ	-766
▁ເນ	-767
▁ຄອບ	-768
ຽບ	-769
▁ຊາວ	-770
ia	-771
ໂລກ	-772
ັມ	-773
▁ມື້	-774
ສງ	-775
▁$	-776
ນາ	-777
ກໍ່	-778
ເສດ	-779
▁...	-780
▁ພວກເຮົາ	-781
▁ບໍ	-782
▁ນາ	-783
ດັບ	-784
າກາດ	-785
ສິດ	-786
▁ໄວ້	-787
ຂໍ້ມູນ	-788
ra	-789
ລະບ	-790
▁200	-791
and	-792
▁ຮ່ວມ	-793
▁ບ່ອນ	-794
ກົດ	-795
▁12	-796
▁ຮຽນ	-797
▁ພໍ່	-798
ລາຍ	-799
ເງິນ	-800
ກາງ	-801
▁ເຫດ	-802
ທະຍາ	-803
ໄຟ	-804
▁ໂລ	-805
um	-806
▁ໂທລະ	-807
▁ຫວຽດນາມ	-808
ຄົວ	-809
ut	-810
ແປ	-811
▁ກົດ	-812
ິວ	-813
▁ບໍລິ	-814
ຕິດ	-815
ຢູ່ໃນ	-816
ເບ	-817
ບາຍ	-818
▁ລັດ	-819
ຕິບັດ	-820
▁ເຈ	-821
ເວັນ	-822
ເຮັດໃຫ້	-823
ຄ່າ	-824
▁ແດງ	-825
ຊີວິດ	-826
ຕອນ	-827
ິບ	-828
▁X	-829
▁ຈັກ	-830
▁ມະ	-831
▁ກ່ອນ	-832
ທິດ	-833
▁ຊຶ່ງ	-834
ແທ	-835
pp	-836
ຍາຍ	-837
▁ຂ້າພະເຈົ້າ	-838
▁ສັດ	-839
10	-840
▁ເງິນ	-841
▁15	-842
oc	-843
▁Sh	-844
▁ຕິ	-845
▁ຜ່ານ	-846
▁ຕັ້ງ	-847
ລີ	-848
ຸງ	-849
ັດສະ	-850
▁ຜະລິດ	-851
▁ຜິດ	-852
▁ໂຮງ	-853
ອາດ	-854
ຮັກ	-855
▁ສິດ	-856
ັດທະນາ	-857
▁ຂ້ອຍ	-858
▁ພາກ	-859
ສາຫະ	-860
▁ເສຍ	-861
ຊ່ວຍ	-862
ab	-863
ຊາດ	-864
ນ້ອຍ	-865
ອື່ນໆ	-866
▁ຈີນ	-867
▁ສົ່ງ	-868
ລົດ	-869
▁ໄລ	-870
ຂອງການ	-871
▁ຫົວ	-872
▁ໃຫມ່	-873
▁Y	-874
ດິນ	-875
ຕ້ອງການ	-876
▁ສາຍ	-877
ຸລະ	-878
▁ຮູ້ສຶກ	-879
▁ປົກ	-880
ຫຼື	-881
▁ເຊິ່ງ	-882
ຶນ	-883
ວບ	-884
ອາເມ	-885
ers	-886
ຟ້າ	-887
▁ກິ	-888
ຣິກ	-889
ກາ	-890
▁ດາວ	-891
ຍະ	-892
ເມືອງ	-893
ສະແດງ	-894
ໄຂ	-895
ທານ	-896
▁ວິທີ	-897
ຜະລິດຕະພັນ	-898
ີ້ນ	-899
ະລັງ	-900
▁ຄຸນ	-901
th	-902
▁ໂຕ	-903
▁ກອງ	-904
ປະກອນ	-905
ົ່ານ	-906
ຸປະກອນ	-907
▁ສູງ	-908
ມີຄວາມ	-909
ຖື	-910
▁ເຊື່ອ	-911
ຫລດ	-912
▁–	-913
ເກີດ	-914
▁ເຫຼ	-915
one	-916
ust	-917
ຍາດ	-918
ື້	-919
ຣີ	-920
▁ອິດ	-921
igh	-922
▁ເທື່ອ	-923
▁11	-924
▁ຕັດ	-925
ຄື	-926
."	-927
▁ສຽງ	-928
ພື້ນ	-929
ຈຸ	-930
ໄຊ	-931
▁ວິດ	-932
▁ແຜ່ນ	-933
▁ສົມ	-934
ຄງການ	-935
ພິມ	-936
ຂ້າພະ	-937
▁ເຊັ່ນ	-938
ແຜ	-939
im	-940
ໃສ່	-941
ເຊື່ອ	-942
ີມ	-943
▁ຢາກ	-944
▁ອື່ນ	-945
▁ຫ້ອງ	-946
▁ທິ	-947
▁ລົດ	-948
▁*	-949
ັງຄ	-950
ຂໍ້	-951
ັງຈາກ	-952
▁ຕົ້ນ	-953
▁ຫຍັງ	-954
ໂທ	-955
▁ເດັກ	-956
▁ດຽວ	-957
ນ້ໍາ	-958
▁Z	-959
▁ຂະຫນາດ	-960
ສະຫນາ	-961
ຍິງ	-962
ເສຍ	-963
ບານ	-964
ຍາຍາມ	-965
▁ສອນ	-966
og	-967
▁ຕົນ	-968
ທັງຫມົດ	-969
ຕາເວັນ	-970
▁ເທດ	-971
ຄະ	-972
າລະ	-973
ກວ່າ	-974
ທໍາອິດ	-975
ຣິກາ	-976
▁ໃສ່	-977
ທົບ	-978
ian	-979
ເຮັດວຽກ	-980
▁ແຫ່ງ	-981
ຶດ	-982
ຸ້ນ	-983
▁In	-984
▁ຫາກ	-985
ໂຮງ	-986
ເພີ່ມ	-987
est	-988
▁ກິດ	-989
▁ດັ່ງນັ້ນ	-990
▁.	-991
▁ຄືນ	-992
▁&	-993
ວາງ	-994
ເອົາ	-995
ື້ອຍ	-996
ນ໌	-997
ໂຫລດ	-998
▁ແກ່	-999
▁ເທົ່າ	-1000
ບາງ	-1001
ແລະການ	-1002
▁ຄ່າ	-1003
ພຽງ	-1004
ໃຫມ່	-1005
ແລ້ວ	-1006
.0	-1007
ຄຸນ	-1008
ອາກາດ	-1009
▁ເຫລົ່າ	-1010
ແຮງ	-1011
▁ສຶກ	-1012
▁ເລືອກ	-1013
ຂ້າພະເຈົ້າ	-1014
ກາຍ	-1015
▁Bl	-1016
ນັກ	-1017
ຄົ້ນ	-1018
▁ຊອບ	-1019
▁US	-1020
ຂະຫນາດ	-1021
ສັນ	-1022
▁30	-1023
ນໍາໃຊ້	-1024
18	-1025
pe	-1026
▁ນ້ອງ	-1027
ືອບ	-1028
ain	-1029
▁ໂອ	-1030
ທົ່ວ	-1031
ເລືອກ	-1032
ບໍ່ມີ	-1033
ລູກ	-1034
▁100	-1035
att	-1036
▁ຈັດ	-1037
ໄພ	-1038
ight	-1039
▁ໂທລະສັບ	-1040
▁18	-1041
ພາກ	-1042
▁2019	-1043
▁+	-1044
▁ເພີ່ມ	-1045
▁ອ້າງ	-1046
ໂຕ	-1047
ເຂດ	-1048
ຕັດ	-1049
ຸລະກິດ	-1050
ib	-1051
ບໍລິການ	-1052
ຶງ	-1053
▁ແຕກ	-1054
▁ສັນ	-1055
eb	-1056
▁ໂດ	-1057
▁ແປງ	-1058
ຊາຍ	-1059
າຍຸ	-1060
od	-1061
ຈິງ	-1062
▁ພົບ	-1063
▁ຜ້າ	-1064
▁ໄມ້	-1065
ດັ່ງ	-1066
▁16	-1067
30	-1068
ie	-1069
▁ແຮງ	-1070
▁ລັງ	-1071
▁ເລີ່ມ	-1072
▁ຈົນ	-1073
ເບິ່ງ	-1074
ຸດສາຫະ	-1075
້າວ	-1076
▁ມູນ	-1077
▁ຖານ	-1078
ຄືນ	-1079
▁ຂະ	-1080
ປະຕິບັດ	-1081
▁ມິ	-1082
▁ປະເພດ	-1083
▁in	-1084
ະນໍາ	-1085
ast	-1086
▁ຄອບຄົວ	-1087
ບໍລິສັດ	-1088
▁v	-1089
ate	-1090
co	-1091
▁ສົນ	-1092
ເຫດ	-1093
ip	-1094
▁ຫນາ	-1095
▁Pr	-1096
ະນຸດ	-1097
▁ເສັ້ນ	-1098
ຍາກ	-1099
ແກ	-1100
ສອບ	-1101
ທົດ	-1102
ຍານ	-1103
▁ເກມ	-1104
ver	-1105
ວິທີ	-1106
ub	-1107
▁ຄວນ	-1108
▁ຕາຍ	-1109
ark	-1110
▁ທົ່ວ	-1111
ໍ້າ	-1112
ສາມ	-1113
ak	-1114
▁ນອກ	-1115
ຮ້ອງ	-1116
ພັດທະນາ	-1117
apos	-1118
ເວົ້າ	-1119
▁ບົດ	-1120
ູມ	-1121
▁ກາຍ	-1122
▁25	-1123
▁ເຫນີ	-1124
▁50	-1125
ation	-1126
ບັນດາ	-1127
ຊາຊົນ	-1128
ard	-1129
▁ບ້ານ	-1130
່ວງ	-1131
ວ້າ	-1132
12	-1133
ັບໄຊ	-1134
ທຸລະກິດ	-1135
ອີ	-1136
ລັດຖະ	-1137
▁ຕອບ	-1138
ປະກອບ	-1139
ຜິດ	-1140
ຂື້ນ	-1141
19	-1142
ເດືອນ	-1143
້ຽມ	-1144
ປ່ຽນ	-1145
ໂມ	-1146
▁apost	-1147
ກໍ	-1148
▁ເປີດ	-1149
art	-1150
ສົນ	-1151
ສະຫນອງ	-1152
ໍາມະ	-1153
ປົວ	-1154
▁ກໍາລັງ	-1155
ຫັດ	-1156
ຸດສາຫະກໍາ	-1157
້ຽງ	-1158
ຄັ້ງ	-1159
if	-1160
ໄດ້ຮັບການ	-1161
▁ອິນ	-1162
ແປງ	-1163
▁ສິນ	-1164
ap	-1165
▁ເປີ	-1166
▁st	-1167
ທີ່ດີ	-1168
ຊື່	-1169
ທຶນ	-1170
eng	-1171
▁ເພື່ອນ	-1172
▁ໄພ	-1173
▁ແຈ	-1174
▁ເຮືອນ	-1175
▁>	-1176
ໂອ	-1177
ະລັດ	-1178
ສື	-1179
▁ວິນ	-1180
▁ເສດ	-1181
ric	-1182
ັບສະຫນ	-1183
ອາຫານ	-1184
ai	-1185
ry	-1186
▁ຈຸດ	-1187
▁ຈ່າຍ	-1188
▁ເບ	-1189
▁ສໍາຄັນ	-1190
ເອງ	-1191
ກໍາລັງ	-1192
15	-1193
▁ໂສ	-1194
ເພາະ	-1195
▁Q	-1196
ce	-1197
ນີ	-1198
ະລັງງານ	-1199
▁ຊອກ	-1200
ຂາຍ	-1201
▁ຂ່າວ	-1202
ໍາເນ	-1203
ex	-1204
ຄຸມ	-1205
ຈີນ	-1206
ກອງ	-1207
▁ຊົນ	-1208
▁13	-1209
ິ່ນປົວ	-1210
▁24	-1211
ເກັບ	-1212
▁ຮ້າຍ	-1213
ill	-1214
ໍາເນີນ	-1215
▁ສີ່	-1216
ປົກ	-1217
ື່ມ	-1218
ຫຍດ	-1219
ຄອນ	-1220
ເລີ່ມ	-1221
ຫນັກ	-1222
▁n	-1223
ອີກ	-1224
ຊິກ	-1225
▁ຫຼິ້ນ	-1226
iz	-1227
ບ່ງ	-1228
▁ຊາດ	-1229
ລະບົບ	-1230
ສິ່ງທີ່	-1231
ຫຍັງ	-1232
ສຽງ	-1233
ສະຖານ	-1234
ເມື່ອ	-1235
ົນຕີ	-1236
▁ຊົ່ວ	-1237
▁14	-1238
ell	-1239
▁ຜະລິດຕະພັນ	-1240
▁ບໍລິສັດ	-1241
ແນວ	-1242
▁ເຈັບ	-1243
່ຽງ	-1244
13	-1245
ໄສ	-1246
ອັນ	-1247
16	-1248
▁ກາງ	-1249
ມະ	-1250
▁ຍິນ	-1251
▁ຍົກ	-1252
▁ຈໍານວນ	-1253
ສໍາລັບການ	-1254
▁ອື່ນໆ	-1255
ist	-1256
ພົບ	-1257
ຈ່າຍ	-1258
▁ກ່ຽວກັບ	-1259
ຂີ້	-1260
າງວັນ	-1261
ຸ້ມ	-1262
ເຂົາເຈົ້າ	-1263
ແຫ່ງ	-1264
▁ແມັດ	-1265
ຕາເວັນອອກ	-1266
ອາເມຣິກາ	-1267
▁ໄສ	-1268
ໄດ້ຖືກ	-1269
ຫຼາດ	-1270
ob	-1271
ະນຸ	-1272
▁ບອກ	-1273
▁ພ້ອມ	-1274
ລະຫວ່າງ	-1275
ສາຍ	-1276
▁2017	-1277
ພາຍ	-1278
▁ພາຍ	-1279
▁ແສງ	-1280
ອອກແບບ	-1281
▁ອັດ	-1282
▁aposre	-1283
ຄອງ	-1284
▁ລາຄາ	-1285
ach	-1286
ແຕກ	-1287
▁ສິບ	-1288
ຮັກສາ	-1289
ໂຍ	-1290
ຫະລັດ	-1291
▁ເວັນ	-1292
▁ສູນ	-1293
ກ່ອນ	-1294
▁17	-1295
ເຜ	-1296
ity	-1297
▁ຍານ	-1298
ສໍາຄັນ	-1299
ໂດ	-1300
av	-1301
▁ກາ	-1302
▁ຖື	-1303
▁ເຄີຍ	-1304
▁ມັກ	-1305
▁ລະບ	-1306
.2	-1307
▁'	-1308
ock	-1309
▁ປາ	-1310
ວັດ	-1311
ind	-1312
ctor	-1313
▁ເຂດ	-1314
▁ລ້ານ	-1315
▁ນັບ	-1316
all	-1317
oh	-1318
ຖ້າ	-1319
ະນາຄ	-1320
▁ຄະ	-1321
▁ຈິດ	-1322
ຖະກິດ	-1323
▁ພິມ	-1324
oft	-1325
▁ໄຂ	-1326
▁ຢາ	-1327
▁ຍິ່ງ	-1328
ph	-1329
pt	-1330
▁ຂະນະ	-1331
ວບຄຸມ	-1332
ຈໍານວນ	-1333
▁ສຸກ	-1334
▁ປະມານ	-1335
aposs	-1336
ຈຸບັນ	-1337
▁2016	-1338
ແສງ	-1339
▁ເຕັມ	-1340
▁ປ້ອງ	-1341
ົາມ	-1342
ເຊັ່ນ	-1343
ໂນໂລ	-1344
ບິນ	-1345
ຂ່າວ	-1346
86	-1347
▁ຍິງ	-1348
▁r	-1349
▁ວາງ	-1350
ສຸກ	-1351
ຢືນ	-1352
▁ເຊັນ	-1353
se	-1354
ມາຊິກ	-1355
▁ໄຊ	-1356
ຢາ	-1357
ຸນາ	-1358
▁ວັດ	-1359
ັກໂນໂລ	-1360
ສູນ	-1361
ສຶກສາ	-1362
.5	-1363
▁ພື້ນ	-1364
ັ້ມ	-1365
ຫົວ	-1366
ປະຊຸມ	-1367
▁ຕົກ	-1368
▁ບັງ	-1369
ຄາດ	-1370
ແມັດ	-1371
ັບສະຫນູນ	-1372
▁ເດີນ	-1373
▁ຈົ່ງ	-1374
ທະຍາໄລ	-1375
ຫາກ	-1376
▁ຫລັງ	-1377
ສະເ	-1378
▁ຖົງ	-1379
▁ໂນ	-1380
▁ຣ	-1381
▁ໂມ	-1382
▁ຫນັງ	-1383
ຖາມ	-1384
▁ຢ້ານ	-1385
ຕອບ	-1386
ຢັນ	-1387
▁ແຂງ	-1388
ຫ້ອງ	-1389
ປະມານ	-1390
▁ຖາມ	-1391
▁ດົນ	-1392
ແມ່	-1393
ບົດ	-1394
▁ແຜນ	-1395
▁ນິ	-1396
ນະພາບ	-1397
▁:	-1398
ລວມ	-1399
▁ທັນ	-1400
ໄລຍະ	-1401
ແລະຄວາມ	-1402
ຕົນ	-1403
99	-1404
ໂຄ	-1405
ແຕກຕ່າງ	-1406
▁ເຫດການ	-1407
▁ງ່າຍ	-1408
▁ແຍ	-1409
ກອນ	-1410
ort	-1411
ເລື່ອງ	-1412
ໂຄງການ	-1413
▁ຖະຫນ	-1414
ອົບ	-1415
▁40	-1416
ວາ	-1417
ant	-1418
▁ຕ່າງໆ	-1419
ພຣະ	-1420
ັກງານ	-1421
ໄວ້	-1422
ພຽງແຕ່	-1423
▁ປະຊຸມ	-1424
ໄມ້	-1425
ສະຫມ	-1426
ປ້ອງ	-1427
▁ຄັ້ງ	-1428
ແຫນ	-1429
▁ປະກ	-1430
▁ດໍາ	-1431
▁USD	-1432
ຫນືອ	-1433
ment	-1434
ມັດ	-1435
ົ່ານີ້	-1436
ກ້ໄຂ	-1437
▁ທົດ	-1438
80	-1439
ອກາດ	-1440
ອດໄພ	-1441
▁ເກັບ	-1442
ກ່ຽວ	-1443
ມີການ	-1444
ide	-1445
▁ສາດສະຫນາ	-1446
ies	-1447
▁ຄົ້ນ	-1448
ສະພາ	-1449
ເກມ	-1450
▁ປະເທດ	-1451
▁ໃບ	-1452
ລະດັບ	-1453
ຜ່ານມາ	-1454
ly	-1455
sh	-1456
ັບປ	-1457
▁ແຕ່ງ	-1458
ດໍາເນີນ	-1459
▁ສະຫນ	-1460
ww	-1461
▁00	-1462
່ນອນ	-1463
▁໌	-1464
ເດັກ	-1465
ເລັດ	-1466
ຄວບຄຸມ	-1467
ກະຕິ	-1468
▁ກຸ່ມ	-1469
td	-1470
▁ຂຽນ	-1471
ໍານາດ	-1472
ກິ	-1473
ທີ່ທ່ານ	-1474
▁ເສົ້າ	-1475
zh	-1476
ີບ	-1477
▁Col	-1478
ໂຫຍດ	-1479
60	-1480
▁£	-1481
ອນໄລ	-1482
ເຊື່ອມ	-1483
▁ດ້ານ	-1484
▁ເອື້ອຍ	-1485
▁ອາຫານ	-1486
ຕົກ	-1487
ປະເພດ	-1488
ເປີດ	-1489
ຝຸ່ນ	-1490
ະນຸຍາດ	-1491
▁ຕັດສິນ	-1492
ຕູ	-1493
ຮມ	-1494
▁ສັງ	-1495
ຫມີ	-1496
ໃຕ້	-1497
ເວັບໄຊ	-1498
▁ເວັບ	-1499
ຂັນ	-1500
ຸ້ງ	-1501
▁ຫມູ່	-1502
▁ຖະ	-1503
▁ແຜ່ນດິນ	-1504
▁ຊ່ອຍ	-1505
▁ສົງ	-1506
ແຂ່ງ	-1507
bo	-1508
▁ດູດ	-1509
▁ລະບົບ	-1510
ບໍ່ໄດ້	-1511
ຈຸດ	-1512
).	-1513
▁ເອີ້ນ	-1514
ແຈ	-1515
▁En	-1516
ອື່ນ	-1517
▁ສະຖານ	-1518
pr	-1519
າວິ	-1520
ຮູ້ສຶກ	-1521
17	-1522
▁ສະແດງ	-1523
ອຽດ	-1524
ອນໄລນ໌	-1525
ບໍ	-1526
▁ຍາກ	-1527
້ຍ	-1528
▁ຫນຸ່ມ	-1529
ັງຄົມ	-1530
ອັດ	-1531
ັກສະ	-1532
ຫວຽດນາມ	-1533
-2	-1534
ຫມາະ	-1535
ດັ່ງກ່າວ	-1536
ຫຍາຍ	-1537
ຄົ້ນຄ	-1538
▁ເສື້ອ	-1539
ປອດໄພ	-1540
ອກະ	-1541
▁ຫວັງ	-1542
▁ທີ່ຢູ່	-1543
▁ພະຍາຍາມ	-1544
ອະ	-1545
40	-1546
ູ້ນ	-1547
ລອງ	-1548
▁ຊຸມ	-1549
ື່ງ	-1550
XL	-1551
ue	-1552
ກັດ	-1553
▁Re	-1554
ດູ	-1555
ວ້າງ	-1556
▁ຟຣີ	-1557
ff	-1558
ເງ	-1559
▁Al	-1560
▁ແທນ	-1561
ຕາເວັນອອກກາງ	-1562
ພູມ	-1563
ວະ	-1564
ຄວນ	-1565
ົ່ມ	-1566
▁ສານ	-1567
age	-1568
ພັກ	-1569
old	-1570
▁ໂຄ	-1571
ຂ້ອງ	-1572
ທ໌	-1573
ord	-1574
ເຄື່ອນ	-1575
ອຸປະກອນ	-1576
ວກັນ	-1577
ຈັນ	-1578
ຂອງລາວ	-1579
▁ອຸປະກອນ	-1580
ຕ່າງໆ	-1581
ບ່ອນ	-1582
ug	-1583
ະນິດ	-1584
ົ້ມ	-1585
ຫງ	-1586
ຕະລ	-1587
▁No	-1588
▁ຫະ	-1589
▁ຄອມ	-1590
ແທນ	-1591
ບັບ	-1592
▁ຮ້ອງ	-1593
▁ສະພາບ	-1594
▁ຫມາກ	-1595
▁Ltd	-1596
▁ຟັງ	-1597
11	-1598
ມົນຕີ	-1599
ປະສົບ	-1600
ash	-1601
▁ເຕີບ	-1602
▁22	-1603
▁ລໍາ	-1604
▁x	-1605
ass	-1606
▁ແປດ	-1607
ຊອບ	-1608
▁ລົມ	-1609
▁ພະອົງ	-1610
ຽວກັນ	-1611
ສາກ	-1612
45	-1613
ຄຸນນະພາບ	-1614
່າງກາຍ	-1615
▁ຄັນ	-1616
ປະຊາຊົນ	-1617
▁ອຸ	-1618
ຂະສິດ	-1619
▁ບານ	-1620
ກວດ	-1621
▁of	-1622
▁ບັນດາ	-1623
ຊານ	-1624
ຮ້ອນ	-1625
ແທ້	-1626
▁ຍ້ອນ	-1627
▁em	-1628
▁ປວດ	-1629
,000	-1630
▁ຕີ	-1631
ook	-1632
ຖົງ	-1633
iv	-1634
▁ກິນ	-1635
▁ພຣະອົງ	-1636
▁60	-1637
▁Pl	-1638
່ໍາ	-1639
▁ຄາດ	-1640
ແກ້ໄຂ	-1641
ິ້ມ	-1642
ທີ່ບໍ່	-1643
▁ຫນ້ອຍ	-1644
ບູນ	-1645
ne	-1646
ລ໌	-1647
ເລກ	-1648
ຊາວ	-1649
ກ່ຽວຂ້ອງ	-1650
ື້ນີ້	-1651
ໄຟຟ້າ	-1652
ົາມີ	-1653
▁ອ່ານ	-1654
ທຶກ	-1655
ທັບ	-1656
▁ຄົວ	-1657
▁ອະທິ	-1658
▁ປະທານ	-1659
▁ນີ້ແມ່ນ	-1660
▁ປອດ	-1661
ນິ	-1662
per	-1663
▁An	-1664
yl	-1665
▁ຍາມ	-1666
ish	-1667
ລະອຽດ	-1668
▁ຄູ່	-1669
ລິກາ	-1670
▁ລ້ຽງ	-1671
ໂປ	-1672
ຈຶ່ງ	-1673
▁ເທິງ	-1674
.”	-1675
▁ກໍ່	-1676
are	-1677
ive	-1678
ອຸດສາຫະກໍາ	-1679
ເຟ	-1680
ແຕກຕ່າງກັນ	-1681
lo	-1682
tt	-1683
▁ໂຮງງານ	-1684
▁ແກ້	-1685
ວັນທີ	-1686
່ວາ	-1687
ະນັກງານ	-1688
▁ຂັ້ນ	-1689
▁ແທ້ໆ	-1690
▁ກາດ	-1691
▁ຫ້າ	-1692
▁ຫວ່າງ	-1693
ແຕ່ງ	-1694
ໂທລະ	-1695
ຄອບ	-1696
ສອນ	-1697
ແຂ່ງຂັນ	-1698
ນາງ	-1699
ina	-1700
ran	-1701
ເສດຖະກິດ	-1702
▁ອົບ	-1703
ເຫລ	-1704
ແຜນ	-1705
ໃນປີ	-1706
▁Colle	-1707
ບຸກ	-1708
ເຂົ້າຮ່ວມ	-1709
ik	-1710
act	-1711
▁ດູ	-1712
ົ່ານັ້ນ	-1713
ສະພາບ	-1714
ລາຄາ	-1715
▁ເຫລືອ	-1716
ວ່າທ່ານ	-1717
ud	-1718
ຕະຖານ	-1719
ຕ້ານ	-1720
▁[	-1721
ກະທົບ	-1722
ໂຮງງານ	-1723
▁ອາທິດ	-1724
▁Pro	-1725
▁ລວມ	-1726
▁ສອບ	-1727
ທະຍາສາດ	-1728
ແພ	-1729
ຝຶກ	-1730
▁ເພດ	-1731
ຸລາ	-1732
▁ສັບ	-1733
▁ຍອມ	-1734
ສົບ	-1735
▁ມະນຸດ	-1736
ຫລາດ	-1737
ລົງທຶນ	-1738
ສູ່	-1739
▁ດິນ	-1740
▁ຖະຫນົນ	-1741
▁ເຜ	-1742
▁ຫນ້າທໍາອິດ	-1743
ດັນ	-1744
▁ແບ່ງ	-1745
ແຂງ	-1746
ີໂອ	-1747
▁ສູ່	-1748
▁i	-1749
ແນະນໍາ	-1750
▁ເຊື້ອ	-1751
▁ອີເມ	-1752
),	-1753
▁and	-1754
ຍົກ	-1755
▁ຄຸມ	-1756
ອາດຈະ	-1757
▁ກໍລະ	-1758
ເສັ້ນ	-1759
▁ນີ	-1760
▁ແພ	-1761
ພະລັງງານ	-1762
ສະຫວ່າງ	-1763
ໍາລາຍ	-1764
ew	-1765
ຮົມ	-1766
ພື້ນຖານ	-1767
▁ຫລວງ	-1768
▁ສະນັ້ນ	-1769
ທິພາບ	-1770
▁ພີ	-1771
▁ແວ	-1772
ລູກຄ້າ	-1773
ສິ	-1774
ແວ	-1775
ail	-1776
▁ໂຄງ	-1777
▁ນຶ່ງ	-1778
-0	-1779
ັງກິດ	-1780
▁ບັນຫາ	-1781
ຊີບ	-1782
ປະສິດ	-1783
ມາດ	-1784
▁Te	-1785
▁ຄະນະ	-1786
▁ອົງການ	-1787
ຫວັດ	-1788
ພະຍາຍາມ	-1789
▁Sc	-1790
▁ຢືນ	-1791
ທັນ	-1792
ons	-1793
ຕິກ	-1794
▁ລັດຖະ	-1795
ັບປຸງ	-1796
▁don	-1797
ທີ່ເປັນ	-1798
ໃຫ້ເຫັນ	-1799
ເຫຼືອ	-1800
▁ຮັກສາ	-1801
▁Fl	-1802
▁ໃຕ້	-1803
▁ເລີຍ	-1804
▁86	-1805
ັດສະດ	-1806
ໃຊ້ຈ່າຍ	-1807
▁Mark	-1808
▁21	-1809
▁re	-1810
ແນວໃດ	-1811
▁#	-1812
ແຍ	-1813
ູ້ນໍາ	-1814
ວ່າຈະ	-1815
ick	-1816
▁e	-1817
ຕໍາ	-1818
ບາດ	-1819
▁Hack	-1820
35	-1821
▁ຂອບ	-1822
ືດ	-1823
ຊອກ	-1824
▁Collector	-1825
ເຊຍ	-1826
▁Cas	-1827
ທ້າຍ	-1828
ຕະຫຼາດ	-1829
▁ແອ	-1830
▁Car	-1831
ມື້ນີ້	-1832
▁ໂຄງການ	-1833
ສັງ	-1834
ຶ້ມ	-1835
ows	-1836
ຂຽນ	-1837
ສາກົນ	-1838
ັ້ງຢືນ	-1839
ino	-1840
▁ຫນັກ	-1841
25	-1842
ືກັບ	-1843
ED	-1844
▁ຂ້າງ	-1845
▁ເຊີນ	-1846
ໃບ	-1847
ກຸ່ມ	-1848
▁ຍີ່	-1849
▁ມອບ	-1850
▁ເພາະວ່າ	-1851
ື້ອງ	-1852
ເຕີມ	-1853
ຊື້	-1854
▁ລິດ	-1855
▁ຜະ	-1856
ຕໍ່ໄປ	-1857
▁ແກ	-1858
ພາສາ	-1859
▁ໂສກ	-1860
▁23	-1861
▁ຫມັ້ນ	-1862
▁ລາງວັນ	-1863
ຄົ້ນຄວ້າ	-1864
ປັດ	-1865
ຈາລະ	-1866
ດຽວກັນ	-1867
14	-1868
end	-1869
ຸ່ງ	-1870
ງ່າຍ	-1871
ສະເຫນີ	-1872
▁ດຶງ	-1873
ວິທີການ	-1874
▁ຕົວຢ່າງ	-1875
ແກ່	-1876
ສະຫະລັດ	-1877
ec	-1878
▁ຄູ	-1879
ເຈນ	-1880
ັສ	-1881
ລາຍງານ	-1882
ile	-1883
ເວລາທີ່	-1884
ຢາມ	-1885
ອົບຮົມ	-1886
▁ເປົ້າ	-1887
ລົມ	-1888
ເຫຼົ່ານີ້	-1889
SO	-1890
▁Cl	-1891
ov	-1892
ຄົງ	-1893
▁ລີ	-1894
ຢ້ຽມ	-1895
▁ຍ່າງ	-1896
▁ອີງ	-1897
ປາ	-1898
ຮ້າຍ	-1899
▁ຝຶກ	-1900
ັດສະດຸ	-1901
ຄູ່	-1902
▁ຊາ	-1903
ite	-1904
▁lt	-1905
▁Wind	-1906
ການຄ້າ	-1907
ອິນ	-1908
▁ພວກເຂົາ	-1909
▁k	-1910
ຖຸນາ	-1911
▁ອາຍຸ	-1912
ຂະຫຍາຍ	-1913
ພາຍໃນ	-1914
ພາດ	-1915
▁ໃກ້	-1916
▁ແຫນ	-1917
IN	-1918
ire	-1919
ກ່ວາ	-1920
ເຮືອນ	-1921
ຂອງພວກເຂົາ	-1922
ປະໂຫຍດ	-1923
ເຮົາມີ	-1924
ມື້	-1925
້ອງຖ	-1926
ບັນຫາ	-1927
▁www	-1928
▁ພິວ	-1929
ໄປໃນ	-1930
▁ປະກາດ	-1931
ເກດ	-1932
inter	-1933
▁ນ້ໍາຫນັກ	-1934
ຊວງ	-1935
ຄວາມຄິດ	-1936
▁ກົວ	-1937
▁ເລັກ	-1938
ຫາວິ	-1939
ure	-1940
▁Ph	-1941
້ໍາມ	-1942
ໂມງ	-1943
▁ຈັບ	-1944
▁And	-1945
ກ່າວວ່າ	-1946
▁ຈົດ	-1947
ນ໌ໂຫລດ	-1948
▁ພຶດ	-1949
▁2020	-1950
ອອນໄລນ໌	-1951
▁ດາ	-1952
່ຽວຊານ	-1953
ານາ	-1954
ທີ່ຖືກ	-1955
▁ປ່ອຍ	-1956
ລັດຖະບານ	-1957
oos	-1958
▁ເຄື່ອນ	-1959
▁ປະຕິບັດ	-1960
75	-1961
▁Ar	-1962
ະການ	-1963
▁The	-1964
▁ອ່ອນ	-1965
ສະຫນັບສະຫນູນ	-1966
="	-1967
▁j	-1968
▁ປະສົບ	-1969
ການຜະລິດ	-1970
▁ງາມ	-1971
ox	-1972
ຫາຍ	-1973
▁Sp	-1974
ທີ່ແຕກຕ່າງກັນ	-1975
▁Ser	-1976
ຫະພູມ	-1977
▁Man	-1978
້ານີ້	-1979
AN	-1980
ction	-1981
ສໍາເລັດ	-1982
▁ເກີນ	-1983
ັກສະນະ	-1984
▁ຕໍ່ໄປ	-1985
▁the	-1986
ພິວ	-1987
▁ໂຣ	-1988
ຕອງ	-1989
ປະທານ	-1990
ຝຶກອົບຮົມ	-1991
ຸນຫະພູມ	-1992
ros	-1993
▁ແຈ້ງ	-1994
▁Su	-1995
ສະຫຼ	-1996
ey	-1997
ເລັກ	-1998
▁ແນ່ນອນ	-1999
▁ສາວ	-2000
ຈາກການ	-2001
ຕັດສິນ	-2002
▁ດາວໂຫລດ	-2003
.3	-2004
ສີແດງ	-2005
ໄຫວ	-2006
ຂ້າງ	-2007
▁500	-2008
▁ອໍານາດ	-2009
ຄົມ	-2010
▁ພາສາ	-2011
ລຸ	-2012
ຍາວ	-2013
▁ຈີ	-2014
▁ສັນຍາ	-2015
▁ທ້າຍ	-2016
▁2015	-2017
▁ພັດ	-2018
ຣາ	-2019
ຂົນ	-2020
▁ຫົກ	-2021
-5	-2022
▁Min	-2023
ER	-2024
ເລີ່ມຕົ້ນ	-2025
▁ດາວນ໌ໂຫລດ	-2026
ັງກອນ	-2027
▁ຫຼັງ	-2028
້ໍາມັນ	-2029
ຢາກ	-2030
ວ່າມັນ	-2031
our	-2032
▁ລະຫັດ	-2033
ຂະນະ	-2034
▁ເພງ	-2035
ນິກ	-2036
▁ຄ້າ	-2037
ens	-2038
ກໍານ	-2039
▁300	-2040
▁ໄຫວ	-2041
roid	-2042
▁ສະມາຊິກ	-2043
uro	-2044
ໂຍບາຍ	-2045
▁ຂັບ	-2046
able	-2047
▁ຊື້	-2048
ອາທິດ	-2049
▁ເກົ້າ	-2050
ets	-2051
oly	-2052
ຜ້າ	-2053
ຜ່ອນ	-2054
ຍົມ	-2055
ມືຖື	-2056
ຫລອດ	-2057
ont	-2058
ເຄາະ	-2059
▁ອ້າຍ	-2060
ອະນຸຍາດ	-2061
້ວນ	-2062
ລ້ອມ	-2063
ber	-2064
▁35	-2065
▁Dust	-2066
ຮູບພາບ	-2067
▁ອຸດ	-2068
▁Mach	-2069
ທົດລອງ	-2070
ຈັດຕັ້ງ	-2071
▁ສື່	-2072
ທີ່ພວກເຮົາ	-2073
70	-2074
ອາຍຸ	-2075
▁ເຫຼົ່າ	-2076
her	-2077
ຕົວຢ່າງ	-2078
ແນນ	-2079
▁by	-2080
rat	-2081
ຊະນະ	-2082
ຈມ	-2083
ຫມັ້ນ	-2084
ຫນັງ	-2085
ເດີນ	-2086
▁ໄດ້ຮັບ	-2087
ສະຖານທີ່	-2088
ມະນຸດ	-2089
ໂອກາດ	-2090
90	-2091
ຄະນະ	-2092
ຂັ້ນ	-2093
ຄອບຄົວ	-2094
ຈາລະນາ	-2095
ືອດ	-2096
▁ເກາະ	-2097
ຫນ້າທີ່	-2098
▁ຕໍາ	-2099
▁ຢ້ຽມ	-2100
▁Koh	-2101
ຢາງ	-2102
▁ຂາຍ	-2103
ປະກັນ	-2104
▁ປາດ	-2105
ax	-2106
ei	-2107
▁ຄາ	-2108
▁ຄວບ	-2109
ກົດຫມາຍ	-2110
1,	-2111
ກົງ	-2112
▁ນາຍ	-2113
ຮ່	-2114
ix	-2115
ເວັບໄຊທ໌	-2116
ao	-2117
iang	-2118
▁Un	-2119
▁ຫຍ	-2120
aser	-2121
ທີ່ກ່ຽວຂ້ອງ	-2122
ທີ່ດີທີ່ສຸດ	-2123
▁Ex	-2124
▁ອົກ	-2125
ຕິດຕໍ່	-2126
ກ່ຽວກັບການ	-2127
▁Windows	-2128
ນໍ້າ	-2129
ຫຼັງຈາກ	-2130
ຮູບແບບ	-2131
ມັກ	-2132
ສະເພາະ	-2133
ລັງ	-2134
▁ສັກ	-2135
ກັບການ	-2136
ທາງການ	-2137
▁ເນື່ອງ	-2138
▁y	-2139
ຕັນ	-2140
ຫ້າ	-2141
ກໍານົດ	-2142
ram	-2143
ich	-2144
ຮອງ	-2145
ການປ່ຽນ	-2146
ພໍ	-2147
ແວດ	-2148
ໄຫມ	-2149
▁ອີເມລ໌	-2150
ສູ້	-2151
ຫນ້ານີ້	-2152
▁ຜູ້ຄົນ	-2153
ເຄື່ອງຈັກ	-2154
ev	-2155
ຂອບ	-2156
ສັງຄົມ	-2157
ອາເມລິກາ	-2158
ຊັບ	-2159
ແຈ້ງ	-2160
ທົ່ວໄປ	-2161
ເຕັກໂນໂລ	-2162
.6	-2163
ບວນ	-2164
▁ຂັດ	-2165
▁ຄວ້າ	-2166
attoos	-2167
ຢັ້ງຢືນ	-2168
ປຸ່ນ	-2169
ge	-2170
ືມ	-2171
ຫນ້ອຍ	-2172
ເອີ້ນ	-2173
ແລນ	-2174
ໂກ	-2175
ຽກຮ້ອງ	-2176
ແວດລ້ອມ	-2177
ຂາວ	-2178
ທີມ	-2179
ຸຂະ	-2180
▁ບຸກ	-2181
ຂອງຄວາມ	-2182
▁ຕ້ອງການ	-2183
ເພີ່ມເຕີມ	-2184
▁ເຫຼືອ	-2185
▁Mc	-2186
▁ເນີນ	-2187
ຸ້ງຍາກ	-2188
ກວ້າງ	-2189
ຄະເນ	-2190
ສັນຍາ	-2191
ສົນໃຈ	-2192
▁ໃນການ	-2193
ຜົນກະທົບ	-2194
▁ລະຫວ່າງ	-2195
ສີ່	-2196
▁ກ້າວ	-2197
▁2014	-2198
ສະຫມັກ	-2199
ຂີ້ຝຸ່ນ	-2200
ໂພ	-2201
uc	-2202
-20	-2203
▁ໂຍ	-2204
ator	-2205
ບ້ານ	-2206
ທົດສອບ	-2207
ຊະ	-2208
ພິເສດ	-2209
▁ທຶນ	-2210
▁ພໍ	-2211
ເທິງ	-2212
ຫຼັກ	-2213
ເຊັນ	-2214
▁ທິດ	-2215
▁ໂຕ້	-2216
coin	-2217
ຂອງຂ້ອຍ	-2218
ກອງປະຊຸມ	-2219
▁ຊັ້ນ	-2220
ເຫຼັກ	-2221
▁ອົດ	-2222
ຈໍາເປັນ	-2223
ts	-2224
▁ສະຫະ	-2225
ປົກກະຕິ	-2226
▁ຫຼັງຈາກ	-2227
ຫຼວດ	-2228
ote	-2229
▁ໃຜ	-2230
▁ກົງ	-2231
ໃຊ້ເວລາ	-2232
ໍາມະຊາດ	-2233
ຫວັນ	-2234
ສົ່ງອອກ	-2235
ຄາມ	-2236
▁26	-2237
▁hack	-2238
ທົ່ວໂລກ	-2239
ເສີມ	-2240
ຄອມ	-2241
▁ແນນ	-2242
ໂທລະສັບ	-2243
▁ຈື່	-2244
ັງຄັບ	-2245
ean	-2246
▁ແດ	-2247
ond	-2248
ດາວ	-2249
▁ລອງ	-2250
ອົງການ	-2251
ລັດຖະມົນຕີ	-2252
ງາມ	-2253
olog	-2254
▁ກອນ	-2255
ສົງ	-2256
ໂລຫະ	-2257
▁ພັກ	-2258
ເຕັມ	-2259
▁ພອນ	-2260
ວິທະຍາສາດ	-2261
ice	-2262
ບອກ	-2263
▁ຫລັກ	-2264
▁ວິທີການ	-2265
ຈິ	-2266
▁ສື	-2267
ທີ່ມີຄວາມ	-2268
ຈອນ	-2269
ຈິດ	-2270
ສີແດງສີແດງ	-2271
ປ້ອງກັນ	-2272
▁Rong	-2273
ຫມາະສົມ	-2274
ree	-2275
ອາຍ	-2276
ເຊື້ອ	-2277
▁Ro	-2278
▁ແລະອື່ນໆ	-2279
▁ສົບ	-2280
▁ເລັດ	-2281
ຸຂະພາບ	-2282
ເຫຼືອງ	-2283
ແຫຼ	-2284
ial	-2285
▁Android	-2286
▁©	-2287
night	-2288
ຂອງຕົນ	-2289
▁ສິງ	-2290
້ອງຖິ່ນ	-2291
ໂຣ	-2292
less	-2293
ແຕ້ມ	-2294
▁ແຕ້ມ	-2295
▁ຟື້ນ	-2296
ອກະສານ	-2297
ຫຼຸດ	-2298
▁Vess	-2299
ສາຫະກິດ	-2300
ເດີນທາງ	-2301
ah	-2302
າບັນ	-2303
ເຄີຍ	-2304
▁ມັງກອນ	-2305
▁Vessoft	-2306
ທາລະ	-2307
▁ແນະນໍາ	-2308
ປະສິດທິພາບ	-2309
gle	-2310
ເມີ	-2311
ປະສົບການ	-2312
▁ທ້ອງ	-2313
ຊ່ຽວຊານ	-2314
.1	-2315
ກັ່ນ	-2316
▁ແລ່ນ	-2317
ປະສົງ	-2318
▁ລິຂະສິດ	-2319
ໍາລົງ	-2320
ຮ່ວມມື	-2321
▁ເຫນືອ	-2322
88	-2323
own	-2324
ໍລະ	-2325
ເບີດ	-2326
ຄາດຄະເນ	-2327
ວີ	-2328
ress	-2329
ທ່ຽວ	-2330
ຄົນທີ່	-2331
ມິ	-2332
ຫວັງ	-2333
ວ່າການ	-2334
▁ລະດັບ	-2335
eel	-2336
▁ໄມ	-2337
▁ນອນ	-2338
ໃກ້	-2339
ru	-2340
oun	-2341
▁ອັດຕາ	-2342
24	-2343
▁ປຶ້ມ	-2344
▁ກຸມ	-2345
ພ້ອມ	-2346
ໂນມັດ	-2347
▁Euro	-2348
ສືບ	-2349
ຜິດຊອບ	-2350
200	-2351
ທົນ	-2352
▁ບິນ	-2353
ຫຍື້ອ	-2354
▁ຝ່າຍ	-2355
ສົມບູນ	-2356
ການປ່ຽນແປງ	-2357
ສັກ	-2358
ອີງ	-2359
▁ຊຸດ	-2360
ດານ	-2361
ນີ້ແມ່ນ	-2362
ພິວເຕີ	-2363
ຂອງເຂົາເຈົ້າ	-2364
▁»	-2365
▁ປິດ	-2366
ັດສະຈັນ	-2367
▁Ad	-2368
ປະກາດ	-2369
ແທ້ຈິງ	-2370
▁ຊົມ	-2371
▁ສະຫງ	-2372
ລັກ	-2373
ປະຕິ	-2374
.4	-2375
▁ຖິ່ນ	-2376
AC	-2377
▁ຫໍ	-2378
▁ປະຊາ	-2379
ting	-2380
▁ເຕັ້ນ	-2381
ົວພັນ	-2382
ທ່ອງ	-2383
ower	-2384
▁ເດັກນ້ອຍ	-2385
iss	-2386
ທິບໍ	-2387
▁ສິ້ນ	-2388
ຕໍ	-2389
▁ໄລຍະ	-2390
▁ປະຊາຊົນ	-2391
▁sc	-2392
▁ISO	-2393
ກໍາມະ	-2394
▁ເຜີຍ	-2395
ພີ	-2396
▁ທຸກໆ	-2397
ເດັກນ້ອຍ	-2398
ພົນ	-2399
ເນັດ	-2400
ຕະໂນມັດ	-2401
ຕາລີ	-2402
ຂອງຜູ້	-2403
▁ຫນ່ວຍ	-2404
▁ອ້ອມ	-2405
▁ຮູບພາບ	-2406
ລີແມັດ	-2407
ອັງກິດ	-2408
ະນາຄານ	-2409
ະນາຄົດ	-2410
ປັດຈຸບັນ	-2411
ແຜ່ນ	-2412
cm	-2413
ເຕີບ	-2414
▁ຖິ້ມ	-2415
ທະນາ	-2416
ເຜີຍ	-2417
....	-2418
ັດທະນະ	-2419
▁ກວດ	-2420
az	-2421
oll	-2422
ທາງດ້ານ	-2423
ໃຫ້ທ່ານ	-2424
▁ພະລັງງານ	-2425
▁ປັນ	-2426
ຊອກຫາ	-2427
ທີ່ຫນ້າ	-2428
ok	-2429
ເຂົ້າໃຈ	-2430
ore	-2431
▁ວັນທີ	-2432
ຂົນສົ່ງ	-2433
ວິນ	-2434
▁ໂມງ	-2435
▁2013	-2436
ຮູ້ວ່າ	-2437
ກັ່ນຕອງ	-2438
▁ຊື່ນ	-2439
▁ຮ້ານ	-2440
ຂະນະທີ່	-2441
ດູດ	-2442
▁Gu	-2443
ຍິ່ງ	-2444
ື່ອນໄຂ	-2445
ເຄື່ອນໄຫວ	-2446
28	-2447
ຍົນ	-2448
▁ໄຫມ	-2449
ທິບໍດີ	-2450
.00	-2451
▁28	-2452
ee	-2453
ເດຍ	-2454
▁ອໍາ	-2455
ດິດ	-2456
▁ກິໂລ	-2457
ps	-2458
ero	-2459
alve	-2460
ແສງສະຫວ່າງ	-2461
້ອນຮັບ	-2462
und	-2463
▁ch	-2464
▁ຢຸດ	-2465
ສິກ	-2466
ຂີ້ເ	-2467
ຕ່ໍາ	-2468
ຈັດການ	-2469
ສະນາ	-2470
▁McK	-2471
ດູກ	-2472
▁Mar	-2473
▁ເທັກ	-2474
▁ໂບ	-2475
ss	-2476
▁ວົງ	-2477
ເສຍຊີວິດ	-2478
▁ອຸດສາຫະກໍາ	-2479
ຖະຫນ	-2480
▁ຍາດ	-2481
ເຫມາະສົມ	-2482
23	-2483
ເປັນການ	-2484
ພົວພັນ	-2485
ton	-2486
▁ຕະຫລອດ	-2487
ຫຼາຍກວ່າ	-2488
ືອບິນ	-2489
▁ເຮືອ	-2490
ບໍ່ສາມາດ	-2491
▁McKnight	-2492
ຫາວິທະຍາໄລ	-2493
ຊັ້ນ	-2494
▁ຝູງ	-2495
▁ມັດ	-2496
▁ທ່ານສາມາດ	-2497
▁ຊັບ	-2498
EC	-2499
itcoin	-2500
ການປິ່ນປົວ	-2501
ical	-2502
ເຈັບ	-2503
Ch	-2504
▁ຍຸ	-2505
ແຕ່ລະ	-2506
ຮຽນຮູ້	-2507
ຫວັດສາດ	-2508
ແຄ	-2509
ຂັບ	-2510
ຂ່າຍ	-2511
▁27	-2512
▁ພູ	-2513
zhou	-2514
ຸດທະ	-2515
ຄະແນນ	-2516
ບໍ່ແມ່ນ	-2517
ibb	-2518
ມາຈາກ	-2519
ເຊິ່ງ	-2520
ານີ້	-2521
▁ທ້າ	-2522
▁Sam	-2523
▁ເຮັດໃຫ້	-2524
ເຕີເນັດ	-2525
▁ຢູ	-2526
ຄວາມປອດໄພ	-2527
▁ໂຮງງານຜະລິດ	-2528
▁ຂຶ້ນຄື	-2529
▁Am	-2530
▁ນານ	-2531
▁Europe	-2532
ດອນ	-2533
▁ຮົມ	-2534
ເຫນືອ	-2535
.9	-2536
ວົງ	-2537
▁Se	-2538
ຢີ	-2539
▁ໂຊ	-2540
▁ທາຍ	-2541
▁ແນ່	-2542
ຖຸ	-2543
▁ເງ	-2544
▁ສັ່ງ	-2545
ສວນ	-2546
▁CN	-2547
-8	-2548
▁<	-2549
▁ຂ້າມ	-2550
ຕື່ນ	-2551
▁Bon	-2552
▁ຍາວ	-2553
▁ເຂັ້ມ	-2554
ພື້ນທີ່	-2555
▁ດັບ	-2556
ປ່ຽນແປງ	-2557
rad	-2558
ຄວາມເປັນ	-2559
ອ່ານ	-2560
▁ທີມ	-2561
ຕະລາຍ	-2562
-3	-2563
ຂອງມັນ	-2564
ທຽບ	-2565
900	-2566
ome	-2567
▁Th	-2568
ຫ້ງ	-2569
ທີ່ຢູ່	-2570
AS	-2571
ຫນາ	-2572
ອີເມ	-2573
oogle	-2574
ມາດຕະຖານ	-2575
▁Ning	-2576
▁ຂ້ອງ	-2577
ສັ່ງ	-2578
ເພື່ອນ	-2579
ວ່ານ	-2580
ຫຸ້ມ	-2581
ທາລະນະ	-2582
▁Printer	-2583
ເວລ	-2584
▁ບໍ່ມີ	-2585
▁ຜູ້ນໍາ	-2586
ເກີດຂື້ນ	-2587
ຍ້າຍ	-2588
▁ນັ່ງ	-2589
▁ພັດທະນາ	-2590
ເຂົ້າໄປໃນ	-2591
▁ທະຫານ	-2592
ແຫ່ງຊາດ	-2593
ເຊື່ອມຕໍ່	-2594
ld	-2595
▁ໂປ	-2596
ແບ່ງ	-2597
ຫນຸ່ມ	-2598
ຫມໍ	-2599
▁70	-2600
▁Sl	-2601
▁ເຢ	-2602
ອາຊີບ	-2603
ກໍ່ສ້າງ	-2604
ຂະຫນາດໃຫຍ່	-2605
ຂວາງ	-2606
ຄຸ້ມ	-2607
ເພື່ອໃຫ້	-2608
ຈານ	-2609
▁45	-2610
▁•	-2611
▁al	-2612
▁ເຊຍ	-2613
ປະຈໍາ	-2614
ກາຍເປັນ	-2615
▁ລັດຖະບານ	-2616
ທ້ອງຖິ່ນ	-2617
▁ຕຸລາ	-2618
▁ທີ່ຜ່ານມາ	-2619
ood	-2620
ເທົ່າ	-2621
chn	-2622
▁ໄກ	-2623
ສິນຄ້າ	-2624
▁ກ້າ	-2625
ux	-2626
▁ທໍາລາຍ	-2627
cl	-2628
▁ເຫດຜົນ	-2629
ດຽວ	-2630
ອະທິ	-2631
▁ໂອ້	-2632
ology	-2633
ແດ	-2634
oup	-2635
▁Sol	-2636
ຮອບ	-2637
▁ພິທີ	-2638
▁ໂລຫະ	-2639
▁ຄວາມຄິດ	-2640
ັດທະນະທໍາ	-2641
ace	-2642
ທ່ອງທ່ຽວ	-2643
ສະມາຊິກ	-2644
ລ້ຽງ	-2645
▁ຜູ້ຜະລິດ	-2646
ນອກ	-2647
ຣັ່ງ	-2648
ສ່ຽງ	-2649
▁ຫນັງສື	-2650
amp	-2651
ສະຖ	-2652
▁ປັດ	-2653
ຊ່ວຍເຫຼືອ	-2654
▁Bag	-2655
ank	-2656
ມູນ	-2657
▁You	-2658
▁ບົບ	-2659
▁ຫາຍ	-2660
ຕ່າງປະເທດ	-2661
ພໍ່	-2662
▁ມິຖຸນາ	-2663
▁ຮ່າງກາຍ	-2664
ຈໍາກັດ	-2665
up	-2666
▁ແຄ	-2667
▁ບາດ	-2668
▁ສໍາລັບການ	-2669
ON	-2670
ິຈິ	-2671
iron	-2672
່ອມ	-2673
ຈະກໍາ	-2674
▁ອາກາດ	-2675
▁ຂໍ້ມູນ	-2676
ຍຸ	-2677
▁''	-2678
▁90	-2679
ບວນການ	-2680
▁80	-2681
▁ເຢັນ	-2682
▁Env	-2683
▁Ningbo	-2684
ats	-2685
ປະສົມ	-2686
ບາງຢ່າງ	-2687
ໂຊ	-2688
ຫໍ້	-2689
▁ບັນຊີ	-2690
ຂາ	-2691
uan	-2692
▁ນະຄອນ	-2693
ແອ	-2694
ໄຮ	-2695
▁PC	-2696
ກິລາ	-2697
ເຂັ້ມ	-2698
ກໍລະ	-2699
ເຕັ້ນ	-2700
ເຫດການ	-2701
▁ສະຫະລັດ	-2702
ium	-2703
▁to	-2704
ກົດດັນ	-2705
ຕິດຕາມ	-2706
▁sp	-2707
ຣິ	-2708
ເລດ	-2709
ສູງສຸດ	-2710
ຕັ້ງແຕ່	-2711
ເຣ	-2712
ຂາດ	-2713
mental	-2714
ານາຈັກ	-2715
▁ຖາ	-2716
▁ຟ້າ	-2717
ບັນຊີ	-2718
▁Che	-2719
▁Wor	-2720
▁ເສບ	-2721
▁ແຂ່ງ	-2722
▁ສະບັບ	-2723
ຊູ	-2724
ອ້າງ	-2725
ອອກຈາກ	-2726
ສ້າງຕັ້ງ	-2727
▁ການປ	-2728
▁Mic	-2729
ເວົ້າວ່າ	-2730
▁ອະທິບາຍ	-2731
ນາຍ	-2732
▁ເຫມີ	-2733
▁ແນັດ	-2734
io	-2735
ໃສ	-2736
ເງົາ	-2737
▁ພົນ	-2738
▁ຫີນ	-2739
▁ໂສ້	-2740
▁ຫນູນ	-2741
▁Casino	-2742
ott	-2743
▁Gl	-2744
▁ເຈັດ	-2745
ຕາຍ	-2746
▁ກຽດ	-2747
man	-2748
▁ເຍ	-2749
ສະແດງໃຫ້ເຫັນ	-2750
int	-2751
rop	-2752
າທີ	-2753
22	-2754
ຍູ້	-2755
▁Air	-2756
ບັນທຶກ	-2757
ົ໋	-2758
▁ສູ້	-2759
▁Environ	-2760
▁ພາດ	-2761
.8	-2762
ອຸ	-2763
▁ຕ່ໍາ	-2764
ທຸກຄົນ	-2765
ຢູ່ທີ່	-2766
af	-2767
▁ພະນັກງານ	-2768
▁ນໍ້າ	-2769
▁ເສີມ	-2770
ໃນໄລຍະ	-2771
▁ແຫນ້ນ	-2772
ube	-2773
▁°	-2774
▁2011	-2775
ສູດ	-2776
rypt	-2777
▁ທັງຫມົດ	-2778
aw	-2779
▁ລຸ້ນ	-2780
▁Bonus	-2781
▁ເວັ້ນ	-2782
ີດໍາ	-2783
▁for	-2784
ໂດຍການ	-2785
▁ຫລິ້ນ	-2786
▁Environmental	-2787
ກວດສອບ	-2788
▁32	-2789
▁ບາບ	-2790
▁ອອນ	-2791
tern	-2792
ຫຼວງ	-2793
▁ແຕ່ງງານ	-2794
EM	-2795
ຈັບ	-2796
▁ຢາງ	-2797
▁ລົ້ມ	-2798
▁ກັນຍາ	-2799
▁ພະລັງ	-2800
ສີເຫຼືອງ	-2801
AT	-2802
່ຍ	-2803
ລາງວັນ	-2804
33	-2805
ພຶດ	-2806
ລົບ	-2807
ຕັດສິນໃຈ	-2808
uf	-2809
▁New	-2810
▁ເກືອບ	-2811
ES	-2812
▁z	-2813
ຊີ້	-2814
ບຽນ	-2815
▁1000	-2816
▁ຮ້ອນ	-2817
ລາຍການ	-2818
ຂີ້ເຫຍື້ອ	-2819
ຫີນ	-2820
ຫຼອດ	-2821
▁ສືບ	-2822
hai	-2823
ຈິກ	-2824
ດາຍ	-2825
ທໍ່	-2826
ເປົ້າ	-2827
ເຄື່ອງມື	-2828
▁ກົດຫມາຍ	-2829
ກ່ອນຫນ້ານີ້	-2830
ອິ	-2831
ສະບັບ	-2832
ແຫນ່ງ	-2833
ຊຸດ	-2834
ater	-2835
ສົມບັດ	-2836
▁ຊະນິດ	-2837
ຊົ່ວ	-2838
▁ເວັບໄຊ	-2839
▁Machine	-2840
ຂອງຂ້າພະເຈົ້າ	-2841
ear	-2842
▁pl	-2843
ipp	-2844
ເຮືອ	-2845
ເຂົ້າເຖິງ	-2846
eg	-2847
▁150	-2848
ບຸກຄົນ	-2849
ທີ່ສໍາຄັນ	-2850
▁ກໍາມ	-2851
ຍອມ	-2852
▁29	-2853
▁ຮວມ	-2854
ທີ່ໄດ້	-2855
▁ປະຈໍາ	-2856
▁ກໍລະກົດ	-2857
ສື່	-2858
ຄືກັບ	-2859
ລະປະ	-2860
▁ກະທໍາ	-2861
ຮ່າງກາຍ	-2862
▁ຖ້າຫາກ	-2863
▁ສະຫນັບສະຫນູນ	-2864
▁ໃດໆ	-2865
ົນທາງ	-2866
ຕອນນີ້	-2867
ລະເບີດ	-2868
ສັງເກດ	-2869
▁ວັດສະດຸ	-2870
▁AP	-2871
▁ໂກ	-2872
▁ຢ່າ	-2873
ຫນຶ່ງໃນ	-2874
▁~	-2875
ຊຸມຊົນ	-2876
ເນື່ອງ	-2877
▁aposm	-2878
ບໍລິຫານ	-2879
▁Gr	-2880
▁ລໍ້	-2881
▁ກຸມພາ	-2882
.20	-2883
ary	-2884
ibbean	-2885
▁Caribbean	-2886
.7	-2887
ຄານ	-2888
▁ເຟ	-2889
▁ຮູ້ຈັກ	-2890
ll	-2891
line	-2892
▁ປັບ	-2893
▁ສວຍ	-2894
ຫລື	-2895
▁ອົງສາ	-2896
▁ເກົ່າ	-2897
ຟຣີ	-2898
ເຊີນ	-2899
▁ລັກ	-2900
ລະຫັດ	-2901
▁ຫຼັກ	-2902
▁ໃນປີ	-2903
ໂຄງ	-2904
UR	-2905
ຍິນ	-2906
▁ຄົງ	-2907
▁ແພງ	-2908
65	-2909
▁CO	-2910
▁For	-2911
ື້ອຍໆ	-2912
ໄກ	-2913
▁75	-2914
▁ສະເ	-2915
ຄຸ້ມຄອງ	-2916
min	-2917
▁IT	-2918
ະລຸນາ	-2919
▁ລູກໆ	-2920
ຢູ	-2921
ືອຂ່າຍ	-2922
ເຕີບໂຕ	-2923
ກະຕ	-2924
ຂ້າມ	-2925
▁ຕ້ານ	-2926
ool	-2927
ຕ້ອນຮັບ	-2928
ເປັນຜູ້	-2929
ແລກ	-2930
▁(20	-2931
ເທື່ອ	-2932
ost	-2933
ຄົນອື່ນ	-2934
ອາກາດໃນ	-2935
▁ສະຫວັນ	-2936
ເອີ້ນວ່າ	-2937
yd	-2938
▁ຮອບ	-2939
▁ທີ່ມີ	-2940
▁ສໍາພັນ	-2941
ແຮມ	-2942
ສຸດທ້າຍ	-2943
ml	-2944
▁AS	-2945
ກິໂລ	-2946
▁City	-2947
▁ກິລາ	-2948
ແມ່ນວ່າ	-2949
ຍິ່ງໃຫຍ່	-2950
▁ເຂົາເຈົ້າ	-2951
ຣິດ	-2952
ສະຫະ	-2953
▁ໂອກາດ	-2954
ith	-2955
ປະຊາ	-2956
▁ໄຟຟ້າ	-2957
ຸບ	-2958
▁ພີ່	-2959
ວິດີໂອ	-2960
ັດສະນະ	-2961
▁ບັນທຶກ	-2962
ັກຊ	-2963
ຄ້າຍ	-2964
ble	-2965
▁ບາຍ	-2966
ແມ່ຍິງ	-2967
ການສຶກສາ	-2968
ພະນັກງານ	-2969
▁ຣິ	-2970
aric	-2971
ພະຍາດ	-2972
-1	-2973
ແພດ	-2974
ໃນປະເທດ	-2975
▁htt	-2976
ມິດ	-2977
▁ເລີ່	-2978
ລັກສະນະ	-2979
ແມ່ນການ	-2980
ຈົນ	-2981
ດຶງ	-2982
▁ໃສ	-2983
▁Pre	-2984
ທີ່ຜ່ານມາ	-2985
VC	-2986
ຊົມ	-2987
ລໍາ	-2988
74	-2989
ືລ	-2990
eld	-2991
ບັນລຸ	-2992
▁ປະຕິ	-2993
▁ມີຄວາມ	-2994
▁ພຶດສະພາ	-2995
ET	-2996
ໂພກ	-2997
ຫລັງ	-2998
▁ໄລ່	-2999
▁ຟູ	-3000
▁ຫານ	-3001
▁ລາຍລະອຽດ	-3002
ຫໍ່	-3003
▁2012	-3004
ຄິດວ່າ	-3005
▁ຕິດຕໍ່	-3006
ກ້າວ	-3007
▁ສະພາ	-3008
ບອນ	-3009
▁ຄ້າຍ	-3010
▁ຕິດຕາມ	-3011
▁ຮວມທັງ	-3012
iber	-3013
▁ຄົບ	-3014
ized	-3015
▁ມັນເປັນ	-3016
de	-3017
ຕະລາງ	-3018
ອີເມວ	-3019
▁ໄດ້ຖືກ	-3020
▁Bot	-3021
▁ແມ່ຍິງ	-3022
ກໍາມະການ	-3023
ດໍາເນີນການ	-3024
▁App	-3025
▁Fil	-3026
▁Hol	-3027
ins	-3028
ແລະຜູ້	-3029
▁ສິງຫາ	-3030
ສຸຂະພາບ	-3031
li	-3032
ປະຕູ	-3033
ໂຮງຮຽນ	-3034
ເກີດຂຶ້ນ	-3035
ສາທາລະນະ	-3036
ດວກ	-3037
▁ວິທະຍາໄລ	-3038
ຄ່າໃຊ້ຈ່າຍ	-3039
ກໍ່ຕາມ	-3040
ຟູ	-3041
ອົດ	-3042
▁ແຍກ	-3043
ົງເຂດ	-3044
ເນື້ອ	-3045
ren	-3046
ign	-3047
ual	-3048
▁ຈັນ	-3049
ໂຄສະນາ	-3050
ນະໂຍບາຍ	-3051
-6	-3052
ເຊີ	-3053
ated	-3054
ອາໄສ	-3055
▁ຜິວ	-3056
▁ປົກກະຕິ	-3057
77	-3058
▁ມານ	-3059
ກະຊວງ	-3060
ຄວາມຕ້ອງການ	-3061
ທະຫານ	-3062
▁Bitcoin	-3063
▁ປິ່ນປົວ	-3064
ແຊ	-3065
▁ແຂນ	-3066
ໂສ	-3067
▁ຈຸ	-3068
ວິຊາ	-3069
ຮ້ານ	-3070
▁Com	-3071
ສະອາດ	-3072
ອັດຕະໂນມັດ	-3073
OS	-3074
98	-3075
▁ຍຸດ	-3076
21	-3077
ກິນ	-3078
ຸກຍູ້	-3079
org	-3080
ush	-3081
ຫລັບ	-3082
▁ສວນ	-3083
ປິດ	-3084
▁ລົບ	-3085
▁ຕື່ມ	-3086
ເອກະສານ	-3087
▁Dist	-3088
▁ປົກຄອງ	-3089
-4	-3090
ສິບ	-3091
▁ລໍ	-3092
press	-3093
ເກີນ	-3094
▁ເຄື່ອງຈັກ	-3095
▁ຄົມ	-3096
ຖືກຕ້ອງ	-3097
▁ຍີ່ປຸ່ນ	-3098
kg	-3099
ືກັນ	-3100
▁ດວງ	-3101
ratch	-3102
▁ແປກ	-3103
ຜູ້ຊາຍ	-3104
chnology	-3105
ແຜ່	-3106
rict	-3107
DF	-3108
▁ມືດ	-3109
95	-3110
▁€	-3111
ufact	-3112
ລະບຽບ	-3113
ຮັບຜິດຊອບ	-3114
▁Top	-3115
▁ສະລະ	-3116
▁ພຽງແຕ່	-3117
▁bl	-3118
ກະດູກ	-3119
▁ພະຍານ	-3120
▁ຖືກຕ້ອງ	-3121
▁ຢ້ຽມຢາມ	-3122
ສະຫນາມ	-3123
ເລືອກຕັ້ງ	-3124
ຊຽນ	-3125
ວຽນ	-3126
ແຍກ	-3127
ຄວາມສາມາດ	-3128
ຸນແຮງ	-3129
▁ກະລຸນາ	-3130
▁ດໍາລົງ	-3131
ສິ້ນ	-3132
▁ທັບ	-3133
▁ຫນັບ	-3134
AR	-3135
ufactur	-3136
▁Ind	-3137
les	-3138
▁Lin	-3139
▁ສິດທິ	-3140
arn	-3141
ron	-3142
▁ທົນ	-3143
▁ນາດ	-3144
▁ແຈ່ມ	-3145
▁Blue	-3146
ເຕັກໂນໂລຊີ	-3147
▁ກະທົບ	-3148
ສ່ວນໃຫຍ່	-3149
▁ເຄື່ອງມື	-3150
ອັບ	-3151
ທະບຽນ	-3152
ບໍລິໂພກ	-3153
າກບອນ	-3154
▁ເນື້ອ	-3155
▁LED	-3156
▁ມ່ວນ	-3157
ບັນທຸກ	-3158
▁Bo	-3159
ນະຄອນ	-3160
▁ຄຸນຄ່າ	-3161
▁ສັກສິດ	-3162
▁ອັດສະຈັນ	-3163
ຜ່າ	-3164
▁ຊີ້	-3165
ໃຫ້ແກ່	-3166
▁ກໍາມະການ	-3167
▁ມິລີແມັດ	-3168
ult	-3169
▁sh	-3170
▁ນຸ	-3171
ulse	-3172
ທະເລ	-3173
▁ດັນ	-3174
ຮັບປະກັນ	-3175
▁Google	-3176
▁ເດີນທາງ	-3177
▁ຂອງທ່ານ	-3178
han	-3179
ເພງ	-3180
▁Con	-3181
▁Steel	-3182
າທິບໍດີ	-3183
ຂະຫນາດນ້ອຍ	-3184
ສູນກາງ	-3185
ອານາຈັກ	-3186
ີຣ	-3187
otor	-3188
▁ກະສັດ	-3189
ຮຽກຮ້ອງ	-3190
ຮອດ	-3191
າວຸດ	-3192
▁93	-3193
▁de	-3194
ຂົງເຂດ	-3195
▁start	-3196
▁ກໍລະນີ	-3197
ung	-3198
▁Sk	-3199
▁ເມວ	-3200
▁ແນະ	-3201
▁ເລິກ	-3202
ອະທິບາຍ	-3203
▁Tag	-3204
▁ນຸດ	-3205
▁ພາກັນ	-3206
ຄອມພິວເຕີ	-3207
ລັນ	-3208
ຟື້ນ	-3209
▁ຫນາດ	-3210
cy	-3211
ເທີ	-3212
ຫຼິ້ນ	-3213
▁ສຶກສາ	-3214
▁ສົງຄາມ	-3215
ເອກ	-3216
▁ຂໍໃຫ້	-3217
ສ່ວນຕົວ	-3218
▁ນອກຈາກ	-3219
▁ແລະການ	-3220
ໂຍງ	-3221
▁ນ້ອຍໆ	-3222
ນັບ	-3223
▁Or	-3224
ufacturer	-3225
26	-3226
ork	-3227
ປັບ	-3228
ເປົ໋	-3229
▁ນາທີ	-3230
ເບື້ອງ	-3231
▁ເຕືອນ	-3232
ale	-3233
▁laser	-3234
ຍູ	-3235
▁ປະກອບ	-3236
">	-3237
▁ຄໍາຖາມ	-3238
ຍາກອນ	-3239
ຂຽວ	-3240
ໂຈມ	-3241
ner	-3242
by	-3243
▁ຂີ້	-3244
ery	-3245
▁Botou	-3246
▁ລາວໄດ້	-3247
ໄມ	-3248
let	-3249
ເຂັ້ມແຂງ	-3250
ໃຍ	-3251
irt	-3252
ຖ່າຍ	-3253
▁ອັບ	-3254
▁ສັງຄົມ	-3255
ດີກ	-3256
lic	-3257
rans	-3258
ປ່ອຍ	-3259
ແກັສ	-3260
ຫມູ່	-3261
▁ໂດລາ	-3262
ຫຸ້ມຫໍ່	-3263
ທີ່ບໍ່ມີ	-3264
ຂໍ້ຄວາມ	-3265
ສິດທິ	-3266
ສະຕາລີ	-3267
ແນ່ນອນ	-3268
▁ຄວາມຄິດເຫັນ	-3269
cc	-3270
ຈໍ	-3271
▁ຂາດ	-3272
▁ຈົດຫມາຍ	-3273
▁ຊົ່ວໂມງ	-3274
36	-3275
ທາຍ	-3276
▁Be	-3277
ທຸກໆ	-3278
ໄປໄດ້	-3279
▁aposve	-3280
▁ພວກເຮົາມີ	-3281
ics	-3282
▁ໂບດ	-3283
▁ຕື່ນ	-3284
ຮັບຮູ້	-3285
▁Power	-3286
▁ເຄິ່ງ	-3287
▁ເລືອດ	-3288
▁1,	-3289
▁ລວງ	-3290
ຈະເປັນ	-3291
▁Shang	-3292
▁ເຫມາະ	-3293
ຂະບວນການ	-3294
ຄວາມຮ້ອນ	-3295
GH	-3296
ຢ້ຽມຢາມ	-3297
ທາງເລືອກ	-3298
▁ອຸນຫະພູມ	-3299
ຍ້ອນ	-3300
ເຄື່ອງພິມ	-3301
▁GB	-3302
ຫຼັງ	-3303
ໄປຫາ	-3304
ແລກປ່ຽນ	-3305
▁Tw	-3306
▁ລາຍການ	-3307
du	-3308
▁ຈາ	-3309
ຕິດຕັ້ງ	-3310
ເພີ່ມຂຶ້ນ	-3311
ພວກເຂົາເຈົ້າ	-3312
▁31	-3313
ທີ່ສ	-3314
▁ນວນ	-3315
ແຫນ້ນ	-3316
ester	-3317
jiang	-3318
▁ຮ່າງ	-3319
▁ເສັ້ນທາງ	-3320
ຫຍຸ້ງຍາກ	-3321
ທີ່ແທ້ຈິງ	-3322
ລ້ານ	-3323
ເຢັນ	-3324
▁Slot	-3325
▁ອະນຸຍາດ	-3326
▁×	-3327
ວນີ້	-3328
ຢຸດ	-3329
▁dur	-3330
ປະຈຸບັນ	-3331
ຜູ້ຜະລິດ	-3332
AM	-3333
ເຈີ	-3334
ເດີ	-3335
▁ແດ່	-3336
ແລະອື່ນໆ	-3337
ຖ້າຫາກ	-3338
▁ຄວາມສຸກ	-3339
▁ຈໍາເປັນ	-3340
▁IP	-3341
▁ເຖ	-3342
ຊ່ວງ	-3343
ເວັ້ນ	-3344
▁ເຊົ້າ	-3345
29	-3346
ງ່	-3347
▁ສະຫງົບ	-3348
ທໍາມະຊາດ	-3349
ການຝຶກອົບຮົມ	-3350
ລິກ	-3351
ຫນື່ງ	-3352
ໃນຕອນ	-3353
▁District	-3354
IC	-3355
nes	-3356
▁un	-3357
▁World	-3358
▁ພິຈາລະນາ	-3359
▁et	-3360
ເປົ້າຫມາຍ	-3361
▁Manufacturer	-3362
85	-3363
ວ່າເປັນ	-3364
▁າ	-3365
ເຕະ	-3366
ເລກຸນ	-3367
▁ຖຸ	-3368
ສືບຕໍ່	-3369
ames	-3370
▁ກອງທັບ	-3371
▁ເປັນຫຍັງ	-3372
▁ເສດຖະກິດ	-3373
ຣນິກ	-3374
▁600	-3375
ໍານວຍ	-3376
▁ກວ້າງ	-3377
EE	-3378
uk	-3379
▁iP	-3380
▁Equ	-3381
▁ຍ້າຍ	-3382
ຊື່ສຽງ	-3383
ລັບ	-3384
ື້ມ	-3385
▁ຍະ	-3386
ຕຸລາ	-3387
▁ສິ່ງທີ່	-3388
▁ຫລວງຫລາຍ	-3389
ຈົດ	-3390
ການພັດທະນາ	-3391
ມື້ອ	-3392
ເຊື່ອມໂຍງ	-3393
ເນຍ	-3394
▁ຊອບແວ	-3395
IT	-3396
▁XL	-3397
▁ບາ	-3398
ເລັກໂຕ	-3399
▁ລວມທັງ	-3400
ອິນເຕີເນັດ	-3401
ert	-3402
lex	-3403
oth	-3404
load	-3405
ແຂວງ	-3406
ສູນເສຍ	-3407
▁ນ້ໍາມັນ	-3408
▁ເຄື່ອງພິມ	-3409
fl	-3410
▁AC	-3411
▁fl	-3412
ບັນດ	-3413
ອຸນຫະພູມ	-3414
TD	-3415
▁120	-3416
ມື້ອື່ນ	-3417
AL	-3418
▁Hu	-3419
▁Sm	-3420
ຫມືອນ	-3421
▁ລະດູ	-3422
ຂັ້ນຕອນ	-3423
air	-3424
ິ້ງ	-3425
▁ຕຽມ	-3426
arter	-3427
ໃດກໍ່ຕາມ	-3428
▁ເກດ	-3429
ຄໍາຖາມ	-3430
ຕອບສະຫນອງ	-3431
ຜົນປະໂຫຍດ	-3432
ພວກເຮົາມີ	-3433
▁ຫວັດ	-3434
ອໍານາດ	-3435
ໍລະມານ	-3436
▁ວິນາທີ	-3437
ake	-3438
ແຕນ	-3439
▁ph	-3440
▁ລຶກ	-3441
ສິກໍາ	-3442
ເກືອບ	-3443
ID	-3444
ans	-3445
ໂທດ	-3446
▁1500	-3447
▁Inst	-3448
▁ກ່ອງ	-3449
▁ຊະ	-3450
ound	-3451
ລິຂະສິດ	-3452
ການເຮັດວຽກ	-3453
ໃຫ	-3454
ota	-3455
ຕຽນ	-3456
ຝ່າຍ	-3457
▁ປາກ	-3458
▁o	-3459
▁th	-3460
ຄວາມໄວ	-3461
▁Block	-3462
ype	-3463
ີຣົບ	-3464
▁ຊ່ວງ	-3465
▁ສີດໍາ	-3466
ປົກປ້ອງ	-3467
ໂບ	-3468
▁ໂຫຍ	-3469
ກວ້າງຂວາງ	-3470
້ວງ	-3471
▁De	-3472
▁ນິກ	-3473
▁Long	-3474
ິຈິຕອນ	-3475
uck	-3476
ແດນ	-3477
ລິມານ	-3478
▁ປ່ອງ	-3479
▁ຍີ່ຫໍ້	-3480
ຕໍາແຫນ່ງ	-3481
▁Br	-3482
ສິໂນ	-3483
ເມີນ	-3484
▁ຊະນະ	-3485
ທວນ	-3486
▁on	-3487
ທີ່ສາມາດ	-3488
▁ເປີເຊັນ	-3489
▁ການນໍາໃຊ້	-3490
ລັ	-3491
▁ຫງ	-3492
▁ເຕະ	-3493
chain	-3494
ໄປສູ່	-3495
▁Main	-3496
▁Black	-3497
ຊໍາ	-3498
▁36	-3499
▁Wh	-3500
ຮ່າງ	-3501
ສີເຫຼືອງສີເຫຼືອງ	-3502
lect	-3503
ount	-3504
▁CNC	-3505
▁ເຊື່ອມ	-3506
▁Scratch	-3507
▁tattoos	-3508
IL	-3509
▁ໍາ	-3510
ebei	-3511
▁0086	-3512
▁ອາເມ	-3513
▁ອະທິຖານ	-3514
76	-3515
uy	-3516
ier	-3517
ອົກ	-3518
itter	-3519
ຈະບໍ່	-3520
ໃນໂລກ	-3521
ສໍາພັນ	-3522
ງ່າຍດາຍ	-3523
ໄຕ	-3524
ລິນ	-3525
ຫຼີກ	-3526
▁ຖ້ວນ	-3527
ຕົນເອງ	-3528
ຄັດ	-3529
▁East	-3530
▁Free	-3531
▁China	-3532
▁ບັງຄັບ	-3533
▁ບໍລິການ	-3534
ຖີບ	-3535
▁ສິ	-3536
ware	-3537
ີນີ້	-3538
oster	-3539
▁Valve	-3540
ຕະນາ	-3541
▁ຊື່ງ	-3542
▁ທໍາອິດ	-3543
IS	-3544
ຄູ	-3545
ase	-3546
▁ໂພ	-3547
▁ເຈ້ຍ	-3548
▁ໂທລະສັບແມ່ນ	-3549
ເຢ	-3550
ກຽມ	-3551
ນິວ	-3552
▁2,	-3553
▁Dav	-3554
▁ກໍານ	-3555
ກໍລະນີ	-3556
ສະດວກ	-3557
ໃຈໃສ່	-3558
ຕົ້ນຕໍ	-3559
ປັບປຸງ	-3560
ຮູບແຕ້ມ	-3561
:/	-3562
▁CH	-3563
▁Met	-3564
▁ປານ	-3565
ering	-3566
ຊ່ວຍໃຫ້	-3567
▁ເລກ	-3568
▁ນິ້ວ	-3569
ສົນທະນາ	-3570
ົກລັດຖະມົນຕີ	-3571
▁ໂທລະສັບມືຖື	-3572
▁Gre	-3573
▁PVC	-3574
ມາຄົມ	-3575
ການບິນ	-3576
▁ທະນາຄານ	-3577
້ວາງ	-3578
▁400	-3579
▁ກໍານົດ	-3580
enn	-3581
ຍລະ	-3582
ປະດິດ	-3583
▁Technology	-3584
ຊົງ	-3585
land	-3586
▁800	-3587
ເຕືອນ	-3588
ແຮງງານ	-3589
▁ທັນວາ	-3590
ວິສາຫະກິດ	-3591
gen	-3592
ີ້ມ	-3593
obile	-3594
▁Filter	-3595
▁ເບື້ອງ	-3596
ດັ່ງນັ້ນ	-3597
ຄັ້ງທໍາອິດ	-3598
ເດດ	-3599
ເລີດ	-3600
ຮຸນແຮງ	-3601
ົ່ມຂ	-3602
▁ລ້ອມ	-3603
▁ຍິນດີ	-3604
▁ສົມບູນ	-3605
ພິຈາລະນາ	-3606
ວັດທະນະທໍາ	-3607
▁ຄ່າໃຊ້ຈ່າຍ	-3608
ໄອ	-3609
://	-3610
▁ໂຍນ	-3611
ໃນວັນ	-3612
ຫນັງສື	-3613
PS	-3614
▁)	-3615
100	-3616
ນ້ອງ	-3617
ຄືກັນ	-3618
ການປົກ	-3619
▁ລານີ້	-3620
ຕໍ່ຕ້ານ	-3621
ous	-3622
ຊາກ	-3623
ໂດລາ	-3624
▁ທໍ່	-3625
▁ປະຕູ	-3626
ຮູ້ຈັກ	-3627
te	-3628
ຈາຍ	-3629
ວົນ	-3630
ເຊົ້າ	-3631
▁Shen	-3632
▁ຫລຸດ	-3633
ຮ່ວມງານ	-3634
ໃຜ	-3635
▁=	-3636
ຖືງ	-3637
ilic	-3638
▁ຂັນ	-3639
ຂອງພຣະ	-3640
ເຫດຜົນ	-3641
▁ດັງ	-3642
ທັງສອງ	-3643
ene	-3644
▁ເຊົາ	-3645
ຫລັງຈາກ	-3646
▁Series	-3647
▁Shanghai	-3648
US	-3649
ches	-3650
▁ຫ່າງ	-3651
ທໍາລາຍ	-3652
ເງື່ອນໄຂ	-3653
ທີ່ຍິ່ງໃຫຍ່	-3654
▁Zh	-3655
▁Holm	-3656
ລັນດອນ	-3657
ຶກສາ	-3658
▁ພະຍາດ	-3659
▁ປະໂຫຍດ	-3660
ໃຊ	-3661
aff	-3662
ທົບທວນ	-3663
ຟ້າອາກາດ	-3664
▁ເຈົ້າຈະ	-3665
▁ໃນເດືອນ	-3666
ໃດໆ	-3667
▁As	-3668
ຫລວດ	-3669
▁Pay	-3670
▁ພືດ	-3671
ຫນ່ວຍ	-3672
ສະເຫມີ	-3673
ທີ່ນີ້	-3674
ອໍານວຍ	-3675
ຂ່າວສານ	-3676
ພະຍາກອນ	-3677
▁ທ່ານຈະ	-3678
ຂັດ	-3679
ລິດ	-3680
ລະດູ	-3681
▁ພື້ນຖານ	-3682
ຊະອານາຈັກ	-3683
ປະຫວັດສາດ	-3684
▁ເນື່ອງຈາກ	-3685
▁Bul	-3686
▁ເລື້ອຍໆ	-3687
▁ຕູ້	-3688
▁ສີຂາວ	-3689
500	-3690
▁ຮອດ	-3691
ບັນຈຸ	-3692
93	-3693
fo	-3694
ມືອາຊີບ	-3695
ວາງສະແດງ	-3696
ຟັງ	-3697
▁ໃນຂະນະທີ່	-3698
ນ້	-3699
▁ກອບ	-3700
▁ຂໍ້ຄວາມ	-3701
OT	-3702
ຖວ	-3703
▁ໂຈມ	-3704
ສິ່ງບາງຢ່າງ	-3705
78	-3706
ພູ	-3707
▁ລອດ	-3708
▁Live	-3709
ຍອມຮັບ	-3710
▁33	-3711
▁ເຣ	-3712
China	-3713
ຍລະມັນ	-3714
ການບໍລິການ	-3715
ຄຸນນະພາບສູງ	-3716
ຄະດີ	-3717
▁ທຸລະ	-3718
ຫົວຂໍ້	-3719
▁ພິເສດ	-3720
▁ແຕ່ລະ	-3721
▁ຫົວຫນ້າ	-3722
ການອອກແບບ	-3723
▁ad	-3724
ແຫນງ	-3725
ຜູ້ທີ່	-3726
ຸດທະສາດ	-3727
ຊິດ	-3728
▁1.	-3729
ອ່ອນ	-3730
▁ຜົວ	-3731
ເທົ່ານັ້ນ	-3732
ດິນຟ້າອາກາດ	-3733
py	-3734
▁ກຽມ	-3735
▁ນິວ	-3736
▁ປ່າ	-3737
▁ຫມໍ	-3738
▁ຫລຽວ	-3739
▁ເມສາ	-3740
ອັນດັບ	-3741
▁ມາດຕະຖານ	-3742
ການແຂ່ງຂັນ	-3743
rid	-3744
ຫົກ	-3745
▁(1	-3746
▁ທຸ	-3747
ໂຈມຕີ	-3748
▁ການຄາດຄະເນ	-3749
ທາດ	-3750
▁UV	-3751
▁ມວນ	-3752
▁ວັດຖຸ	-3753
ການເງິນ	-3754
▁ເຮືອບິນ	-3755
▁HD	-3756
▁ຖຽງ	-3757
ແລະມີ	-3758
ສື່ສານ	-3759
ັກໂນໂລຢີ	-3760
ເກັບຮັກສາ	-3761
ຕີນ	-3762
ມຸດ	-3763
▁ໂທດ	-3764
▁ໂຫຍດ	-3765
▁David	-3766
▁Minnes	-3767
ທ້ອນ	-3768
▁ແຜ່	-3769
▁Supp	-3770
▁ຫຼາດ	-3771
ແຕນເລດ	-3772
ປິ່ນປົວ	-3773
rom	-3774
▁On	-3775
▁ແຊ	-3776
ເກົ່າ	-3777
ຄໍາແນະນໍາ	-3778
yn	-3779
ນອນ	-3780
▁ພະຈິກ	-3781
ຫຼາຍກ່ວາ	-3782
▁ສະຖານທີ່	-3783
FC	-3784
ump	-3785
ສຸມ	-3786
ining	-3787
ipment	-3788
ເລັກໂຕຣນິກ	-3789
ໃນປັດຈຸບັນ	-3790
els	-3791
ການນໍາໃຊ້	-3792
ane	-3793
▁ດອກ	-3794
▁ພາກສ່ວນ	-3795
▁ສຸ	-3796
ille	-3797
▁EUR	-3798
ນິຍົມ	-3799
ວັດສະດຸ	-3800
ຊິ	-3801
▁ດື່ມ	-3802
ຟື້ນຟູ	-3803
▁Prote	-3804
▁Micros	-3805
▁ລັກສະນະ	-3806
iew	-3807
ຍີ່	-3808
ດົນ	-3809
ພິດ	-3810
ຖະຫນາ	-3811
່ນ້ອງ	-3812
ຂອງນາງ	-3813
ສິ່ງແວດລ້ອມ	-3814
CS	-3815
ທັດ	-3816
▁ໂຮ	-3817
▁Comp	-3818
ຫຼດ	-3819
ຫມາກ	-3820
▁ກ້ອນ	-3821
ອະນາຄົດ	-3822
MP	-3823
ຢ້ານ	-3824
▁lot	-3825
ຊົ່ວໂມງ	-3826
ຂອງບໍລິສັດ	-3827
orm	-3828
▁ex	-3829
ຊໍາລະ	-3830
▁ເຕັກ	-3831
▁ອີງຕາມ	-3832
▁ສໍາເລັດ	-3833
າດາ	-3834
ຜູ້ນໍາ	-3835
▁ຕາເວັນ	-3836
AD	-3837
▁ແມງ	-3838
edust	-3839
ຕິທໍາ	-3840
ັງວົນ	-3841
zhen	-3842
ເຈັດ	-3843
ກັບຄືນ	-3844
ຸງແຕ່ງ	-3845
ໄຫຼ	-3846
ສະຫງ	-3847
ໂນ້ຍ	-3848
ຂອບໃຈ	-3849
▁2010	-3850
່າໂນ້ຍ	-3851
ເຮັດໄດ້	-3852
ວັງ	-3853
▁ຂຽວ	-3854
▁ຈໍາກັດ	-3855
▁ໂຮງຮຽນ	-3856
▁ອຸປະກອນການ	-3857
44	-3858
alv	-3859
uit	-3860
▁Hy	-3861
▁Cam	-3862
▁app	-3863
▁ແຫຼ	-3864
ເສບ	-3865
▁ແຍ້	-3866
ເປົ໋າ	-3867
▁ສັ້ນ	-3868
ational	-3869
ໃນເດືອນ	-3870
ຂອງພວກເຮົາແມ່ນ	-3871
ໂຕ້	-3872
▁ຈອນ	-3873
▁ທ່າ	-3874
▁ໂຕຣ	-3875
ຽບທຽບ	-3876
▁2000	-3877
ame	-3878
attoo	-3879
ຈະຖືກ	-3880
▁ແບ່ງປັນ	-3881
ຕ້ອງການທີ່ຈະ	-3882
ສ໌	-3883
▁ໂຣບ	-3884
ຈໍາເປັນຕ້ອງ	-3885
ພິທີ	-3886
ຫລັກ	-3887
▁250	-3888
ເຫລືອ	-3889
ຫນຶ່ງຂອງ	-3890
ອາເມຣິກາອາເມຣິກາ	-3891
ເວນ	-3892
ລົດໄຟ	-3893
55	-3894
▁ຊິກ	-3895
▁ແຫ້ງ	-3896
▁ຫົວຂໍ້	-3897
▁ປະເພດທຸລະກິດ	-3898
me	-3899
▁Par	-3900
abric	-3901
▁ບາງທີ	-3902
ເກັບກໍາ	-3903
▁Em	-3904
▁coup	-3905
▁ກະຊວງ	-3906
ໂຮງງານຜະລິດ	-3907
orn	-3908
▁ຕື້	-3909
ໄປດ້ວຍ	-3910
▁Equipment	-3911
▁Me	-3912
pl	-3913
ສະວະ	-3914
ທີສອງ	-3915
ຕໍ່ສູ້	-3916
ield	-3917
ຮ້ອຍ	-3918
ສິລະປະ	-3919
▁CS	-3920
ຊ້ອນ	-3921
▁http	-3922
▁Microsoft	-3923
▁Minnesota	-3924
▁ຜູ້ສົ່ງອອກ	-3925
▁ປະທານາທິບໍດີ	-3926
ys	-3927
ແນ່	-3928
▁Road	-3929
▁ກອງປະຊຸມ	-3930
▁cl	-3931
ຊະນິດ	-3932
ເສື້ອ	-3933
94	-3934
ເຍ	-3935
▁It	-3936
▁mm	-3937
ited	-3938
▁ໂຮມ	-3939
ຕົກລົງ	-3940
▁ອາຊຽນ	-3941
▁ຕໍ່ສູ້	-3942
▁ລັດຖະມົນຕີ	-3943
ose	-3944
hone	-3945
ໄຮໂດ	-3946
ໂດຍກົງ	-3947
▁ພັນທະ	-3948
▁ສະຫວ່າງ	-3949
▁ການບໍລິການ	-3950
CL	-3951
▁Park	-3952
ທະນ	-3953
ຫ່າງ	-3954
ວຍງາມ	-3955
ສະບາຍ	-3956
▁ສໍານ	-3957
ປະເມີນ	-3958
າລະສານ	-3959
96	-3960
▁Le	-3961
▁ເມີ	-3962
▁ຫຍຸ້ງຍາກ	-3963
ຊັດ	-3964
ຫລວງ	-3965
▁Chang	-3966
ນ້ໍາມັນ	-3967
ຫຼຸດຜ່ອນ	-3968
ປາກ	-3969
▁ມີນາ	-3970
▁ບັນລຸ	-3971
gl	-3972
ໄທ	-3973
ingd	-3974
ທິປະ	-3975
ຊອບແວ	-3976
ວນຊົນ	-3977
▁ສະຫມ	-3978
▁Poly	-3979
▁ສະຫນອງ	-3980
▁ເຫມືອນ	-3981
ທ້າ	-3982
ນັ່ງ	-3983
▁ກູ້	-3984
ຕົວເອງ	-3985
ບັງຄັບ	-3986
ຫນາແຫນ້ນ	-3987
▁Blockchain	-3988
/20	-3989
ແປກ	-3990
▁38	-3991
▁ໄຮ	-3992
▁Jet	-3993
▁ຫນີ	-3994
ໂດຍບໍ່	-3995
▁ສາສະຫນາ	-3996
HH	-3997
ຣມ	-3998
▁Des	-3999
▁Res	-4000
ຕັນຍູ	-4001
▁crypt	-4002
ສໍາຫຼວດ	-4003
▁ຄວາມໄວ	-4004
ມະຫາວິທະຍາໄລ	-4005
▁ຖ່າຍ	-4006
ອີງໃສ່	-4007
▁ເຕົ້າ	-4008
ທີ່ຂ້ອຍ	-4009
▁aposll	-4010
EN	-4011
tery	-4012
▁ໂຣກ	-4013
▁2006	-4014
▁ມຕົ້ນ	-4015
ຄໍາຮ້ອງ	-4016
TA	-4017
ຕູ້	-4018
▁55	-4019
▁Tr	-4020
▁ໄຕ	-4021
▁ກັດ	-4022
▁ສະຖ	-4023
ດິຈິຕອນ	-4024
ແກ້ວ	-4025
▁watt	-4026
▁ປ່ວຍ	-4027
ແບ່ງປັນ	-4028
▁Intern	-4029
ການເຄື່ອນໄຫວ	-4030
ink	-4031
ປະສານ	-4032
▁ຕະພັນ	-4033
ath	-4034
out	-4035
ມອບ	-4036
▁OEM	-4037
▁Rou	-4038
▁ຜ່າ	-4039
ວຽກງານ	-4040
ຮູບເງົາ	-4041
ຕານ	-4042
ພັດ	-4043
ລາສ	-4044
ິຕິ	-4045
osterone	-4046
ດີທີ່ສຸດ	-4047
▁ແວດ	-4048
▁ສະພາບອາກາດໃນ	-4049
27	-4050
▁ໂຈ	-4051
ions	-4052
ຸ່ນຍົນ	-4053
ode	-4054
ດີດ	-4055
ຈິດໃຈ	-4056
38	-4057
▁PR	-4058
▁ຊັງ	-4059
utter	-4060
ຂອງມະນຸດ	-4061
ຈຸດປະສົງ	-4062
2,	-4063
ອກະຊົນ	-4064
▁ອັນຕະລາຍ	-4065
oid	-4066
▁ac	-4067
loem	-4068
▁ມົນ	-4069
▁Samloem	-4070
ໃນເວລາທີ່	-4071
ບັນຍ	-4072
▁ກະຕ	-4073
▁ລືມ	-4074
▁ວ່ອງ	-4075
ທ້າທາຍ	-4076
▁ນັບຖື	-4077
▁coupons	-4078
ຈໍານວນຫຼາຍ	-4079
▁ພວກເຮົາໄດ້	-4080
▁an	-4081
read	-4082
ທ່ານສາມາດ	-4083
ella	-4084
▁Pet	-4085
▁Port	-4086
ສະຫຼາດ	-4087
▁ສະອາດ	-4088
▁ອະນາຄົດ	-4089
▁ທໍາມະຊາດ	-4090
ສະກ	-4091
▁PDF	-4092
ດີກວ່າ	-4093
▁ຝຣັ່ງ	-4094
net	-4095
▁FR	-4096
▁ວະ	-4097
ທຸກຢ່າງ	-4098
ໃຫ້ພວກເຮົາ	-4099
ime	-4100
▁ຍົນ	-4101
▁ເມຍ	-4102
▁2005	-4103
▁2008	-4104
▁ຮູບແບບ	-4105
▁ເດັນ	-4106
ດຶງດູດ	-4107
ordpress	-4108
▁Shenzhen	-4109
▁ຈຸດປະສົງ	-4110
:00	-4111
ຕິງ	-4112
ລາມ	-4113
ສາວ	-4114
ລົ້ມ	-4115
ເຄືອຂ່າຍ	-4116
ອໍານວຍການ	-4117
ນາຍົກລັດຖະມົນຕີ	-4118
ກູ້	-4119
ແຂນ	-4120
ຣເຈນ	-4121
▁ທາດ	-4122
▁ສາດສະ	-4123
ື່ມວນຊົນ	-4124
▁ຮຽກຮ້ອງ	-4125
ຕື່ນເຕັ້ນ	-4126
ele	-4127
ທູດ	-4128
ແພງ	-4129
ຊໍາລະເງິນ	-4130
estosterone	-4131
ແບ	-4132
ຈີ່	-4133
່ຽມ	-4134
▁Dr	-4135
atch	-4136
▁ຈົບ	-4137
hu	-4138
eed	-4139
▁am	-4140
▁pm	-4141
▁ຝັ່ງ	-4142
ຕົວແທນ	-4143
ເສັ້ນທາງ	-4144
▁37	-4145
▁cr	-4146
▁Dis	-4147
▁ທົບ	-4148
▁ດໍາເນີນ	-4149
ບາງສິ່ງບາງຢ່າງ	-4150
31	-4151
▁ເຮັດວຽກ	-4152
▁ນິລັນດອນ	-4153
ເຕີ້	-4154
▁Web	-4155
ແຫຼ່ງ	-4156
ກັບຄວາມ	-4157
▁ການອອກແບບ	-4158
OR	-4159
yt	-4160
▁05	-4161
ແທ້ໆ	-4162
ທະພັນ	-4163
ອັດຕາ	-4164
ວິເຄາະ	-4165
ປະກອບສ່ວນ	-4166
▁ໃນເວລາທີ່	-4167
ຊີວະ	-4168
agram	-4169
ຫຼັງຈາກນັ້ນ	-4170
▁Protection	-4171
ມາກ	-4172
ustom	-4173
ຣັກ	-4174
▁All	-4175
▁Dong	-4176
▁ຂະຫຍາຍ	-4177
ສົມບູນແບບ	-4178
cs	-4179
yst	-4180
ພະນ	-4181
ouse	-4182
ກະທໍາ	-4183
▁ຖະຫນາ	-4184
▁ຖ້າທ່ານ	-4185
AP	-4186
mer	-4187
ສົດ	-4188
ີນີ	-4189
astic	-4190
▁Suppli	-4191
▁ອັງກິດ	-4192
ລຸ້ນ	-4193
▁ແຍງ	-4194
ມິຖຸນາ	-4195
▁ຫລັງຈາກ	-4196
46	-4197
▁Ac	-4198
atic	-4199
▁you	-4200
▁ເດຍ	-4201
ພິທະພັນ	-4202
ໂດຍຜ່ານ	-4203
▁ຊື່ສັດ	-4204
ars	-4205
port	-4206
ເລິກ	-4207
▁ຊານ	-4208
▁ຫນາວ	-4209
▁ຫຼຸດ	-4210
ທີ່ໃຫຍ່	-4211
ຂອງປະເທດ	-4212
ຫມັ້ນຄົງ	-4213
ifi	-4214
▁61	-4215
wide	-4216
ສັ້ນ	-4217
ແນ່ໃຈ	-4218
▁ແວ່ນ	-4219
ຜິດພາດ	-4220
ທົບທວນຄືນ	-4221
ກາດ	-4222
ົ້ວ	-4223
ທີ່ໃຊ້	-4224
ແລະມັນ	-4225
ພາກສ່ວນ	-4226
▁Mobile	-4227
ກ້າ	-4228
ອັກ	-4229
▁DC	-4230
ລະບຸ	-4231
ື້ອມ	-4232
▁Heng	-4233
▁ເຊັດ	-4234
ກະຕຸ້ນ	-4235
ພາຍໃຕ້	-4236
▁ສະຖານີ	-4237
ann	-4238
ise	-4239
ທ່າ	-4240
▁Sw	-4241
▁ແບ	-4242
ating	-4243
▁ຮັບໃຊ້	-4244
▁ຫຼັງຈາກນັ້ນ	-4245
ຂອງຜະລິດຕະພັນ	-4246
2)	-4247
ທາ	-4248
.000	-4249
ຍ່າງ	-4250
▁Nor	-4251
▁ຫມາ	-4252
ັກຊີນ	-4253
▁Copy	-4254
▁ຮ້ອຍ	-4255
▁ມັນແມ່ນ	-4256
ຈີ	-4257
ຮ່ວມກັນ	-4258
CH	-4259
▁ມມ	-4260
lett	-4261
ວ່າມີ	-4262
ຂອບເຂດ	-4263
ຄໍາສັ່ງ	-4264
ພືດ	-4265
ຂອງນັກ	-4266
ອາຍແກັສ	-4267
ພະຍ	-4268
▁ແຂວງ	-4269
ສ້າງສັນ	-4270
ສົ່ງເສີມ	-4271
▁ຕາຕະລາງ	-4272
▁Worldwide	-4273
ebook	-4274
ສະຫມຸດ	-4275
ເປັນເຈົ້າ	-4276
ທີ່ເຫມາະສົມ	-4277
ຍົງ	-4278
ອດຄ	-4279
▁ແສ	-4280
▁ຂົງ	-4281
▁ພູມ	-4282
ຫຼຸດລົງ	-4283
ຍືນ	-4284
ລ້າງ	-4285
ທີ່ພວກເຂົາ	-4286
PC	-4287
ບຸນ	-4288
ໃດກໍ	-4289
▁Net	-4290
ເສບຕິດ	-4291
ຕະນາການ	-4292
▁ແລະຂ້ອຍ	-4293
ley	-4294
ແນກ	-4295
▁ປຸງ	-4296
▁Play	-4297
▁ສະບາຍ	-4298
▁ກາງຄືນ	-4299
:0	-4300
ປ່າ	-4301
໊ອກ	-4302
້າສຸດ	-4303
ລວມທັງ	-4304
ໄຈ	-4305
ປານ	-4306
uang	-4307
▁Pulse	-4308
ພາກພື້ນ	-4309
ອັນຕະລາຍ	-4310
EAN	-4311
ory	-4312
▁ວາ	-4313
▁ໄທ	-4314
▁Cer	-4315
▁ຊົງ	-4316
▁ມິດ	-4317
▁ເຕີມ	-4318
▁ມີການ	-4319
ການທົດສອບ	-4320
ອົດສະຕາລີ	-4321
32	-4322
jian	-4323
ຖານະ	-4324
▁ຮົບ	-4325
▁ໂຕະ	-4326
ເຄິ່ງ	-4327
ownload	-4328
ger	-4329
▁ຊ່ອງ	-4330
ດອກ	-4331
ສູບ	-4332
ence	-4333
▁USB	-4334
▁ໂຊກ	-4335
ເສຍຫາຍ	-4336
▁ທັດສະນະ	-4337
▁ອອນໄລນ໌	-4338
▁ຂອງພວກເຮົາ	-4339
der	-4340
ປະທ	-4341
▁ວີ	-4342
ຈະມີ	-4343
ເຄມີ	-4344
▁Mac	-4345
▁ຕັນ	-4346
▁ຊິ້ນ	-4347
▁ຖານະ	-4348
ກາກບອນ	-4349
anc	-4350
ener	-4351
▁ແລງ	-4352
ustri	-4353
ເປີດເຜີຍ	-4354
ພິພິທະພັນ	-4355
▁ປະສົບການ	-4356
ໃຫ້ບໍລິການ	-4357
ຢ່າງກວ້າງຂວາງ	-4358
▁ຖ້າຫາກວ່າທ່ານ	-4359
▁Soft	-4360
ຕະຫຼອດ	-4361
ainless	-4362
lim	-4363
olt	-4364
▁XXL	-4365
ສໍາຫລັບ	-4366
▁ວິດີໂອ	-4367
ບາດເຈັບ	-4368
▁ມະຫາວິທະຍາໄລ	-4369
ສະໄຫມ	-4370
ສັກຢາ	-4371
▁Tags	-4372
ທະນາຄານ	-4373
ລົດບັນທຸກ	-4374
esh	-4375
▁ຂາ	-4376
▁ສະຕິ	-4377
▁ທີ່ຈະ	-4378
▁ສະເຫນີ	-4379
ບໍ່ມີການ	-4380
▁ເງື່ອນໄຂ	-4381
ull	-4382
▁Cr	-4383
ider	-4384
ຈ້າງ	-4385
ເປັນເວລາ	-4386
ແລະພວກເຮົາ	-4387
ຄຸກ	-4388
ປິນ	-4389
▁ກົນ	-4390
ມູນຄ່າ	-4391
▁ເຖົ້າ	-4392
ສະພາບແວດລ້ອມ	-4393
▁ຄວາມຄິດເຫັນທີ່	-4394
GS	-4395
den	-4396
▁ເຫ	-4397
▁Ben	-4398
▁ອັງ	-4399
▁Stre	-4400
ເຈົ້າຫນ້າທີ່	-4401
acc	-4402
ອຸດ	-4403
ພະນັນ	-4404
ຍຸດທະສາດ	-4405
ອ້ອມ	-4406
▁LTD	-4407
▁ຫລານ	-4408
ຂອງເຮົາ	-4409
ຜິວ	-4410
ຜົມ	-4411
້ວາ	-4412
▁ນຶກ	-4413
▁ແພດ	-4414
ເຮືອບິນ	-4415
ການປັບປຸງ	-4416
ວິກ	-4417
▁XX	-4418
ທັນທີ	-4419
▁Home	-4420
ການເມືອງ	-4421
34	-4422
eth	-4423
urg	-4424
ກົນ	-4425
▁Ox	-4426
▁ຣະ	-4427
ings	-4428
ະພາບ	-4429
▁ຖອກ	-4430
▁ແກະ	-4431
ouble	-4432
່ານຫີນ	-4433
ການກັ່ນຕອງ	-4434
ບາ	-4435
ແປດ	-4436
▁Up	-4437
▁ຮອງ	-4438
ໍາລຸງ	-4439
ຜົນສໍາເລັດ	-4440
ທີ່ມີປະສິດທິພາບ	-4441
ປາຍ	-4442
ຝາກ	-4443
ໂປຣ	-4444
▁ຕີນ	-4445
▁poly	-4446
ຕໍ່ການ	-4447
▁Dedust	-4448
ິນຕະນາການ	-4449
ໃນທົ່ວໂລກ	-4450
▁ເຂົ້າຮ່ວມ	-4451
ຂຸດ	-4452
ບາກ	-4453
▁ອາຍ	-4454
ເສົ້າ	-4455
▁Light	-4456
▁ຢູ່ໃນ	-4457
ປະກອບດ້ວຍ	-4458
▁ເຫລົ່ານັ້ນ	-4459
▁ແສງສະຫວ່າງ	-4460
2.	-4461
ma	-4462
sm	-4463
ify	-4464
▁34	-4465
ເດັ່ນ	-4466
ວິນຍານ	-4467
ວນລິຂະສິດ	-4468
CC	-4469
ck	-4470
▁65	-4471
ເວລາດ	-4472
ວິຊາການ	-4473
▁ບຸກຄົນ	-4474
ກິດຈະກໍາ	-4475
ລວງ	-4476
ໄລ່	-4477
▁HGH	-4478
ວິຫານ	-4479
St	-4480
ໃຫ້ນ	-4481
▁Mid	-4482
▁ຫັນ	-4483
Hebei	-4484
ກະຈາຍ	-4485
ີນີເຈີ	-4486
▁International	-4487
▁La	-4488
ນລັງ	-4489
ເທີງ	-4490
▁She	-4491
▁ຍາຍ	-4492
▁West	-4493
▁ແກ້ວ	-4494
▁ເວັບໄຊທ໌	-4495
ສ້າງຕັ້ງຂຶ້ນ	-4496
ared	-4497
fish	-4498
ຊ່ອງ	-4499
ປ່ອງ	-4500
lette	-4501
▁Gold	-4502
ຮັບໃຊ້	-4503
ໂຮງແຮມ	-4504
ການຄວບຄຸມ	-4505
BS	-4506
raw	-4507
▁MH	-4508
▁ທາ	-4509
ເອີຣົບ	-4510
▁Guang	-4511
ຊັບພະຍາກອນ	-4512
ຄະນະກໍາມະການ	-4513
oy	-4514
ther	-4515
▁Fiber	-4516
▁ເນັ້ນ	-4517
ນຸ່ງ	-4518
ເລີຍ	-4519
ແຫ້ງ	-4520
ອອກມາ	-4521
▁ຫນອງ	-4522
ຄົ້ນພົບ	-4523
▁ຂ່າວສານ	-4524
ປະດິດສ້າງ	-4525
▁ກິດຈະກໍາ	-4526
▁ລາຊະອານາຈັກ	-4527
-10	-4528
cts	-4529
rol	-4530
າບານ	-4531
ພົນລະ	-4532
▁XXXL	-4533
▁ຫ່ວງ	-4534
ຮັບຮອງ	-4535
ຕາເວັນຕົກ	-4536
ສໍາລັບມື້ນີ້	-4537
▁--	-4538
▁Cy	-4539
ript	-4540
ຄຣິດ	-4541
ເວທີ	-4542
▁100%	-4543
ກັນຂ້າມ	-4544
ໄດ້ເຮັດ	-4545
37	-4546
ນັດ	-4547
ຫລີ	-4548
▁ວາດ	-4549
້ານ້ອຍ	-4550
ຄວາມຈິງ	-4551
ohn	-4552
idth	-4553
ສະຫລ	-4554
▁Fit	-4555
ະນິດສາດ	-4556
▁ໂດຍການ	-4557
47	-4558
▁He	-4559
▁ຊູ	-4560
ຝຣັ່ງ	-4561
ພຽງພໍ	-4562
ທີ່ລາວ	-4563
▁ພີ່ນ້ອງ	-4564
ລໍ	-4565
ຫວງ	-4566
ຽວນີ້	-4567
▁ເຄາະ	-4568
ຊື້ຂາຍ	-4569
ໍາມະດາ	-4570
ໃດກໍຕາມ	-4571
▁ໃນໄລຍະ	-4572
▁Markets	-4573
▁ພະເຈົ້າ	-4574
row	-4575
ກ່ອງ	-4576
ດື່ມ	-4577
ເລກທີ	-4578
ຖະຫນົນ	-4579
▁ຕະຫລາດ	-4580
▁ກ່າວວ່າ	-4581
ແລະເຄື່ອງ	-4582
tml	-4583
▁PP	-4584
▁ນົກ	-4585
ປະທ້ວງ	-4586
ເກີນໄປ	-4587
▁Press	-4588
ຫຼາຍທີ່ສຸດ	-4589
▁ປະຫວັດສາດ	-4590
▁ພວກເຂົາເຈົ້າ	-4591
ເມຍ	-4592
▁Art	-4593
.2018	-4594
ສະຫຼອງ	-4595
ຫົນທາງ	-4596
▁Elect	-4597
▁ສິນຄ້າ	-4598
ການປະຕິບັດ	-4599
▁ເລີ່ມຕົ້ນ	-4600
TC	-4601
▁Off	-4602
▁squ	-4603
ລາຍລະອຽດ	-4604
ຄວາມຮູ້ສຶກ	-4605
ປະທັບ	-4606
ສີຂຽວ	-4607
ເລືອດ	-4608
▁ຈ້າງ	-4609
ຫຸ່ນຍົນ	-4610
ທີ່ກ່ຽວຂ້ອງກັບ	-4611
ໍ່າ	-4612
ates	-4613
ຊື່ນ	-4614
ເອກະລ	-4615
ເສຍຄ່າ	-4616
ຫ້ອງການ	-4617
ຈີມ	-4618
▁ອິ	-4619
ນາທີ	-4620
▁Hot	-4621
▁ຍົງ	-4622
ຈີມິນ	-4623
ຄົ້ນຫາ	-4624
▁ບໍລິຈາກ	-4625
▁ຟີ	-4626
ຍ່ອຍ	-4627
ຂອງລັດ	-4628
ັບສະຫນຸນ	-4629
▁ເວົ້າວ່າ	-4630
OW	-4631
ລາດ	-4632
ຮ່ຈີມິນ	-4633
▁ສັງເກດ	-4634
TF	-4635
ales	-4636
perb	-4637
ສໍານ	-4638
▁ຍູ້	-4639
▁ໄຫ້	-4640
ລາຍຊື່	-4641
▁ໃບຢັ້ງຢືນ	-4642
▁ປະເພດຜະລິດຕະພັນ	-4643
39	-4644
je	-4645
▁PM	-4646
rist	-4647
▁info	-4648
▁ທ້ອນ	-4649
▁ເມັດ	-4650
ສະຖາບັນ	-4651
▁ຫົນທາງ	-4652
gar	-4653
ford	-4654
▁Med	-4655
▁ຂ້າພະເຈົ້າໄດ້	-4656
▁Red	-4657
▁ກວນ	-4658
▁ແຈກ	-4659
▁ເຫລວ	-4660
aposre	-4661
ຍືນຍົງ	-4662
▁ASEAN	-4663
▁ແຫຼ່ງ	-4664
▁Win	-4665
▁min	-4666
ຕະວັດ	-4667
ມືກັບ	-4668
▁Laser	-4669
▁Charter	-4670
ອະນຸຍາດໃຫ້	-4671
):	-4672
tr	-4673
rav	-4674
ange	-4675
▁rep	-4676
▁ປັກ	-4677
ົາຫລີ	-4678
ສິດທິພາບ	-4679
ເຄື່ອນຍ້າຍ	-4680
ເຕັກໂນໂລຢີ	-4681
ຈື່	-4682
▁co	-4683
acks	-4684
ເບິນ	-4685
▁ຄຸກ	-4686
▁ງກັນ	-4687
▁Produ	-4688
▁valve	-4689
ຄວາມຮັກ	-4690
ສ່ວນຮ່ວມ	-4691
ແສງຕາເວັນ	-4692
go	-4693
▁ບຸນ	-4694
▁ລອຍ	-4695
ອດຕິງ	-4696
ໃນເຂດ	-4697
▁ໃນວັນ	-4698
ສິ້ນສຸດ	-4699
▁Twitter	-4700
▁ກິໂລແມັດ	-4701
▁ວິທະຍາສາດ	-4702
▁ປະສິດທິພາບ	-4703
urren	-4704
ຕິກໍາ	-4705
▁ຫລາດ	-4706
ຄຸນຄ່າ	-4707
perbaric	-4708
ave	-4709
▁Cor	-4710
ຫຼີ້ນ	-4711
▁ຫຼີກ	-4712
oud	-4713
ວາຍ	-4714
ເຈຍ	-4715
▁pro	-4716
▁ຮຸນ	-4717
ພຸດທະ	-4718
ບັນດານ	-4719
ອດຄ່ອງ	-4720
▁North	-4721
▁ສັດຕູ	-4722
ປະຕິເສດ	-4723
ໃນວັນທີ	-4724
ປະເພດຂອງ	-4725
▁ຄຸນນະພາບ	-4726
▁We	-4727
ania	-4728
ມະຫາ	-4729
▁Sch	-4730
▁ດັດ	-4731
▁Miss	-4732
ໃນຂະນະທີ່	-4733
▁ການປ່ຽນແປງ	-4734
als	-4735
▁CP	-4736
eric	-4737
shop	-4738
▁ໄຂ້	-4739
▁ໄຫລ	-4740
ໂຄງສ້າງ	-4741
▁ຜູ້ທີ່	-4742
▁Tattoos	-4743
300	-4744
ປື້ມ	-4745
▁ຫັດ	-4746
ລັອດຕິງ	-4747
ຄວາມກົດດັນ	-4748
▁testosterone	-4749
OM	-4750
ury	-4751
ນານ	-4752
▁Pe	-4753
Tube	-4754
▁ຝັນ	-4755
ຊາກອນ	-4756
ລົດຖີບ	-4757
ໃນເວລາ	-4758
ວ່າພວກເຮົາ	-4759
▁ກ່ຽວກັບພວກເຮົາ	-4760
ແສ	-4761
ຈົບ	-4762
ທຽມ	-4763
ໂສ້	-4764
▁Ed	-4765
▁SM	-4766
ທໍານ	-4767
▁Bel	-4768
▁pre	-4769
ຊາວຫນຸ່ມ	-4770
▁ນະໂຍບາຍ	-4771
ການລົງທຶນ	-4772
ຂອງຕົນເອງ	-4773
ດຽວກັນກັບ	-4774
3,	-4775
ີງ	-4776
oss	-4777
ເວີ	-4778
▁CE	-4779
ເຊັດ	-4780
▁ປູກ	-4781
ືລົ້ນ	-4782
▁ລໍຖ້າ	-4783
hejiang	-4784
ັ່ງມີ	-4785
▁ສິລະ	-4786
zz	-4787
ors	-4788
umb	-4789
ເກາະ	-4790
▁220	-4791
ຊຸກຍູ້	-4792
ທາງເພດ	-4793
ວິທະຍາໄລ	-4794
ໂທລະສັບມືຖື	-4795
▁ເຖິງແມ່ນວ່າ	-4796
:5	-4797
▁lottery	-4798
▁Bi	-4799
▁en	-4800
▁he	-4801
▁Van	-4802
▁ຂາວ	-4803
board	-4804
ເຈັບປ	-4805
▁ໂຫລດ	-4806
ສົງຄາມ	-4807
ອິນເດຍ	-4808
ເຊື່ອຖື	-4809
ກະດູກກະດູກ	-4810
erv	-4811
ົ້ານ	-4812
▁110	-4813
▁Mon	-4814
ມັດສະ	-4815
irtual	-4816
ກັງວົນ	-4817
ຂອງໂລກ	-4818
▁Online	-4819
▁ການຫຸ້ມຫໍ່	-4820
Sh	-4821
lin	-4822
ເປີ	-4823
▁48	-4824
▁ຍືນ	-4825
▁ລາມ	-4826
▁ນໍາພາ	-4827
acebook	-4828
▁ຍິນດີຕ້ອນຮັບ	-4829
4,	-4830
iao	-4831
▁01	-4832
▁Post	-4833
ໃຫ້ກັບ	-4834
ດາວໂຫລດ	-4835
າວັກຊີນ	-4836
▁ລູກຄ້າ	-4837
▁ໃນປະເທດ	-4838
ທີ່ສວຍງາມ	-4839
ແມ່ນປະມານ	-4840
▁ອາເມລິກາ	-4841
ທີ່ຖືກຕ້ອງ	-4842
ເຕັມໄປດ້ວຍ	-4843
ຂໍ້ມູນຂ່າວສານ	-4844
▁≤	-4845
ape	-4846
ປຶ້ມ	-4847
ພາສີ	-4848
ບເບິນ	-4849
▁ຝຸ່ນ	-4850
ືລືລົ້ນ	-4851
ັກໂນໂລຊີ	-4852
ເຟີນີເຈີ	-4853
▁Suppliers	-4854
?—	-4855
ຈາ	-4856
ສບຸກ	-4857
ຂົ່ມຂ	-4858
ປຶກສາ	-4859
▁ຄລິດ	-4860
▁ອາຄານ	-4861
ocurren	-4862
ustrial	-4863
ສະມາຄົມ	-4864
▁ຄາສິໂນ	-4865
▁ອິນເດຍ	-4866
▁ໂຮນລັງ	-4867
▁ສົນທະນາ	-4868
IF	-4869
ຍອດ	-4870
ປັກ	-4871
▁Qu	-4872
ylon	-4873
ຢູ່ນ	-4874
ແລ່ນ	-4875
▁ເຄືອ	-4876
▁ສີແດງ	-4877
▁ເລົ່າ	-4878
▁ຍອມຮັບ	-4879
▁ຕະຫຼອດ	-4880
ສາດສະຫນາ	-4881
ke	-4882
▁Kh	-4883
▁le	-4884
ຊື່ງ	-4885
▁Tur	-4886
▁FREE	-4887
▁zero	-4888
ພໍ່ແມ່	-4889
▁ວິຫານ	-4890
ade	-4891
▁ລຸກ	-4892
▁ແດນ	-4893
▁ແຮມ	-4894
ຊັດເຈນ	-4895
ບາງຄົນ	-4896
ກະສິກໍາ	-4897
ເບີ	-4898
oooo	-4899
ຖິ້ມ	-4900
ຈຸລັງ	-4901
ທີມງານ	-4902
ຮ້າຍແຮງ	-4903
▁ສະຫະພາບ	-4904
ສື່ມວນຊົນ	-4905
▁Zhejiang	-4906
▁Instagram	-4907
ອລ	-4908
ແມງ	-4909
▁ຕູ	-4910
shan	-4911
ຊີ້ນ	-4912
▁ທຽບ	-4913
ກວ່ານ	-4914
ເຫຼີມ	-4915
▁ສ່ຽງ	-4916
ວາງແຜນ	-4917
▁ເພິ່ງ	-4918
ເບິ່ງຄື	-4919
▁ກະຕັນຍູ	-4920
In	-4921
ute	-4922
ເຈ້ຍ	-4923
ພວກມັນ	-4924
ວ່າລາວ	-4925
ສະຖານະການ	-4926
lt	-4927
ole	-4928
ຜົວ	-4929
ແທກ	-4930
emic	-4931
olor	-4932
▁ແລກ	-4933
▁ຫ້ອງການ	-4934
▁ປະເພດຂອງ	-4935
ທີ່ມີຊື່ສຽງ	-4936
-7	-4937
LC	-4938
ແຮ່	-4939
ຫນົດ	-4940
▁2007	-4941
▁2009	-4942
ສຸມໃສ່	-4943
▁ະ	-4944
ays	-4945
ຍັງມີ	-4946
ids	-4947
ຢັດ	-4948
▁Dri	-4949
▁ເມດ	-4950
▁Wire	-4951
ຫໍ	-4952
▁ເຣຍ	-4953
ນະບົດ	-4954
▁ລາວກ	-4955
ກ່າວຫາ	-4956
ຕິພາບ	-4957
▁John	-4958
▁Mini	-4959
▁Tian	-4960
ingdao	-4961
▁ເປົ່າ	-4962
aricella	-4963
▁YouTube	-4964
▁ໄນ	-4965
ເສີນ	-4966
▁86-	-4967
▁Bund	-4968
ແຕ່ງງານ	-4969
▁ເອກະສານ	-4970
ເອົາໃຈໃສ່	-4971
▁ເພື່ອໃຫ້	-4972
67	-4973
ital	-4974
ວັດຖຸ	-4975
▁ຫວັນ	-4976
ຜູ້ໃຊ້	-4977
▁Glass	-4978
▁ທົດລອງ	-4979
▁ສະຫນາມ	-4980
▁ເຈົ້າບໍ່	-4981
ເຫຼີມສະຫຼອງ	-4982
▁ໆ	-4983
ava	-4984
ຊິນ	-4985
ກາເຟ	-4986
ກ້ອງ	-4987
ແຫຼງ	-4988
▁ຊິດ	-4989
ກວດກາ	-4990
ປັນຍາ	-4991
ລະບາດ	-4992
ສີຂາວ	-4993
ສົງໄສ	-4994
ກິໂລແມັດ	-4995
ING	-4996
ເລຍ	-4997
▁Ge	-4998
▁Mod	-4999
▁ຣັດ	-5000
pring	-5001
ອາຈານ	-5002
▁ຂອບໃຈ	-5003
▁Americ	-5004
▁ຊຸກຍູ້	-5005
▁ສຸຂະພາບ	-5006
ບັນດາປະເທດ	-5007
ຂ້າພະເຈົ້າໄດ້	-5008
ML	-5009
arm	-5010
ລຸດ	-5011
▁ເດີ	-5012
ວິສະວະ	-5013
ສະຫມອງ	-5014
▁ຟຣິກາ	-5015
▁ເລີ້ມ	-5016
▁—	-5017
rui	-5018
▁ພວມ	-5019
▁ສູດ	-5020
▁Fran	-5021
▁ໄຫມ້	-5022
▁iPhone	-5023
ຫມາຍຄວາມ	-5024
▁ທັງຫລາຍ	-5025
ຂະຫຍາຍຕົວ	-5026
ຖືກນໍາໃຊ້	-5027
ໂຣກ	-5028
ປາໄສ	-5029
▁Spe	-5030
▁ລົ້ນ	-5031
ທີ່ສູງ	-5032
ປຸງແຕ່ງ	-5033
▁inches	-5034
▁Qingdao	-5035
”.	-5036
ກຸມ	-5037
▁QR	-5038
ເຂັມ	-5039
▁ຢິວ	-5040
▁ທ້າວ	-5041
ຢືນຢັນ	-5042
ໃຫ້ການ	-5043
▁ເຫລົ້າ	-5044
▁ແລະມັນ	-5045
........	-5046
ສ້າງຄວາມ	-5047
▁ຂ້ານ້ອຍ	-5048
/0	-5049
97	-5050
app	-5051
າວະ	-5052
vent	-5053
▁Ide	-5054
ຄວນຈະ	-5055
ເອື້ອຍ	-5056
▁ພວກເຮົາສາມາດ	-5057
▁1:	-5058
ະນຸມ	-5059
▁San	-5060
ຄໍາເຫັນ	-5061
ໄດ້ຢ່າງ	-5062
ມັດສະການ	-5063
ການຮ່ວມມື	-5064
▁Varicella	-5065
▁ພວກເຮົາຈະ	-5066
ມົນ	-5067
ອານ	-5068
ແຈກ	-5069
້ວມ	-5070
▁Ant	-5071
ivers	-5072
▁ຜູ້ຍິງ	-5073
▁ເສັ້ນໃຍ	-5074
ທີ່ເຮັດໃຫ້	-5075
▁ເຄື່ອງຕັດ	-5076
!!	-5077
lor	-5078
ລະວັງ	-5079
▁Star	-5080
ໃດຫນຶ່ງ	-5081
ລົງຄະແນນ	-5082
ລົງທະບຽນ	-5083
ຂອງລູກຄ້າ	-5084
345	-5085
cel	-5086
▁ຊິ	-5087
▁ງ່າຍໆ	-5088
▁ແກ້ໄຂ	-5089
ສາສະຫນາ	-5090
any	-5091
້ຽວ	-5092
▁3,	-5093
▁CD	-5094
▁ອຸ່ນ	-5095
ໂດຍສະເພາະ	-5096
▁ປັດຈຸບັນ	-5097
ເກມອອນໄລນ໌	-5098
▁2.	-5099
▁iOS	-5100
uctor	-5101
ທິການ	-5102
▁ນຸ່ງ	-5103
ໄດ້ແນວໃດ	-5104
top	-5105
ຢອກ	-5106
▁Dev	-5107
▁ນິດ	-5108
▁ຝົນ	-5109
ville	-5110
ອາວຸດ	-5111
▁ຖ້ອຍ	-5112
ປະສົມປະສານ	-5113
▁Hyperbaric	-5114
MC	-5115
▁FX	-5116
ທະຍຸ	-5117
ທະວີ	-5118
enoid	-5119
ານັ້ນ	-5120
ເຜົ່າ	-5121
▁Line	-5122
ລາສຕິກ	-5123
ຫົວຫນ້າ	-5124
ຕໍ່ເນື່ອງ	-5125
▁ໄດ້ຮັບການ	-5126
ທີ່ໃຫຍ່ທີ່ສຸດ	-5127
66	-5128
we	-5129
over	-5130
▁Rik	-5131
ສະຕຽນ	-5132
ເທືອນ	-5133
▁ສະເຫມີ	-5134
ໃນມື້ນີ້	-5135
ປະຕິບັດການ	-5136
▁ໂດຍສະເພາະ	-5137
ປູ	-5138
▁Af	-5139
▁sk	-5140
ລຸ່ມ	-5141
ບົດບາດ	-5142
▁ເຫຼັກ	-5143
▁ບົດບາດ	-5144
▁ຂັ້ນຕອນ	-5145
PP	-5146
eck	-5147
▁pr	-5148
ເງີນ	-5149
ເສົາ	-5150
▁ໂປຣ	-5151
ສະຕິກ	-5152
ອອກໄປ	-5153
▁Asia	-5154
▁Cont	-5155
ໃນເມືອງ	-5156
▁ພຣະກິດ	-5157
ຄົ້ນຄ້ວາ	-5158
ປ່ອງຢ້ຽມ	-5159
ພົນລະເມືອງ	-5160
ບູ	-5161
▁@	-5162
rew	-5163
▁SS	-5164
▁su	-5165
umin	-5166
▁Street	-5167
69	-5168
▁FS	-5169
ular	-5170
ເລ່ຍ	-5171
▁+86	-5172
▁ນາໆ	-5173
ເຄືອບ	-5174
▁Wall	-5175
▁ຫມອງ	-5176
▁ທັນທີ	-5177
ທັດສະນະ	-5178
ນໍ້າມັນ	-5179
▁Dining	-5180
▁fabric	-5181
▁ແຕ່ວ່າ	-5182
ນ້ໍາຫນັກ	-5183
▁be	-5184
▁cook	-5185
ກອງທັບ	-5186
▁hacks	-5187
ຜູ້ຊ່ຽວຊານ	-5188
.,	-5189
CN	-5190
byg	-5191
uss	-5192
ສົກ	-5193
▁Bur	-5194
▁ບິດ	-5195
ພົບເຫັນ	-5196
▁ສາດສະດາ	-5197
ທີ່ທ່ານສາມາດ	-5198
48	-5199
raph	-5200
ເມີດ	-5201
▁Per	-5202
▁ນົດ	-5203
ໍານານ	-5204
ກະເປົ໋າ	-5205
▁ກ້າຫານ	-5206
▁ຕໍ່ຫນ້າ	-5207
▁ທໍລະມານ	-5208
▁ຄອມພິວເຕີ	-5209
ຮູບແຕ້ມຮູບແຕ້ມ	-5210
ເສລີ	-5211
▁61%	-5212
ຫລິ້ນ	-5213
▁ລ່ວງ	-5214
▁ຫລອດ	-5215
ຫນ້າຈໍ	-5216
ທີ່ເອີ້ນວ່າ	-5217
dle	-5218
arin	-5219
ະຄອນ	-5220
▁html	-5221
້ວາງໃຈ	-5222
▁Forex	-5223
▁ວາລະສານ	-5224
▁ນັ້ນແມ່ນ	-5225
▁ການກັ່ນຕອງ	-5226
iam	-5227
ຕູນ	-5228
▁95	-5229
ເຜົາ	-5230
▁ste	-5231
▁ຊຸກ	-5232
▁ທານ	-5233
elash	-5234
▁ລ້າງ	-5235
ສະຫງົບ	-5236
ະນຸມັດ	-5237
ກໍາຫນົດ	-5238
ລາຄາຖືກ	-5239
ເຜີຍແຜ່	-5240
▁Machin	-5241
ocurrency	-5242
ພຸດທະເຈົ້າ	-5243
ຍຸດ	-5244
▁Pa	-5245
ຫລ່ງ	-5246
ition	-5247
ຕະຫລາດ	-5248
onductor	-5249
ເນື່ອງຈາກ	-5250
ສິ່ງທຸກຢ່າງ	-5251
vey	-5252
ຖອນ	-5253
ລິມ	-5254
▁Bas	-5255
ields	-5256
ບັນຍັດ	-5257
▁ສະໄຫມ	-5258
ທີ່ມີການ	-5259
▁Hengrui	-5260
ດໍາເນີນງານ	-5261
ຣັດ	-5262
▁la	-5263
anta	-5264
▁PCB	-5265
▁TED	-5266
▁ທັດ	-5267
ຍັງບໍ່	-5268
ຕາຕື່ນ	-5269
ຜູ້ຄົນ	-5270
▁ລາຍງານ	-5271
▁ເຫຼົ້າ	-5272
▁squared	-5273
▁ຄວາມສູງ	-5274
ips	-5275
ປາດ	-5276
ປີກ	-5277
ວານ	-5278
▁ດີກ	-5279
ດົນຕີ	-5280
ຂັບລົດ	-5281
▁ຫົວໃຈ	-5282
▁Bulgar	-5283
ໄດ້ຮັບຄວາມ	-5284
▁ເຈົ້າຫນ້າທີ່	-5285
ເຣຍ	-5286
▁(5	-5287
▁Si	-5288
▁ar	-5289
izer	-5290
ດູແລ	-5291
ເນີດ	-5292
▁ດອນ	-5293
ລະຍາຍ	-5294
ແລະບໍ່	-5295
▁ນັກຮຽນ	-5296
▁Youjian	-5297
▁ການເດີນທາງ	-5298
ຫວາ	-5299
ices	-5300
▁Tri	-5301
ທີສາມ	-5302
▁ຮ່ອມ	-5303
ປະລິມານ	-5304
ໂມເລກຸນ	-5305
▁Holmbyg	-5306
ສ່ວນບຸກຄົນ	-5307
ຖ້າຫາກວ່າທ່ານ	-5308
ໄດ	-5309
ນິທິ	-5310
▁ແທກ	-5311
ອາຄານ	-5312
▁Vacc	-5313
▁ການຄ້າ	-5314
▁ບໍ່ແມ່ນ	-5315
ຶມ	-5316
ຸ໋	-5317
alt	-5318
ມວນ	-5319
▁Ne	-5320
-2018	-5321
ໄວ້ໃນ	-5322
▁ຫລີກ	-5323
▁ດົນຕີ	-5324
limited	-5325
ສະແຕນເລດ	-5326
ຫຼາຍຢ່າງ	-5327
ຄວາມເປັນຈິງ	-5328
ເພື່ອເຮັດໃຫ້	-5329
ູມິນ	-5330
▁Oce	-5331
▁ຢາຍ	-5332
▁ແລ້ງ	-5333
ໃນຊ່ວງ	-5334
▁ບົດຄວາມ	-5335
ນໍາສະເຫນີ	-5336
▁ການພັດທະນາ	-5337
▁ການທົບທວນຄືນ	-5338
ສະຫະລັດອາເມລິກາ	-5339
ST	-5340
ari	-5341
ext	-5342
ຝັ່ງ	-5343
▁ຕອລ	-5344
▁Word	-5345
▁motor	-5346
ເລື່ອງນີ້	-5347
ຂອງລັດຖະບານ	-5348
ທີ່ສົມບູນແບບ	-5349
inj	-5350
▁39	-5351
ຍິນດີ	-5352
ເຂົ້າມາ	-5353
ກ້າວຫນ້າ	-5354
ເລັກນ້ອຍ	-5355
▁ພື້ນທີ່	-5356
▁ໂມເລກຸນ	-5357
IR	-5358
ຄຽງ	-5359
ລຶກ	-5360
▁cs	-5361
itch	-5362
ຕື່ມ	-5363
▁Aut	-5364
▁ຮຸ່ນ	-5365
ຖະແຫຼງ	-5366
ບານເຕະ	-5367
ສອງຄົນ	-5368
ສອງສາມ	-5369
ແຜນການ	-5370
▁ປັບປຸງ	-5371
ຮຽກຮ້ອງໃຫ້	-5372
1.	-5373
ຸສ	-5374
son	-5375
work	-5376
▁Box	-5377
▁des	-5378
▁ບູນ	-5379
▁ຮຽກ	-5380
ພະລັງ	-5381
▁ຂວາງ	-5382
ຂະແຫນງ	-5383
ສັນຍານ	-5384
ປະກອບມີ	-5385
ະລາ	-5386
▁ລື	-5387
oint	-5388
ອາຊີ	-5389
▁che	-5390
▁ອຽດ	-5391
ຊີເຈນ	-5392
ດໍາລົງ	-5393
▁Super	-5394
▁ປະຈັກ	-5395
▁ຫລາຍໆ	-5396
ແຜ່ນດິນ	-5397
▁Bundle	-5398
▁Fields	-5399
ຄໍາເວົ້າ	-5400
ຕັ້ງຂຶ້ນ	-5401
ຜ່າສູນກາງ	-5402
ວ່	-5403
,00	-5404
▁ຟໍ	-5405
▁Ste	-5406
ສໍາພາດ	-5407
ຄັດເລືອກ	-5408
▁ປ້ອງກັນ	-5409
▁ປະຕິບັດຕາມ	-5410
box	-5411
▁58	-5412
ydro	-5413
▁ຢາມ	-5414
▁ແລນ	-5415
ຟຣິກາ	-5416
affold	-5417
ຕໍາຫລວດ	-5418
ຊ່ວຍເຫລືອ	-5419
▁ເຄືອຂ່າຍ	-5420
ວ່າພວກເຂົາ	-5421
ໄນ	-5422
▁(3	-5423
▁20%	-5424
▁ດາຍ	-5425
ified	-5426
ingle	-5427
▁ສັ້ນໆ	-5428
▁ອີເມວ	-5429
ປະຊາຊາດ	-5430
ໃນລະຫວ່າງ	-5431
ng	-5432
ideo	-5433
ເທົາ	-5434
ໂຫວາ	-5435
▁130	-5436
▁ບຽນ	-5437
▁ແຖວ	-5438
▁Zone	-5439
ນັກຮຽນ	-5440
ແມ່ນມີ	-5441
▁ຫງວຽນ	-5442
ຊີວະພາບ	-5443
ດ້ວຍການ	-5444
▁Server	-5445
▁ບົດຮຽນ	-5446
ດັງ	-5447
▁85	-5448
▁Gh	-5449
ເຊີຍ	-5450
ເຕົາ	-5451
▁Squ	-5452
▁ເຂັມ	-5453
▁ແຫນ່ງ	-5454
▁ລໍາບາກ	-5455
▁ໃນເມືອງ	-5456
ທີ່ດີເລີດ	-5457
▁ການຜະລິດ	-5458
ປະຕິບັດຕາມ	-5459
▁ຄວາມສາມາດ	-5460
emiconductor	-5461
ອົງການຈັດຕັ້ງ	-5462
pa	-5463
▁0.	-5464
▁ທໍ	-5465
ເວັບ	-5466
▁Rel	-5467
ທີ່ມັນ	-5468
ວິທະຍາ	-5469
▁Plastic	-5470
▁ເຕັກໂນໂລຊີ	-5471
72	-5472
ຊ້າ	-5473
ລໍ້	-5474
▁Uk	-5475
▁ຊ້າ	-5476
▁ຍຶດ	-5477
▁ຊ່ຽວ	-5478
ອ້າງອີງ	-5479
▁ວິນຍານ	-5480
ທີ່ໃຊ້ເວລາ	-5481
ແນວຄວາມຄິດ	-5482
▁ນະມັດສະການ	-5483
OL	-5484
ft	-5485
arb	-5486
▁04	-5487
ເສັງ	-5488
ative	-5489
ປະກົດ	-5490
▁ສະເພາະ	-5491
ໄຮໂດຣເຈນ	-5492
▁ຮູບເງົາ	-5493
ເຫລົ່ານີ້	-5494
▁ເປັນຄວາມ	-5495
ພວກເຮົາໄດ້	-5496
ເຫຼົ່ານັ້ນ	-5497
▁Industrial	-5498
3.	-5499
ຮານ	-5500
ance	-5501
asino	-5502
ມານີ້	-5503
▁ຄ່ໍາ	-5504
ilicon	-5505
ລະບົບການ	-5506
▁Vaccine	-5507
ຄຸນສົມບັດ	-5508
ຜົນໄດ້ຮັບ	-5509
▁Roulette	-5510
ໃນການຜະລິດ	-5511
68	-5512
▁ບູ	-5513
ເອັດ	-5514
ໂຫຼດ	-5515
irect	-5516
ຫົວໃຈ	-5517
▁ລຸ່ມ	-5518
ູມິນຽມ	-5519
ອາດສາມາດ	-5520
▁ການສຶກສາ	-5521
▁wordpress	-5522
OP	-5523
▁ID	-5524
▁Max	-5525
ທິພົນ	-5526
ຕົວຈິງ	-5527
ຈົດຫມາຍ	-5528
ມັນເປັນ	-5529
ົບປະມານ	-5530
▁ສະຫລາດ	-5531
ເບື້ອງຕົ້ນ	-5532
IP	-5533
ird	-5534
oon	-5535
pcs	-5536
ກົວ	-5537
ຢາຍ	-5538
ຂວັນ	-5539
▁ຕຶກ	-5540
▁ວາວ	-5541
▁ຮາກ	-5542
ຄໍາພີ	-5543
ສະຫຼະ	-5544
▁ກ້ອງ	-5545
▁ແຂ້ວ	-5546
▁ໃນນັ້ນ	-5547
▁ການລົງທຶນ	-5548
▁Collectors	-5549
key	-5550
ກ່າ	-5551
▁RS	-5552
ຫຍັດ	-5553
▁ເບຍ	-5554
rylic	-5555
▁Cage	-5556
ທີ່ວ່າ	-5557
▁ຫຍຸ້ງ	-5558
▁ຕົກລົງ	-5559
ນາທິບໍດີ	-5560
its	-5561
ອອນ	-5562
ໂອນ	-5563
ຄ່ໍາ	-5564
ເມສາ	-5565
▁3000	-5566
▁Best	-5567
▁ຖ່ອມ	-5568
▁ເຕົາ	-5569
ຫຼາຍຂຶ້ນ	-5570
▁ປະຊາທິປະ	-5571
ຂອງມັນແມ່ນ	-5572
ເກັບຂີ້ຝຸ່ນ	-5573
BC	-5574
sk	-5575
coot	-5576
ກ້ຽງ	-5577
ພາລະ	-5578
▁con	-5579
enter	-5580
▁ຫຼວດ	-5581
▁ເລີດ	-5582
▁ຫນັງສືພິມ	-5583
ກີ	-5584
ling	-5585
ັກນິກ	-5586
▁ອາໄສ	-5587
າຍຄວາມ	-5588
▁Green	-5589
▁ທີ່ໄດ້	-5590
▁ໃນຖານະ	-5591
▁ແມ່ນຫຍັງ	-5592
92	-5593
ຸ໋ຍ	-5594
ໂດດ	-5595
▁ຝາ	-5596
▁Ari	-5597
▁ບວກ	-5598
▁ສຖານ	-5599
▁admin	-5600
ຕາຕະລາງ	-5601
▁ທຸລະກິດ	-5602
ເຮັດແນວໃດ	-5603
ຄວາມພະຍາຍາມ	-5604
ຄໍາຮ້ອງສະຫມັກ	-5605
pro	-5606
ຖີ່	-5607
ກ້ອນ	-5608
▁Flat	-5609
▁Shop	-5610
▁Games	-5611
ກວ່ານັ້ນ	-5612
ໃນຂົງເຂດ	-5613
ສັງເກດເຫັນ	-5614
aj	-5615
ລິບ	-5616
▁64	-5617
▁Sn	-5618
▁ກີ	-5619
ຊັບສິນ	-5620
ຍັງຄົງ	-5621
ປະສິດທິ	-5622
ສະເທືອນ	-5623
▁ທີ່ບໍ່	-5624
ຄວາມສ່ຽງ	-5625
ຈ່າຍເງິນ	-5626
ໄປຢ້ຽມຢາມ	-5627
▁ທີ່ດີທີ່ສຸດ	-5628
alk	-5629
ຊັນ	-5630
▁180	-5631
▁70%	-5632
▁Rob	-5633
▁ບວນ	-5634
▁ຜູກ	-5635
ທະຍົມ	-5636
▁reply	-5637
▁ໃນຕອນ	-5638
▁Rikoooo	-5639
ຄວາມສະອາດ	-5640
ony	-5641
ພັບ	-5642
▁is	-5643
ມ່ວນ	-5644
ເດັນ	-5645
ແກຣມ	-5646
▁Tra	-5647
▁ຂົ່ມ	-5648
▁ໃນວັນທີ	-5649
ສະເຫຼີມສະຫຼອງ	-5650
▁ຄະນະກໍາມະການ	-5651
ຄໍ	-5652
oto	-5653
ຖຽງ	-5654
▁06	-5655
▁ແຮ	-5656
roat	-5657
▁900	-5658
▁Pan	-5659
ຕໍ່ມາ	-5660
ລະພາບ	-5661
▁Pack	-5662
ຜູ້ແທນ	-5663
້ອງກັນ	-5664
ການປ່ອຍ	-5665
ເປັນທີ່	-5666
▁ໂທລະພາບ	-5667
▁ພຣະວິຫານ	-5668
ເອື້ອຍນ້ອງ	-5669
-19	-5670
uff	-5671
ulf	-5672
www	-5673
ປືນ	-5674
ິມະ	-5675
▁at	-5676
▁cm	-5677
ເລີກ	-5678
ແຍ້ງ	-5679
ກໍາຈັດ	-5680
ຜົວເມຍ	-5681
ສະເລ່ຍ	-5682
ເຈັບປວດ	-5683
▁ໂຮງແຮມ	-5684
ຕົວເມືອງ	-5685
ຫລາຍກວ່າ	-5686
ຄ້າຍຄືກັນ	-5687
ໃນອະນາຄົດ	-5688
▁ຜູ້ສະຫນອງ	-5689
isc	-5690
ກຽດ	-5691
▁NO	-5692
▁ຂົນ	-5693
cript	-5694
ປະຢັດ	-5695
ພະຍົບ	-5696
▁Certs	-5697
ທໍລະມານ	-5698
ແຕ່ລະຄົນ	-5699
ຂອງໂຄງການ	-5700
ຂອງທ່ານແລະ	-5701
ອຸປະກອນການ	-5702
▁ອິນເຕີເນັດ	-5703
▁ໄອ	-5704
▁ຄອງ	-5705
▁ແອວ	-5706
▁Dress	-5707
▁ປະຫລາດ	-5708
▁ຮັບຜິດຊອບ	-5709
▁ນັບຕັ້ງແຕ່	-5710
ຕາຕື່ນຕາຕື່ນ	-5711
",	-5712
to	-5713
don	-5714
ຝັງ	-5715
ື້ອນ	-5716
▁Mold	-5717
▁Ukra	-5718
▁ປິ່ນ	-5719
▁ເງົາ	-5720
ລະເມີດ	-5721
▁Motor	-5722
▁ອາວຸດ	-5723
ຕໍາຫຼວດ	-5724
▁ປະລິມານ	-5725
▁Download	-5726
▁ຄລິດສະຕຽນ	-5727
ລອດ	-5728
ແອວ	-5729
▁ບຸ	-5730
atal	-5731
▁ຂ່າຍ	-5732
ໃກ້ຊິດ	-5733
▁ເຄັ່ງ	-5734
ບໍ່ເຄີຍ	-5735
ເອວ	-5736
ໂຣບ	-5737
ໄກ່	-5738
້ວຍ	-5739
▁sl	-5740
ໄຫມ້	-5741
ຂໍໃຫ້	-5742
▁Mill	-5743
▁Micro	-5744
ຕ້ອງໄດ້	-5745
ສະຫນັບສະຫນຸນ	-5746
EL	-5747
▁MT	-5748
amic	-5749
ທົດແທນ	-5750
ທ່ານຈະ	-5751
ໂຮງຫມໍ	-5752
▁ເຊືອກ	-5753
ທີ່ໄດ້ຮັບ	-5754
ຂອງປະຊາຊົນ	-5755
▁ອັດຕະໂນມັດ	-5756
ເອເລັກໂຕຣນິກ	-5757
GO	-5758
App	-5759
ສິງ	-5760
▁EV	-5761
ຫນ່າຍ	-5762
▁1200	-5763
ໃນປະຈຸບັນ	-5764
▁ຕ່າງໆທີ່	-5765
ການຄົ້ນຄວ້າ	-5766
ຟໍ	-5767
ild	-5768
red	-5769
ບົນ	-5770
ຫ້າມ	-5771
▁ຄົດ	-5772
ຊີແລນ	-5773
ຖົງຢາງ	-5774
ຫຼາຍຄົນ	-5775
ເຖິງການ	-5776
▁ເອກະຊົນ	-5777
▁ອັດຕາການ	-5778
▁້	-5779
-12	-5780
ດັດ	-5781
ຕິນ	-5782
▁wh	-5783
rick	-5784
ວ່ອງ	-5785
ເດີມ	-5786
▁ຜົງ	-5787
ພາກສາ	-5788
▁APEC	-5789
▁Blog	-5790
ຄໍາຕອບ	-5791
ບ່ອນທີ່	-5792
▁ຜົນກະທົບ	-5793
84	-5794
ເຖ	-5795
ແກນ	-5796
▁DN	-5797
azon	-5798
pper	-5799
▁ມາກ	-5800
▁ຊອກຫາ	-5801
▁ຈັດຕັ້ງ	-5802
ໃບອະນຸຍາດ	-5803
▁ເດືອນຕຸລາ	-5804
▁semiconductor	-5805
ຣດ	-5806
-15	-5807
ict	-5808
ຊິງ	-5809
▁Av	-5810
sung	-5811
ໍາມາ	-5812
▁ປົວ	-5813
9001,	-5814
uxury	-5815
ຂອງຄົນ	-5816
ທາງອາກາດ	-5817
ສະພາບການ	-5818
ສະຫນາມບິນ	-5819
ພວກເຮົາສາມາດ	-5820
89	-5821
▁ຈໍ	-5822
rade	-5823
ແຂ້ວ	-5824
▁ແຄມ	-5825
ບັດຕິ	-5826
▁ຊ້ອນ	-5827
▁ຜ່ອນ	-5828
▁ຄໍາຕອບ	-5829
▁ຫນ້າທີ່	-5830
ຫຼີກເວັ້ນ	-5831
ໃບຢັ້ງຢືນ	-5832
ປະສິດທິຜົນ	-5833
ແຟ	-5834
VAC	-5835
aud	-5836
ຂີ່	-5837
▁02	-5838
ສະດີ	-5839
ວມເອົາ	-5840
ຂຸດຄົ້ນ	-5841
ບໍລິເວນ	-5842
ມັດລະວັງ	-5843
ອົກຊີເຈນ	-5844
▁scaffold	-5845
▁ເສື້ອຜ້າ	-5846
▁Holmbygden	-5847
TFE	-5848
gan	-5849
iet	-5850
iff	-5851
ຄົບ	-5852
ກະກຽມ	-5853
ນ້ອຍໆ	-5854
ລັດເຊຍ	-5855
▁ນິຍົມ	-5856
ົມສົມບູນ	-5857
▁Ukraine	-5858
ຈະເຮັດໃຫ້	-5859
▁Deduster	-5860
▁ດັ່ງກ່າວ	-5861
▁ວັດທະນະທໍາ	-5862
con	-5863
ots	-5864
ພອນ	-5865
▁tr	-5866
ອຸ່ນ	-5867
▁Don	-5868
aster	-5869
ທັກສະ	-5870
ົາລົບ	-5871
▁ຕຸ້ນ	-5872
▁ໃຈວ່	-5873
ພຣະອົງ	-5874
ມາເຖິງ	-5875
ອົງປະກອບ	-5876
▁ຕາເວັນອອກ	-5877
ທຸກສິ່ງທຸກຢ່າງ	-5878
uts	-5879
▁44	-5880
▁OD	-5881
ooth	-5882
ster	-5883
ເນັ້ນ	-5884
▁86-5	-5885
ນີ້ໄດ້	-5886
ແລະເປັນ	-5887
ມິລີແມັດ	-5888
ສໍາລັບຜູ້	-5889
BA	-5890
Hz	-5891
oph	-5892
▁Ab	-5893
▁DR	-5894
▁Is	-5895
▁ne	-5896
ເມັດ	-5897
▁Ang	-5898
▁jet	-5899
▁ບຽບ	-5900
▁bott	-5901
▁ການສະ	-5902
ຢູ່ເທິງ	-5903
ສັງເຄາະ	-5904
ສ່ວນຂອງ	-5905
ໃນຊີວິດ	-5906
ສຸ	-5907
ກົມ	-5908
ຫຼີ	-5909
ເບຍ	-5910
ໄຫລ	-5911
ສິລະ	-5912
▁com	-5913
▁res	-5914
▁ດອງ	-5915
▁ສົດ	-5916
ປີນີ້	-5917
ໄປຍັງ	-5918
▁ສະຫລ	-5919
ສົມທົບ	-5920
▁Trans	-5921
▁ແຜນການ	-5922
▁ການຄວບຄຸມ	-5923
ຮົບ	-5924
ເກີ	-5925
▁ຕື	-5926
etro	-5927
ຫົ່ມ	-5928
▁17,	-5929
▁Can	-5930
▁ທູດ	-5931
color	-5932
ເຜິ້ງ	-5933
ກັບທ່ານ	-5934
ຍັງສາມາດ	-5935
ທົ່ວປະເທດ	-5936
ສະແດງຄວາມ	-5937
64	-5938
DA	-5939
nc	-5940
ລອນ	-5941
ຶ້ງ	-5942
▁91	-5943
ເປົ່າ	-5944
▁Square	-5945
ເຢຍລະມັນ	-5946
▁ເຈົ້າກໍ	-5947
▁ເຂົ້າຈີ່	-5948
ແລະເຮັດໃຫ້	-5949
ຣນ	-5950
hua	-5951
osh	-5952
▁ຣາ	-5953
1819	-5954
osph	-5955
▁ອັກ	-5956
ature	-5957
ັງຄານ	-5958
ເພິ່ນ	-5959
▁PTFE	-5960
▁ເຢໂຫວາ	-5961
ການປ້ອງກັນ	-5962
PE	-5963
TM	-5964
TN	-5965
isa	-5966
ຄາວ	-5967
ທືນ	-5968
cent	-5969
ກັບມາ	-5970
▁Cast	-5971
ອັບເດດ	-5972
ບົດຄວາມ	-5973
ເຕັກນິກ	-5974
ເຮັດງານ	-5975
ບັດຕິເຫດ	-5976
ຫຼວງຫຼາຍ	-5977
▁ເຊິ່ງເປັນ	-5978
▁ຢ່າງໃດກໍຕາມ	-5979
ຜະ	-5980
ແຍງ	-5981
ໃຊ້ອ	-5982
▁cor	-5983
▁ທອງ	-5984
clone	-5985
▁Tour	-5986
ປະເຊີນ	-5987
ໂດຍສານ	-5988
▁Video	-5989
▁ຮ່າໂນ້ຍ	-5990
ຢູ່ທີ່ນີ້	-5991
▁ຂະຫນາດຂອງ	-5992
▁ຫນ້າທາງການ	-5993
SP	-5994
★★	-5995
ati	-5996
ຫາລ	-5997
▁Cap	-5998
▁ນາມ	-5999
ພະຈິກ	-6000
▁Java	-6001
▁Serv	-6002
▁Beach	-6003
ຕົ້ນໄມ້	-6004
ເຊື່ອວ່າ	-6005
ແກ້ໄຂບັນຫາ	-6006
203	-6007
▁El	-6008
ຊຶ່ງ	-6009
ຫນູນ	-6010
ໂທຫາ	-6011
ສະທ້ອນ	-6012
▁ປັນຍາ	-6013
ທີ່ເຮັດ	-6014
ວັດທະນາ	-6015
ym	-6016
AMI	-6017
amb	-6018
ຜັນ	-6019
ເປນ	-6020
▁AM	-6021
ເອັນ	-6022
▁125	-6023
▁One	-6024
right	-6025
cooter	-6026
roatia	-6027
ທົນທານ	-6028
ໂດຍໃຊ້	-6029
ຍີ່ປຸ່ນ	-6030
ຖ່ານຫີນ	-6031
▁ສັນຍານ	-6032
▁Polyester	-6033
na	-6034
າມາ	-6035
▁CF	-6036
▁HP	-6037
.0.2	-6038
reak	-6039
▁Day	-6040
▁ເນຍ	-6041
▁ອາຊີ	-6042
ຮ່າໂນ້ຍ	-6043
▁ຄັ້ງທີ	-6044
▁ຊ່ຽວຊານ	-6045
▁Copyshop	-6046
▁ແຕ່ລະຄົນ	-6047
▁ສະບັບເລກທີ	-6048
▁ໃນປັດຈຸບັນ	-6049
ດຸນ	-6050
ສືກ	-6051
▁At	-6052
▁ກູ	-6053
ຫນາວ	-6054
▁Key	-6055
▁ຂີ່	-6056
▁ງຽບ	-6057
▁ພົວ	-6058
▁ໄຂ່	-6059
ອາການ	-6060
ໍາລອງ	-6061
▁ຖ່ານ	-6062
▁ປົ່ງ	-6063
▁ຫມຸດ	-6064
ຍີ່ຫໍ້	-6065
ປະທັບໃຈ	-6066
ເດັກຍິງ	-6067
▁Double	-6068
▁ຂອງການ	-6069
▁ຄວາມຫນາ	-6070
▁ບ່ອນທີ່	-6071
▁ບໍລິສຸດ	-6072
▁ນອກຈາກນີ້	-6073
rag	-6074
ຈອດ	-6075
▁Fo	-6076
▁450	-6077
▁Pal	-6078
▁ຈູງ	-6079
oller	-6080
▁ພາລະ	-6081
▁ມະຫາ	-6082
ລາວໄດ້	-6083
ແຈກຢາຍ	-6084
▁ໂຍບາຍ	-6085
ອົບພະຍົບ	-6086
າວິສາຫະກິດ	-6087
▁ເພີ່ມຂຶ້ນ	-6088
82	-6089
SD	-6090
▁3.	-6091
▁4,	-6092
▁ຫູ	-6093
ໄວວາ	-6094
▁Bra	-6095
▁Inc	-6096
overs	-6097
ຈະນໍາ	-6098
ເຊົ່າ	-6099
ໃຊ້ໄດ້	-6100
ໄປບ່ອນ	-6101
▁ກະດູກ	-6102
▁Design	-6103
▁ຢັ້ງຢືນ	-6104
ເປັນທາງການ	-6105
▁ເອເລັກໂຕຣນິກ	-6106
KW	-6107
ບຸ	-6108
113	-6109
itt	-6110
ແກ້	-6111
▁TT	-6112
▁ro	-6113
▁THH	-6114
▁ພັບ	-6115
ໃນທາງ	-6116
▁ໂນ້ມ	-6117
ໄດ້ຍິນ	-6118
▁10000	-6119
ທັນສະໄຫມ	-6120
ການຊໍາລະເງິນ	-6121
▁ຕິດຕໍ່ຕອນນີ້	-6122
ເຫມ	-6123
ific	-6124
ຄ້ານ	-6125
ໄຟລ໌	-6126
ບໍ່ດີ	-6127
ຜ່າຕັດ	-6128
▁Whats	-6129
▁width	-6130
ວິທີທີ່	-6131
▁Middle	-6132
▁ເຈົ້າມີ	-6133
ບໍ່ພຽງແຕ່	-6134
ມີສ່ວນຮ່ວມ	-6135
755	-6136
rum	-6137
urn	-6138
▁MP	-6139
▁ມໍ	-6140
▁Ref	-6141
ຊີ້ຂາດ	-6142
▁ມີຄ່າ	-6143
ດ້ວຍຄວາມ	-6144
▁Samsung	-6145
ພົວພັນກັບ	-6146
▁Bulgaria	-6147
ລະຫວ່າງປະເທດ	-6148
ara	-6149
ize	-6150
ola	-6151
rib	-6152
▁7,	-6153
▁9:	-6154
▁ປາຍ	-6155
ຍາບັນ	-6156
ລໍຖ້າ	-6157
▁ທ່ຽວ	-6158
ເຫັນໃຈ	-6159
ກໍາເນີດ	-6160
ເຂົ້າໃນ	-6161
▁ແບບແຜນ	-6162
▁ເຫຼົ່ານີ້	-6163
▁ຖະຫນົນຫົນທາງ	-6164
ij	-6165
ka	-6166
ui	-6167
800	-6168
ces	-6169
ere	-6170
▁CR	-6171
▁oh	-6172
Main	-6173
alax	-6174
rica	-6175
▁ປຽບ	-6176
ລິນຍາ	-6177
▁trans	-6178
▁Amazon	-6179
▁Single	-6180
▁Software	-6181
▁ກ້າວຫນ້າ	-6182
▁ການປິ່ນປົວ	-6183
ກ໊	-6184
uri	-6185
iant	-6186
ince	-6187
ໂນ້ມ	-6188
▁Har	-6189
alvan	-6190
▁FAMI	-6191
▁ຄຸ້ມ	-6192
ແບບນີ້	-6193
ຫຼ້າສຸດ	-6194
▁ຄວບຄຸມ	-6195
ເທັກໂນໂລຢີ	-6196
gor	-6197
ຊະນ	-6198
ຣິສ	-6199
ລ່າ	-6200
▁66	-6201
9002	-6202
ness	-6203
ປ່ຽງ	-6204
▁1.5	-6205
▁ສາກ	-6206
▁ເກີບ	-6207
ພົບກັບ	-6208
▁https	-6209
▁ພາຍໃນ	-6210
▁ສື່ສານ	-6211
▁ຄວາມທຸກ	-6212
ຕັ້ງຢູ່ໃນ	-6213
▁Facebook	-6214
▁ເດືອນມິຖຸນາ	-6215
ຂໍ້ມູນເພີ່ມເຕີມ	-6216
ວກະ	-6217
▁43	-6218
▁6,	-6219
▁SK	-6220
▁Cle	-6221
▁ຄັດ	-6222
▁ອຶດ	-6223
▁ຫລົດ	-6224
▁ມັນໄດ້	-6225
▁ແຮງດັນ	-6226
▁ໂຄງສ້າງ	-6227
ການກວດສອບ	-6228
▁ກ່ອນຫນ້ານີ້	-6229
▁cryptocurrency	-6230
oz	-6231
ມຸມ	-6232
▁49	-6233
▁99	-6234
▁ຊິງ	-6235
ມັກຈະ	-6236
▁ບໍ່ໄດ້	-6237
▁Machinery	-6238
▁ຈິນຕະນາການ	-6239
▁ສະແດງໃຫ້ເຫັນ	-6240
kw	-6241
emb	-6242
ett	-6243
▁51	-6244
▁RF	-6245
▁ວໍ	-6246
▁ກີດ	-6247
ີດີໂອ	-6248
ແນໃສ່	-6249
▁ກິ່ນ	-6250
ວັດແທກ	-6251
ສ້າງຂຶ້ນ	-6252
QS	-6253
au	-6254
ໂຮມ	-6255
ພໍໃຈ	-6256
▁Dig	-6257
ປະສາດ	-6258
ປະຫຍັດ	-6259
ວ່ອງໄວ	-6260
ແມງໄມ້	-6261
▁Group	-6262
ໄດ້ເຫັນ	-6263
ເລືອກເອົາ	-6264
▁ຫມັ້ນຄົງ	-6265
ເຮັດງານທໍາ	-6266
▁ການປະຕິບັດ	-6267
ທີ່ມີຄຸນນະພາບສູງ	-6268
%.	-6269
IA	-6270
ຮອຍ	-6271
▁JW	-6272
▁as	-6273
aper	-6274
olis	-6275
▁RFC	-6276
▁ຈັງ	-6277
▁ຝັງ	-6278
ເຄັ່ງ	-6279
▁ເສີນ	-6280
▁ອາລົມ	-6281
Croatia	-6282
▁ຜູ້ຊາຍ	-6283
▁ສະທ້ອນ	-6284
▁ອອກແບບ	-6285
ກົດລະບຽບ	-6286
ພຶດຕິກໍາ	-6287
▁ປະເທດຈີນ	-6288
▁ປ່ອງຢ້ຽມ	-6289
▁ມັນສາມາດ	-6290
▁ຄວາມກົດດັນ	-6291
SM	-6292
ເມນ	-6293
▁2:	-6294
▁8:	-6295
ouch	-6296
▁ປົດ	-6297
ystem	-6298
▁ທໍານ	-6299
▁ເນັດ	-6300
▁Stand	-6301
▁ອາຊີບ	-6302
▁ດຽວນີ້	-6303
▁ພາຍໃຕ້	-6304
ນັ້ນແມ່ນ	-6305
ການທົດລອງ	-6306
ລາຍງານວ່າ	-6307
ອົກເຫັນໃຈ	-6308
▁ກ່ອນອື່ນ	-6309
▁ໃນລະຫວ່າງ	-6310
▁ໄດ້ກ່າວວ່າ	-6311
▁ຜູ້ອໍານວຍການ	-6312
stR	-6313
▁ST	-6314
▁19,	-6315
▁ຊັດ	-6316
ກິດຈະ	-6317
▁Page	-6318
▁Tube	-6319
▁ປ້າຍ	-6320
ການຂາຍ	-6321
ລາຍໄດ້	-6322
stRider	-6323
ໃນລະດັບ	-6324
▁Africa	-6325
ຕໍ່ໄປນີ້	-6326
ແນ່ໃຈວ່າ	-6327
ກົງກັນຂ້າມ	-6328
ກ່ຽວກັບຄວາມ	-6329
CroatiaCroatia	-6330
ອສ	-6331
▁>>	-6332
▁SP	-6333
▁Jin	-6334
▁ໂຕນ	-6335
ກໍາໄລ	-6336
ໂຄຈອນ	-6337
▁2004	-6338
▁Cook	-6339
▁ເບີກ	-6340
▁ເບີດ	-6341
ຸນເງິນ	-6342
▁Email	-6343
ປະຕິວັດ	-6344
ຢ້ານກົວ	-6345
▁ໂຮງຫມໍ	-6346
ທີ່ມີຢູ່	-6347
ັ່ນສະເທືອນ	-6348
ເຫັນອົກເຫັນໃຈ	-6349
fly	-6350
ບັງ	-6351
▁5:	-6352
▁Opt	-6353
▁ແອນ	-6354
andong	-6355
ທໍານຽມ	-6356
ວົງຈອນ	-6357
ເຂົາມີ	-6358
▁Other	-6359
▁ໂຄສະນາ	-6360
ຢ່າງເຕັມ	-6361
▁ຫນຶ່ງໃນ	-6362
ໄດ້ກ່າວວ່າ	-6363
ຢ່າງຕໍ່ເນື່ອງ	-6364
▁42	-6365
▁Ma	-6366
ສຖານ	-6367
▁380	-6368
▁Pat	-6369
▁Val	-6370
▁ເຕກ	-6371
ຕະການ	-6372
ອິດສະ	-6373
▁Hang	-6374
▁High	-6375
▁Mich	-6376
ຄັ້ງທີ	-6377
ແປພາສາ	-6378
ສອດຄ່ອງ	-6379
້ອງຖ່າຍ	-6380
▁ຕໍາຫຼວດ	-6381
ຕຽງ	-6382
▁46	-6383
aint	-6384
dong	-6385
posh	-6386
▁ຂຸດ	-6387
▁ຄັບ	-6388
▁ຄານ	-6389
ement	-6390
ights	-6391
▁Jack	-6392
▁Apple	-6393
▁ແລະມີ	-6394
ນະສົມບັດ	-6395
ຢາເສບຕິດ	-6396
ກະຕືລືລົ້ນ	-6397
ນັບຕັ້ງແຕ່	-6398
ສະພາບອາກາດໃນ	-6399
ໃຫ້ເຂົາເຈົ້າ	-6400
GB	-6401
.99	-6402
.”—	-6403
Pro	-6404
▁DM	-6405
ພາຍຸ	-6406
▁Int	-6407
▁ມຸສ	-6408
ຕະພາບ	-6409
ປານໃດ	-6410
▁Sand	-6411
▁Custom	-6412
ບັນລະຍາຍ	-6413
▁ເຫລື້ອມ	-6414
ອາດຈະເປັນ	-6415
MO	-6416
za	-6417
ຝັນ	-6418
ແຄນ	-6419
ລ່າງ	-6420
ັນທີ	-6421
▁Rem	-6422
ມີແສງ	-6423
ົາຫຼີ	-6424
▁ເສົາ	-6425
ອົງກອນ	-6426
າງຫນ້າ	-6427
ບໍລິຈາກ	-6428
ຂ້າງເທິງ	-6429
▁ເກົາຫລີ	-6430
ຈະໄດ້ຮັບການ	-6431
HS	-6432
.10	-6433
ສີດ	-6434
▁FA	-6435
▁Roy	-6436
ອກລວງ	-6437
▁blog	-6438
▁Smart	-6439
ພິວເຕີ້	-6440
ເສັ້ນໃຍ	-6441
▁ກະຕຸ້ນ	-6442
▁ຄ້າຍຄື	-6443
▁ບໍາລຸງ	-6444
18191819	-6445
▁ແຂ່ງຂັນ	-6446
▁Products	-6447
ຄວາມເປັນສ່ວນຕົວ	-6448
79	-6449
ls	-6450
▁Lo	-6451
ຫມຶກ	-6452
ຫວານ	-6453
▁mic	-6454
▁ຄຽດ	-6455
ະນາໄມ	-6456
▁Bill	-6457
ຄາສິໂນ	-6458
ຊາຍແດນ	-6459
▁ຢູ່ທີ່	-6460
▁ຂໍຂອບໃຈ	-6461
ເປັນໄປໄດ້	-6462
▁ປະກອບສ່ວນ	-6463
▁ເອົາໃຈໃສ່	-6464
".	-6465
EF	-6466
▁\	-6467
ຟອມ	-6468
ມິນ	-6469
ຕໍ່າ	-6470
▁Fer	-6471
▁ວັກ	-6472
ຂອງສະ	-6473
ເກົ້າ	-6474
▁prop	-6475
ກັບຜູ້	-6476
ສະຖິຕິ	-6477
▁ມຸສລິ	-6478
ປະຈໍາປີ	-6479
ມີຊີວິດ	-6480
▁ຊື່ຂອງ	-6481
▁ທີ່ຖືກ	-6482
▁Shopify	-6483
▁Americas	-6484
ທີ່ບໍ່ແມ່ນ	-6485
▁ການຮັບຮູ້	-6486
71	-6487
EA	-6488
ົານ	-6489
▁AR	-6490
▁Hi	-6491
▁Li	-6492
▁ໄຈ	-6493
▁Vol	-6494
▁ຊໍາ	-6495
ຫຼາຍໆ	-6496
▁with	-6497
ulator	-6498
ສຸກເສີນ	-6499
▁ສະຫມັກ	-6500
ສາສະຫມັກ	-6501
ແມ່ນຫຍັງ	-6502
▁ກະສິກໍາ	-6503
▁ການແກ້ໄຂ	-6504
ຄູ່ຮ່ວມງານ	-6505
ດໍາລົງຊີວິດ	-6506
ພີມ	-6507
ລຸກ	-6508
ແຖວ	-6509
▁160	-6510
▁ດາບ	-6511
ປູເຈຍ	-6512
ັດທະນ	-6513
▁Aria	-6514
▁Hong	-6515
▁yarn	-6516
▁ຍື່ນ	-6517
▁ກາກບອນ	-6518
▁ຂະແຫນງ	-6519
▁ຢືນຢັນ	-6520
ຄົນຫນຶ່ງ	-6521
າກ່ຽວກັບ	-6522
▁Oceania	-6523
ຂອງເຄື່ອງ	-6524
ພວກເຮົາຈະ	-6525
ຢ່າງຫນ້ອຍ	-6526
ຊ່ວຍໃຫ້ທ່ານ	-6527
ດ້ານວິຊາການ	-6528
ໂດຍບໍ່ເສຍຄ່າ	-6529
8,	-6530
IV	-6531
ji	-6532
ລົກ	-6533
ໂມນ	-6534
▁DV	-6535
ເຊົາ	-6536
ໃນສະ	-6537
▁Led	-6538
▁Mai	-6539
▁Ray	-6540
ພິບັດ	-6541
ສິກອນ	-6542
▁Cart	-6543
▁ຄຣິດ	-6544
osphor	-6545
ຂອງເຈົ້າ	-6546
▁ໄດ້ປະກາດ	-6547
xy	-6548
way	-6549
ຝົນ	-6550
ວາວ	-6551
າກະ	-6552
▁Ap	-6553
▁Pu	-6554
mail	-6555
▁can	-6556
ຄິດໄລ່	-6557
▁Slots	-6558
▁tattoo	-6559
▁ທີມງານ	-6560
ຢາວັກຊີນ	-6561
▁cookies	-6562
ເມື່ອທ່ານ	-6563
ໂດຍອີງໃສ່	-6564
▁steering	-6565
▁ຄຸນສົມບັດ	-6566
ຫມາຍຄວາມວ່າ	-6567
pm	-6568
ຕົງ	-6569
ຫມາ	-6570
ແອນ	-6571
▁SH	-6572
ບ່າຍ	-6573
▁Bow	-6574
▁ins	-6575
▁ຄາວ	-6576
▁ແງ່	-6577
▁Solut	-6578
▁ພຽງພໍ	-6579
ຕ້ານທານ	-6580
ປະຊາກອນ	-6581
ປັກຮັກສາ	-6582
ເສື້ອຜ້າ	-6583
ວັດທະນາການ	-6584
ສິ່ງທີ່ທ່ານ	-6585
▁Bu	-6586
▁Ha	-6587
▁kr	-6588
ວິໄຈ	-6589
ຫຍໍ້	-6590
▁Mag	-6591
▁ຊີບ	-6592
ຫລາຍໆ	-6593
▁Comm	-6594
▁ຫມໍ້	-6595
▁ເວທີ	-6596
ແລະນັກ	-6597
ັ່ງກ່າວ	-6598
ແລະທ່ານ	-6599
▁Center	-6600
ຊົນເຜົ່າ	-6601
ຫນັງສືພິມ	-6602
▁ການທົດສອບ	-6603
ທີ່ໄດ້ຮັບການ	-6604
OC	-6605
ຣັບ	-6606
ອີ້	-6607
▁PH	-6608
▁op	-6609
ຟ້ອງ	-6610
▁ຖັງ	-6611
▁Arch	-6612
▁ຊີວະ	-6613
▁ໂຫຼດ	-6614
▁Excel	-6615
▁ມາສູ່	-6616
▁ລະບຽບ	-6617
ສັດລ້ຽງ	-6618
ເລື້ອຍໆ	-6619
ໂປຣແກຣມ	-6620
▁ຮັ່ງມີ	-6621
▁ພິທີການ	-6622
alvanized	-6623
▁ເຖິງຢ່າງ	-6624
ແມ່ນມີຄວາມ	-6625
▁ຫໍພິພິທະພັນ	-6626
▁ກ່ອນອື່ນຫມົດ	-6627
QL	-6628
▁UN	-6629
▁mod	-6630
▁ຕຶງ	-6631
▁ເຢຍ	-6632
usher	-6633
▁Prov	-6634
ບໍ່ໃຫ້	-6635
▁sales	-6636
▁ຄູ່ມື	-6637
▁ສູງສຸດ	-6638
ອາຫານແລະ	-6639
▁ທໍາມະດາ	-6640
▁ລາຄາຖືກ	-6641
oundation	-6642
ປະຕິບັດງານ	-6643
້ອງຖ່າຍຮູບ	-6644
UN	-6645
ms	-6646
vc	-6647
pen	-6648
ລອຍ	-6649
ລາງ	-6650
eter	-6651
form	-6652
onic	-6653
ເບີກ	-6654
ເປົາ	-6655
ກ້ວາງ	-6656
ຂອງຈີນ	-6657
ຄໍາສັບ	-6658
ແຮງດັນ	-6659
່າວວ່າ	-6660
ຕາງຫນ້າ	-6661
utterfly	-6662
ສະແດງອອກ	-6663
▁Devices	-6664
▁ເປົ້າຫມາຍ	-6665
.’	-6666
63	-6667
TT	-6668
ດົກ	-6669
ຜັງ	-6670
ລີນ	-6671
▁4.	-6672
ippi	-6673
ives	-6674
▁360	-6675
▁FSX	-6676
▁Lim	-6677
▁ກະທ	-6678
▁ໂງ່	-6679
Press	-6680
ຕະຫລອດ	-6681
▁Cheat	-6682
issippi	-6683
ຄາດຫວັງ	-6684
ສິລະປິນ	-6685
ເປັນຄົນ	-6686
ເປີເຊັນ	-6687
ໂທລະພາບ	-6688
▁spring	-6689
▁ກັນດານ	-6690
▁bitcoin	-6691
ເພີ່ມຂື້ນ	-6692
ເພື່ອສ້າງ	-6693
▁ການຝຶກອົບຮົມ	-6694
ago	-6695
ຣັສ	-6696
▁3:	-6697
▁11%	-6698
▁350	-6699
▁Jun	-6700
▁Rot	-6701
▁ທະວີ	-6702
▁ວິຊາ	-6703
ບໍ່ແຮ່	-6704
ໍລະດົກ	-6705
▁Linux	-6706
ຫນ້າຂອງ	-6707
▁Univers	-6708
▁ທ່ານຮອງ	-6709
ສ່ວນປະກອບ	-6710
ທັງຫມົດຂອງ	-6711
ຂໍ້ມູນກ່ຽວກັບ	-6712
ເຄື່ອງເຟີນີເຈີ	-6713
61	-6714
ata	-6715
led	-6716
ຊວນ	-6717
▁BS	-6718
3456	-6719
gram	-6720
ible	-6721
ປຸ໋ຍ	-6722
▁ຂວາ	-6723
ຕັ້ງຄ່າ	-6724
ສິ່ງນີ້	-6725
ໂຄງລ່າງ	-6726
ໃຫ້ຄວາມ	-6727
endering	-6728
ເບິ່ງແຍງ	-6729
▁Fitting	-6730
▁ແຕກຕ່າງ	-6731
ການເຕີບໂຕ	-6732
43	-6733
VN	-6734
▁(0	-6735
ສະນີ	-6736
ຫຸ້ນ	-6737
▁Arm	-6738
▁Fly	-6739
ໄປທີ່	-6740
▁Case	-6741
▁Char	-6742
▁Type	-6743
▁ຄະດີ	-6744
ຈໍາລອງ	-6745
ໃນຫ້ອງ	-6746
▁ອາການ	-6747
▁ເຄືອບ	-6748
ບໍລິສຸດ	-6749
ປະຊາຄົມ	-6750
▁ປຽບທຽບ	-6751
ຮ່ວມມືກັບ	-6752
ຫມູ່ເພື່ອນ	-6753
▁Stainless	-6754
15)	-6755
ົວກ	-6756
້ຽນ	-6757
▁RN	-6758
▁or	-6759
▁ຕຸ	-6760
ເກີບ	-6761
ແຫຼວ	-6762
▁Ber	-6763
▁ຟຸດ	-6764
veyor	-6765
ລວມມີ	-6766
ສີຟ້າ	-6767
▁Town	-6768
▁ຮ້າງ	-6769
ກາງຄືນ	-6770
ີ້ແມ່ນ	-6771
ໃຫ້ຜູ້	-6772
▁ອະດີດ	-6773
▁Golden	-6774
▁ອັບເດດ	-6775
interest	-6776
▁ທົ່ວໂລກ	-6777
ທາງສັງຄົມ	-6778
ມີຄວາມສຸກ	-6779
-9	-6780
73	-6781
MM	-6782
ມໍ	-6783
-13	-6784
ION	-6785
ແຄມ	-6786
▁By	-6787
9001	-6788
oney	-6789
ring	-6790
glass	-6791
ພະຫັດ	-6792
ມວນຜົນ	-6793
ສັບສົນ	-6794
ສືບສວນ	-6795
▁ລະອຽດ	-6796
ຂອງເຂົາ	-6797
ອີກຄັ້ງ	-6798
ຈໍາຫນ່າຍ	-6799
▁ນອກຈາກນັ້ນ	-6800
▁ພວກເຮົາມີຄວາມ	-6801
600	-6802
▁PL	-6803
▁Blu	-6804
▁ພັງ	-6805
▁Pump	-6806
▁Seal	-6807
າກຫຼາຍ	-6808
▁ໂຄສົກ	-6809
ຄົນເຈັບ	-6810
ຜ່ານການ	-6811
ສິ່ງເສດ	-6812
▁ໃນເວລາ	-6813
ທີ່ຫນ້າສົນໃຈ	-6814
52	-6815
CE	-6816
unn	-6817
ກອບ	-6818
ດົມ	-6819
ຫວນ	-6820
▁(2	-6821
▁03	-6822
▁MB	-6823
▁ແຟ	-6824
▁Bay	-6825
▁Dub	-6826
▁Xin	-6827
▁ຈອງ	-6828
▁ເບີ	-6829
▁Cent	-6830
▁ຫມວດ	-6831
▁ແກ່ນ	-6832
verter	-6833
ກັນແລະ	-6834
ຮ້ອງຂໍ	-6835
▁ໃຫ້ການ	-6836
ທີ່ດີກວ່າ	-6837
▁ຂະບວນການ	-6838
ການເລືອກຕັ້ງ	-6839
42	-6840
58	-6841
ລູ	-6842
.16	-6843
▁52	-6844
lock	-6845
view	-6846
ກັ້ນ	-6847
ຕ່ອງ	-6848
ເຈລະ	-6849
▁ຢືມ	-6850
▁ລັນ	-6851
▁ໄຕ່	-6852
ອະດີດ	-6853
▁ທະເລ	-6854
▁ຫມັກ	-6855
▁ເຍີ້	-6856
eleton	-6857
ຍັງໄດ້	-6858
▁Ideas	-6859
ກວມເອົາ	-6860
▁ສະມາຄົມ	-6861
ທີ່ຕ້ອງການ	-6862
osm	-6863
ຫັກ	-6864
▁AW	-6865
▁II	-6866
▁Od	-6867
▁UK	-6868
char	-6869
▁web	-6870
▁ກົມ	-6871
▁ຫົນ	-6872
etate	-6873
ພັນທະ	-6874
▁Hand	-6875
▁ສະຫຼ	-6876
ຢູ່ກັບ	-6877
▁Basel	-6878
▁ຈັດການ	-6879
ຢ່າງໄວວາ	-6880
▁ພາສາລາວ	-6881
▁ນອກເຫນືອ	-6882
▁ອົດສະຕາລີ	-6883
ຜົນກະທົບຕໍ່	-6884
ສະຫະປະຊາຊາດ	-6885
▁ການກໍ່ສ້າງ	-6886
▁ແນວຄວາມຄິດ	-6887
ຖ່	-6888
▁AU	-6889
iver	-6890
້ວານ	-6891
▁0.0	-6892
▁Ass	-6893
▁Pin	-6894
▁ຊັກ	-6895
▁ຍິ້ມ	-6896
▁ເຍາະ	-6897
ໃຫ້ນັກ	-6898
▁ແລະໃນ	-6899
ຄັ້ງນີ້	-6900
ພຣະເຈົ້າ	-6901
▁ນັກສ້າງ	-6902
▁ເຂົ້າໃຈ	-6903
▁Shandong	-6904
1)	-6905
PR	-6906
TS	-6907
▁Cu	-6908
ross	-6909
ດ່ວນ	-6910
ຫະນະ	-6911
▁Gen	-6912
▁ປຸມ	-6913
▁ຜົມ	-6914
ເຊືອກ	-6915
▁ປຸ່ມ	-6916
▁ສາມີ	-6917
▁ເມີນ	-6918
ການຮ້າຍ	-6919
ປລາສຕິກ	-6920
ເວລານັ້ນ	-6921
▁ມື້ຫນຶ່ງ	-6922
▁ສະພາບການ	-6923
ຄອມພິວເຕີ້	-6924
?”	-6925
ຫາດ	-6926
ົ່ນ	-6927
▁1/	-6928
▁41	-6929
▁Ba	-6930
▁TR	-6931
isco	-6932
unch	-6933
▁King	-6934
ຈະແຈ້ງ	-6935
ດອກໄມ້	-6936
ສະຫວັນ	-6937
▁Count	-6938
▁Zhong	-6939
▁ພຣະຄໍາ	-6940
▁ສະຫມອງ	-6941
ຈະໄດ້ຮັບ	-6942
ອິດທິພົນ	-6943
ຫາພວກເຮົາ	-6944
ເຖິງແມ່ນວ່າ	-6945
KG	-6946
ha	-6947
iy	-6948
ໂຟ	-6949
ຊຶມ	-6950
ເຄຍ	-6951
▁IN	-6952
▁ປິ	-6953
ຊັ່ນ	-6954
ໂປແກ	-6955
▁ທະນ	-6956
▁ມົມ	-6957
ຄຸນະພາບ	-6958
▁ອົດທົນ	-6959
ການປົກປ້ອງ	-6960
ເປັນເລື່ອງ	-6961
▁Pinterest	-6962
par	-6963
▁54	-6964
▁OS	-6965
ມກາງ	-6966
ລັອກ	-6967
ເຜັດ	-6968
▁4.0	-6969
▁Mel	-6970
▁PET	-6971
▁ເອກ	-6972
ທັນວາ	-6973
▁ບັນຍ	-6974
▁ຫວອດ	-6975
▁Cloud	-6976
▁ຂົ່ມຂ	-6977
ຫຼັກການ	-6978
▁ທ່ານຫມໍ	-6979
ບໍ່ມີຄວາມ	-6980
▁ສໍານັກງານ	-6981
ເປັນເຈົ້າຂອງ	-6982
ຄວາມຄິດສ້າງສັນ	-6983
CO	-6984
PA	-6985
gy	-6986
ພຸດ	-6987
▁My	-6988
▁Fre	-6989
ພະຍານ	-6990
▁ສາຂາ	-6991
rading	-6992
▁Gener	-6993
▁watts	-6994
▁System	-6995
ເຖິງຄວາມ	-6996
▁Solenoid	-6997
ກ່ຽວຂ້ອງກັບ	-6998
,,	-6999
▁ໍ	-7000
ິລິ	-7001
ທ້າວ	-7002
▁190	-7003
ຕັ້ງໃຈ	-7004
ພາກໃຕ້	-7005
ສັກສິດ	-7006
▁ຄະແນນ	-7007
ຕ່ອງໂສ້	-7008
ພັກຜ່ອນ	-7009
▁ລາຍຊື່	-7010
▁ເຟສບຸກ	-7011
ການພົວພັນ	-7012
ທີ່ກໍາລັງ	-7013
ບົດລາຍງານ	-7014
▁ຕໍາແຫນ່ງ	-7015
▁Foundation	-7016
ຕ໌	-7017
ອຟ	-7018
cer	-7019
eta	-7020
oug	-7021
pot	-7022
udd	-7023
▁09	-7024
▁9,	-7025
ປຸ່ມ	-7026
▁(1)	-7027
▁Gas	-7028
alaxy	-7029
▁Prec	-7030
ພາຍນອກ	-7031
ື້ນັ້ນ	-7032
ອຸດສາຫະ	-7033
▁Christ	-7034
▁ມົນທົນ	-7035
ຜິດປົກກະຕິ	-7036
ການເຊື່ອມຕໍ່	-7037
ທີ່ຫນ້າຕື່ນເຕັ້ນ	-7038
UB	-7039
ໂຈ	-7040
ທອງ	-7041
ຜັກ	-7042
ຫິວ	-7043
▁TS	-7044
ally	-7045
iler	-7046
ອ້າຍ	-7047
▁Sou	-7048
▁ຄຽງ	-7049
store	-7050
ເນເຊຍ	-7051
etroit	-7052
ສອບສວນ	-7053
▁ພົນລະ	-7054
ໃນແຕ່ລະ	-7055
▁ວິທະຍຸ	-7056
ຈັນຍາບັນ	-7057
ນຸ່ງຫົ່ມ	-7058
ບັນດານັກ	-7059
ໂຮ່ຈີມິນ	-7060
ຄູ່ຜົວເມຍ	-7061
ສໍາລັບທ່ານ	-7062
ຕິດຕໍ່ຕອນນີ້	-7063
MA	-7064
ze	-7065
ags	-7066
ano	-7067
ລືມ	-7068
▁5,	-7069
guan	-7070
ຖ້ວມ	-7071
ລ່ວງ	-7072
ຫນົມ	-7073
ເພນີ	-7074
▁ປຸກ	-7075
icken	-7076
▁Chat	-7077
▁Mult	-7078
▁Part	-7079
▁ທ່ອງ	-7080
▁ຮຸ່ງ	-7081
ທິດທາງ	-7082
ສະຖານີ	-7083
ອັງຄານ	-7084
▁ທິພົນ	-7085
▁ມັນມີ	-7086
ພຶດສະພາ	-7087
ເພາະວ່າ	-7088
ການແກ້ໄຂ	-7089
ປະມວນຜົນ	-7090
ຢູ່ໃນການ	-7091
ສ້າງຂື້ນ	-7092
▁ຍຸຕິທໍາ	-7093
ການປົກຄອງ	-7094
ການເດີນທາງ	-7095
▁ໂດຍທົ່ວໄປ	-7096
ປິກ	-7097
▁(4	-7098
▁72	-7099
▁ໂຢ	-7100
ແຕ່ວ	-7101
steel	-7102
ຂອງປີ	-7103
ພະແນກ	-7104
▁Iron	-7105
▁ມະຕະ	-7106
ປົກຄອງ	-7107
ຂ້ອຍໄດ້	-7108
ຈັດຂຶ້ນ	-7109
ຫມັ້ນໃຈ	-7110
ເຫັນໄດ້	-7111
ເອກະຊົນ	-7112
▁ບາງຄົນ	-7113
ຊົນນະບົດ	-7114
▁ຕ້ອນຮັບ	-7115
▁ຄວາມຫມາຍ	-7116
▁ນັກສຶກສາ	-7117
ທີ່ຈໍາເປັນ	-7118
ພາສາອັງກິດ	-7119
▁ຄວາມປອດໄພ	-7120
▁ນັກຄົ້ນຄວ້າ	-7121
ແລະການບໍລິການ	-7122
ca	-7123
ກູ	-7124
180	-7125
ney	-7126
ຈູງ	-7127
ຟິກ	-7128
illa	-7129
ກະແສ	-7130
ຈົ່ງ	-7131
ລາວກ	-7132
ເສີດ	-7133
ແກ່ນ	-7134
▁ຍຸກ	-7135
▁ບາກ	-7136
eller	-7137
ength	-7138
ກຸມພາ	-7139
ສີດໍາ	-7140
▁ITIL	-7141
▁ເມີດ	-7142
ໃກ້ກັບ	-7143
▁Theme	-7144
ສະຫະພາບ	-7145
ອະນຸມັດ	-7146
▁100000	-7147
▁Flight	-7148
▁ຕ່າງປະ	-7149
▁acrylic	-7150
ຂໍ້ຕົກລົງ	-7151
▁Province	-7152
ການກໍ່ສ້າງ	-7153
▁ບົດລາຍງານ	-7154
ລົງຄະແນນສຽງ	-7155
ສາມາດໄດ້ຮັບການ	-7156
.)	-7157
ິມ	-7158
bit	-7159
ກວນ	-7160
ບວກ	-7161
ປູກ	-7162
ແລງ	-7163
▁($	-7164
▁TM	-7165
heel	-7166
obal	-7167
▁ທຽມ	-7168
▁ມຸມ	-7169
▁ວົນ	-7170
ທິປະໄຕ	-7171
ພັດທະນ	-7172
▁2018,	-7173
▁Dubai	-7174
▁Inter	-7175
ຂຶ້ນກັບ	-7176
ພ້ອມກັບ	-7177
ເຂົ້າໄປ	-7178
ເປັນນັກ	-7179
ໂດເນເຊຍ	-7180
້ອນຂ້າງ	-7181
ຫຼາກຫຼາຍ	-7182
▁Digital	-7183
ທີ່ຈະເຮັດ	-7184
ຄວາມເສຍຫາຍ	-7185
▁ແລະພວກເຮົາ	-7186
▁ແບບແຜນທຸລະກິດ	-7187
ປະສົບຜົນສໍາເລັດ	-7188
▁ເສັ້ນຜ່າສູນກາງ	-7189
▁ແລະຫຼັງຈາກນັ້ນ	-7190
ler	-7191
ຄາບ	-7192
▁08	-7193
▁CC	-7194
▁MS	-7195
▁TC	-7196
▁ຄໍ	-7197
ຸດທິ	-7198
▁pet	-7199
antom	-7200
ethyl	-7201
▁(200	-7202
apolis	-7203
ຂົ່ມຂືນ	-7204
▁Cheats	-7205
ຄະນິດສາດ	-7206
▁Cyclone	-7207
ໃນປະເທດຈີນ	-7208
▁ຄວາມກວ້າງ	-7209
▁ເຈົ້າຈຶ່ງ	-7210
ສິ່ງເສດເຫຼືອ	-7211
▁ນ້ໍາຫນັກແມ່ນ	-7212
ike	-7213
▁CB	-7214
▁HB	-7215
▁ບີ	-7216
ards	-7217
here	-7218
udio	-7219
ໍໂມນ	-7220
▁(1,	-7221
▁ຢູ່ນ	-7222
▁ແຄ້ນ	-7223
ການປັບ	-7224
ຈະຕ້ອງ	-7225
ສົມຜົນ	-7226
▁Solom	-7227
▁ລົດຖີບ	-7228
▁ເອີຣົບ	-7229
▁ເຮົາຈະ	-7230
ການພະນັນ	-7231
ຫາວິທະຍາ	-7232
▁Powered	-7233
ເຄື່ອງບິນ	-7234
ພາຍໃນປະເທດ	-7235
▁unlimited	-7236
▁ເພີ່ມເຕີມ	-7237
ສາມາດເຮັດໄດ້	-7238
▁ເຊັ່ນດຽວກັນກັບ	-7239
7,	-7240
OD	-7241
▁?	-7242
riv	-7243
▁Ok	-7244
▁1.0	-7245
▁700	-7246
▁Ult	-7247
▁van	-7248
ທາລົກ	-7249
ວະກາດ	-7250
▁ເສລີ	-7251
▁ເຫັງ	-7252
ສໍາພັດ	-7253
▁Jiang	-7254
ຫ່າງຈາກ	-7255
ຮ່ວມກັບ	-7256
ປະກອບການ	-7257
▁ປະຕິເສດ	-7258
ແລະແມ່ຍິງ	-7259
ການຂົນສົ່ງ	-7260
UM	-7261
ci	-7262
ky	-7263
ye	-7264
aki	-7265
▁ຣີ	-7266
atin	-7267
ທ້ອງ	-7268
ລະຍາ	-7269
ອານຸ	-7270
ແຫວງ	-7271
▁10%	-7272
▁20,	-7273
▁24,	-7274
▁Jan	-7275
▁Rad	-7276
▁ພິນ	-7277
▁ວັງ	-7278
aming	-7279
icker	-7280
thank	-7281
ພີມມາ	-7282
ມັງກອນ	-7283
ສູງຂອງ	-7284
ສູງແລະ	-7285
ໄບເບິນ	-7286
ຖ່າຍຮູບ	-7287
ສະຫະພັນ	-7288
inecolor	-7289
ທີ່ສຸດໃນ	-7290
ມັດທະຍົມ	-7291
ຫນູນຊ່ວຍ	-7292
▁ການສ້າງ	-7293
▁ສະຖາບັນ	-7294
▁ສະລັອດຕິງ	-7295
ສ່ວນຫນຶ່ງຂອງ	-7296
ທີ່ຂ້າພະເຈົ້າ	-7297
▁ຄວາມອາດສາມາດ	-7298
62	-7299
91	-7300
su	-7301
ກະທ	-7302
ຕຶງ	-7303
ໂຊກ	-7304
▁68	-7305
▁NY	-7306
▁TH	-7307
ayer	-7308
ເຊີງ	-7309
ກັນຍາ	-7310
▁ລ່ຽງ	-7311
▁ສົນໃຈ	-7312
ເນື້ອຫາ	-7313
ເວລາດົນ	-7314
ກໍ່ການຮ້າຍ	-7315
ອາສາສະຫມັກ	-7316
ເທື່ອຫນຶ່ງ	-7317
▁WordPress	-7318
ທີ່ຈະເຮັດໃຫ້	-7319
ສະແດງໃຫ້ເຫັນວ່າ	-7320
ຫູ	-7321
ants	-7322
ປ້າຍ	-7323
▁ສູບ	-7324
ມະນາຄ	-7325
▁ບິດາ	-7326
ມະນາຄົມ	-7327
ຢູ່ບ່ອນ	-7328
ອາຟຣິກາ	-7329
▁123456	-7330
▁ສໍານຶກ	-7331
ເຂັມເຂັມ	-7332
▁Chicken	-7333
ສໍານັກງານ	-7334
ເລິກເຊິ່ງ	-7335
▁Portable	-7336
▁WhatsApp	-7337
▁ເກົ້າອີ້	-7338
▁stainless	-7339
▁ວິສາຫະກິດ	-7340
▁ກຸ່ມນະໂຍບາຍ	-7341
Co	-7342
MS	-7343
ຄີ	-7344
ACK	-7345
Pal	-7346
ແມນ	-7347
▁63	-7348
▁Kn	-7349
▁sw	-7350
▁ໃຫ	-7351
ສ້ອມ	-7352
▁Tim	-7353
▁per	-7354
ກອງທຶນ	-7355
ຫ່າງໄກ	-7356
ໄຊຊະນະ	-7357
▁Mount	-7358
▁ປະດິດ	-7359
ທິດສະດີ	-7360
ສອບເສັງ	-7361
ຫຼັກຖານ	-7362
▁ນາງໄດ້	-7363
ຈົດທະບຽນ	-7364
ຂອງຫວຽດນາມ	-7365
▁ຕໍ່ໄປນີ້ແມ່ນ	-7366
LE	-7367
OG	-7368
mg	-7369
oop	-7370
oor	-7371
ດວງ	-7372
▁4:	-7373
▁ຜີ	-7374
▁ລຸ	-7375
ager	-7376
ຮົ້ວ	-7377
ເຮັງ	-7378
▁Mal	-7379
▁ຍອດ	-7380
ການພິມ	-7381
ຜູ້ຍິງ	-7382
ເຫັນດີ	-7383
▁block	-7384
▁ປະພຶດ	-7385
ເອກະລັກ	-7386
▁Alumin	-7387
▁lovers	-7388
▁ມື້ນີ້	-7389
▁ສືບຕໍ່	-7390
ຕິດເຊື້ອ	-7391
ເຕີບໃຫຍ່	-7392
▁ຂຽນເມື່ອ	-7393
▁ຫມາກກ້ຽງ	-7394
ເບິ່ງຄືວ່າ	-7395
▁ໃຫ້ຮູ້ວ່າ	-7396
ຄວາມຄິດເຫັນ	-7397
bl	-7398
een	-7399
▁DJ	-7400
▁Bar	-7401
ocket	-7402
ລະຄອນ	-7403
▁Paul	-7404
▁ດິຈິ	-7405
▁ແຍ້ງ	-7406
ໂຕ້ຖຽງ	-7407
▁inter	-7408
▁ປະກົດ	-7409
▁ຄົນທີ່	-7410
ເດັກທາລົກ	-7411
ໃນມື້ອື່ນ	-7412
▁ເຢຍລະມັນ	-7413
ຫໍພິພິທະພັນ	-7414
▁ທີ່ໃຊ້ເວລາ	-7415
ຼມ	-7416
ams	-7417
າວຸ	-7418
▁sm	-7419
TNHH	-7420
ອະນຸ	-7421
▁ຜັກ	-7422
otrop	-7423
▁Plus	-7424
▁ພົ້ນ	-7425
▁ຫວານ	-7426
ລົງນາມ	-7427
ສະນັ້ນ	-7428
ສົນທະນ	-7429
ກຽມພ້ອມ	-7430
ຫຼັກສູດ	-7431
▁ແຜນຜັງ	-7432
ປາດຖະຫນາ	-7433
▁ປາຖະຫນາ	-7434
ສາທາລະນະສຸກ	-7435
ຫຸ່ນຍົນຫຸ່ນຍົນ	-7436
▁ບັນຊີຜະລິດຕະພັນ	-7437
bs	-7438
ESS	-7439
ຢືມ	-7440
ວາດ	-7441
ເຄນ	-7442
▁76	-7443
▁Ev	-7444
burg	-7445
▁ທໍ້	-7446
▁mold	-7447
▁ຂວັນ	-7448
▁ຫຼຽນ	-7449
▁ແມ່ຕູ້	-7450
osphorus	-7451
▁ຕໍ່ຕ້ານ	-7452
ຮ້ານອາຫານ	-7453
ການຄຸ້ມຄອງ	-7454
▁ມະຫາວິທະຍາ	-7455
AE	-7456
OV	-7457
ks	-7458
tic	-7459
uge	-7460
ມໄຟ	-7461
ແນະ	-7462
▁Az	-7463
▁ra	-7464
▁ເຝ	-7465
ເຫຼວ	-7466
▁Cal	-7467
▁ກັງ	-7468
▁ວິກ	-7469
▁feed	-7470
ທຽບໃສ່	-7471
▁ຄືກັບ	-7472
▁ຈາລຶກ	-7473
▁ສະມຸດ	-7474
▁ເດັ່ນ	-7475
ຈັດສົ່ງ	-7476
ເທົ່າໃດ	-7477
▁PayPal	-7478
▁ຈາກການ	-7479
ພາກເຫນືອ	-7480
▁ກໍ່ສ້າງ	-7481
▁ເຂົ້າມາ	-7482
ກໍານົດໄວ້	-7483
ເຫດສົມຜົນ	-7484
ອຸບັດຕິເຫດ	-7485
▁Solutions	-7486
▁University	-7487
ເພື່ອນຮ່ວມງານ	-7488
ແລະຜະລິດຕະພັນ	-7489
CB	-7490
ຟີ	-7491
ເຫ	-7492
abl	-7493
rip	-7494
ຍືດ	-7495
▁6:	-7496
ຮ່ອງ	-7497
▁Hat	-7498
▁ໂຈນ	-7499
alves	-7500
ລະບາຍ	-7501
ຫນ່ວງ	-7502
ອາຊຽນ	-7503
▁FXCL	-7504
▁jack	-7505
ຄ້າຍຄື	-7506
ທຸກຍາກ	-7507
ອັກສອນ	-7508
ຖ້າທ່ານ	-7509
ວ່າດ້ວຍ	-7510
ເຄົາລົບ	-7511
ໃຫມ່ຂອງ	-7512
ສິນເຊື່ອ	-7513
ຫັດສະຈັນ	-7514
▁ຄວາມຍາວ	-7515
▁ແມ່ນການ	-7516
▁ແລກປ່ຽນ	-7517
ເຄື່ອງຫມາຍ	-7518
ທີ່ທັນສະໄຫມ	-7519
▁ການຂົນສົ່ງ	-7520
ລົດຖີບລົດຖີບ	-7521
ທີ່ເຕັມໄປດ້ວຍ	-7522
ປະທານນາທິບໍດີ	-7523
]:	-7524
bed	-7525
ebo	-7526
▁47	-7527
▁170	-7528
▁CAD	-7529
▁Mat	-7530
▁Spr	-7531
▁ວານ	-7532
ກະວານ	-7533
▁Phil	-7534
▁ພະຍຸ	-7535
ມາກ່ອນ	-7536
▁ມັນຈະ	-7537
ເນື້ອໃນ	-7538
▁ຄົ້ນຫາ	-7539
▁ແຕ່ມັນ	-7540
ຂ້ອນຂ້າງ	-7541
ຄໍາຫມັ້ນ	-7542
ໄດ້ປະກາດ	-7543
▁ດ້ວຍການ	-7544
ສັງເກດການ	-7545
▁Solomons	-7546
▁ໂຮ່ຈີມິນ	-7547
▁ລາຄາປົກກະຕິ	-7548
▁ສະຫງວນລິຂະສິດ	-7549
ຶບ	-7550
Bet	-7551
Jar	-7552
ife	-7553
ora	-7554
ເວດ	-7555
▁8,	-7556
▁TG	-7557
jack	-7558
ເບົາ	-7559
▁Fin	-7560
▁ຕຽງ	-7561
▁ສຸມ	-7562
▁ຮອຍ	-7563
▁Code	-7564
▁List	-7565
▁ຄ່ອຍ	-7566
▁ທົ່ງ	-7567
▁ຫນົມ	-7568
unction	-7569
ຍົກເລີກ	-7570
▁Office	-7571
▁ທີ່ນີ້	-7572
ການສໍາຫຼວດ	-7573
ຄວາມສໍາພັນ	-7574
▁Guangdong	-7575
▁ການແຂ່ງຂັນ	-7576
▁stainlesssteel	-7577
bet	-7578
▁Ag	-7579
▁Ng	-7580
ythe	-7581
ໃຊ້ງ	-7582
▁195	-7583
▁Bro	-7584
ໃນທຸກ	-7585
▁plug	-7586
▁plus	-7587
▁ຜູ້ນ	-7588
ຕົວເລກ	-7589
ບົດຮຽນ	-7590
ອະທິຖານ	-7591
▁Blythe	-7592
ະລູມິນຽມ	-7593
ເປັນຫຍັງ	-7594
▁ພ້ອມທັງ	-7595
ຕ້ານເຊື້ອ	-7596
ບັງຄັບໃຊ້	-7597
ການບໍລິຫານ	-7598
ຢ່າງຫຼວງຫຼາຍ	-7599
▁Mississippi	-7600
ບັນດາວິສາຫະກິດ	-7601
ຢ່າງເປັນທາງການ	-7602
-16	-7603
250	-7604
ຍາມ	-7605
ທອນ	-7606
ເມດ	-7607
-200	-7608
ters	-7609
ຫາລື	-7610
▁Eng	-7611
▁ຈ້າ	-7612
▁ຕິກ	-7613
▁ໂດດ	-7614
allow	-7615
▁Karn	-7616
▁Lock	-7617
▁back	-7618
▁csgo	-7619
▁ປື້ມ	-7620
▁ວ່າງ	-7621
▁ຫ້າມ	-7622
▁ແຫວງ	-7623
▁ເຜົ່າ	-7624
▁ປີແຫ່ງ	-7625
▁ເມື່ອຍ	-7626
neapolis	-7627
ຖານຂໍ້ມູນ	-7628
▁ສ່ວນໃຫຍ່	-7629
▁ເຈົ້າຄິດ	-7630
ຮັກສາຄວາມປອດໄພ	-7631
Th	-7632
າຊ	-7633
ມືດ	-7634
▁88	-7635
▁Du	-7636
▁JP	-7637
inch	-7638
mper	-7639
ະນະນ	-7640
▁28,	-7641
▁ABS	-7642
▁Acc	-7643
ensor	-7644
ປະດັບ	-7645
ຣະມັນ	-7646
ໃບໄມ້	-7647
▁2021	-7648
▁cart	-7649
▁ມິຕິ	-7650
ຂອງພວກ	-7651
▁Hebei	-7652
ແນວໂນ້ມ	-7653
ແມ່ນຖືກ	-7654
ມ່ວນຊື່ນ	-7655
▁SlotJar	-7656
▁Virtual	-7657
ພາກສະຫນາມ	-7658
ແລະຂະຫນາດ	-7659
ໂດຍທົ່ວໄປ	-7660
▁ຮັບປະກັນ	-7661
ປະຊາທິປະໄຕ	-7662
ສາດສະຫນາຈັກ	-7663
▁phosphorus	-7664
AF	-7665
125	-7666
omb	-7667
uor	-7668
ຜູກ	-7669
▁5.	-7670
▁ຊມ	-7671
ເຢຊູ	-7672
ເລັງ	-7673
▁Mey	-7674
▁ທອດ	-7675
▁ຟຣິ	-7676
▁ມ້າ	-7677
▁ຫິວ	-7678
▁iPad	-7679
▁ຈະມີ	-7680
ສະຫຼຸບ	-7681
▁2017,	-7682
ຈຶ່ງໄດ້	-7683
▁ສັບສົນ	-7684
▁ຮຽນຮູ້	-7685
ຂອງຊີວິດ	-7686
ວກະສິກອນ	-7687
ເພີ່ມທະວີ	-7688
ເຊັ່ນດຽວກັນ	-7689
,”	-7690
49	-7691
ek	-7692
ລຍ	-7693
off	-7694
use	-7695
ບິດ	-7696
▁Go	-7697
▁Ly	-7698
oker	-7699
reat	-7700
rost	-7701
ສະຕິ	-7702
ຫມໍ້	-7703
ເລີນ	-7704
▁2.5	-7705
▁230	-7706
▁750	-7707
▁API	-7708
▁ຫນູ	-7709
ຈູງໃຈ	-7710
ຕໍ່ປີ	-7711
ວິຈານ	-7712
ໃນຄວາມ	-7713
▁Phone	-7714
ໃນຕະຫຼາດ	-7715
▁virtual	-7716
▁ດ້ວຍຄວາມ	-7717
▁ລ້ານໂດລາ	-7718
ຂອງສະຫະລັດ	-7719
OB	-7720
ana	-7721
ຖັງ	-7722
ແກະ	-7723
ຫມູນ	-7724
ຫລານ	-7725
▁115	-7726
▁Dec	-7727
▁off	-7728
▁ປອມ	-7729
-2020	-7730
ວບລວມ	-7731
ຫລ່ຽມ	-7732
ໄສທັດ	-7733
ການແພດ	-7734
ການໃຊ້	-7735
ລົງທືນ	-7736
ໃຫ້ເກີດ	-7737
▁crypto	-7738
▁ຖົງຢາງ	-7739
ທາງການແພດ	-7740
▁ເຢຍຣະມັນ	-7741
ຄົມມະນາຄົມ	-7742
ສົມເຫດສົມຜົນ	-7743
ເກັບກໍາຂໍ້ມູນ	-7744
▁ຄວາມຫນາແຫນ້ນ	-7745
ໂຮ	-7746
▁LC	-7747
raft	-7748
▁10:	-7749
▁23,	-7750
ຣິກັນ	-7751
▁Book	-7752
▁Foam	-7753
▁Ninj	-7754
▁pump	-7755
ຊີ້ນໍາ	-7756
▁White	-7757
▁ປະທັບ	-7758
▁ພິນາດ	-7759
▁ສີຂຽວ	-7760
ຊັບຊ້ອນ	-7761
▁County	-7762
▁ທ້ອງຟ້າ	-7763
ຮູ້ສຶກວ່າ	-7764
▁ສະແຕນເລດ	-7765
▁ສາທາລະນະ	-7766
▁ຄໍາແນະນໍາ	-7767
ໂດຍບໍ່ມີການ	-7768
CM	-7769
cn	-7770
ັຍ	-7771
ເຊນ	-7772
▁57	-7773
▁ດິ	-7774
▁Nov	-7775
▁Sun	-7776
▁Sur	-7777
ຂະບວນ	-7778
ຫຍື່ອ	-7779
ໍາມະນ	-7780
▁Chem	-7781
▁Wars	-7782
▁ຫຼວງ	-7783
etooth	-7784
ຕິດພັນ	-7785
ຕໍ່ກັບ	-7786
ບໍ່ດົນ	-7787
ັກຂ່າວ	-7788
▁ປອດໄພ	-7789
▁ຈາກນັ້ນ	-7790
ກ່ອນທີ່ຈະ	-7791
ລະດັບຄວາມ	-7792
ສະກຸນເງິນ	-7793
▁Dongguan	-7794
▁Standard	-7795
ສິ່ງທ້າທາຍ	-7796
▁Minneapolis	-7797
ຂອງພວກເຮົາແລະ	-7798
ສ້າງຕັ້ງຂຶ້ນໃນປີ	-7799
41	-7800
ຕຸ	-7801
ໍກ	-7802
ald	-7803
lam	-7804
ຂວາ	-7805
ຂຸມ	-7806
ຍຸກ	-7807
▁56	-7808
າວອນ	-7809
▁ປອບ	-7810
▁ລອນ	-7811
▁ລິບ	-7812
ຈະໄດ້	-7813
ສະກັດ	-7814
▁Coil	-7815
▁Last	-7816
▁Flash	-7817
▁Speed	-7818
ulation	-7819
▁custom	-7820
▁ຮູບຊົງ	-7821
ເຊັ່ນກັນ	-7822
ຈັດອັນດັບ	-7823
ຜັນຂະຫຍາຍ	-7824
▁ສົ່ງເສີມ	-7825
▁ເຈົ້າຍັງ	-7826
ສະດວກສະບາຍ	-7827
▁ການແປພາສາ	-7828
BO	-7829
.25	-7830
ali	-7831
ynth	-7832
ຊິ້ນ	-7833
▁18,	-7834
▁gsm	-7835
ຫນ່າງ	-7836
▁ຊີ້ນ	-7837
▁ຫນົນ	-7838
ຊີ້ວັດ	-7839
ບໍ່ຮູ້	-7840
ພາລະກິດ	-7841
ພິພາກສາ	-7842
▁ສະຖານະ	-7843
ໃນຮູບແບບ	-7844
▁ໃນມື້ນີ້	-7845
ສິ້ນສຸດລົງ	-7846
ຂອງພວກເຮົາມີ	-7847
ປະທານາທິບໍດີ	-7848
ໂດຍອັດຕະໂນມັດ	-7849
ັຟ	-7850
ais	-7851
nov	-7852
ມັງ	-7853
ໂຍນ	-7854
ໄຫ້	-7855
▁PA	-7856
▁SD	-7857
iner	-7858
ຍ້ອງ	-7859
▁Pur	-7860
▁ser	-7861
▁ເຊີ	-7862
▁ແກນ	-7863
ridge	-7864
▁News	-7865
ບໍາລຸງ	-7866
ລອນດອນ	-7867
▁Organ	-7868
▁Warin	-7869
▁ປະສົມ	-7870
ຄວາມສຸກ	-7871
▁Karnar	-7872
▁ກາຍເປັນ	-7873
ຄວາມສົນໃຈ	-7874
ທະນາຍຄວາມ	-7875
▁ຄະນິດສາດ	-7876
▁ແທນທີ່ຈະ	-7877
ຄວາມຫຍຸ້ງຍາກ	-7878
ເຄື່ອງປຸງແຕ່ງ	-7879
ດໍາເນີນທຸລະກິດ	-7880
▁ຄ່າໃຊ້ຈ່າຍແມ່ນ	-7881
XVN	-7882
acy	-7883
ged	-7884
ham	-7885
ເນີ	-7886
▁98	-7887
▁pe	-7888
alls	-7889
user	-7890
very	-7891
ະລາດ	-7892
ເອີນ	-7893
▁Pen	-7894
▁Pos	-7895
▁ຮຽບ	-7896
ກາຕູນ	-7897
ຄູ່ມື	-7898
ປະສັກ	-7899
ລະພິດ	-7900
▁Flor	-7901
▁Matt	-7902
▁ບັນດ	-7903
▁ເລ່ຍ	-7904
ປາຍທາງ	-7905
▁nylon	-7906
ຄວາມຮູ້	-7907
ທໍາມະດາ	-7908
ຫນ່ວຍງານ	-7909
ເຄາະຮ້າຍ	-7910
▁ຮູບແຕ້ມ	-7911
ແມ່ນຢູ່ໃນ	-7912
ເວລາດຽວກັນ	-7913
ທີ່ເກີດຂື້ນ	-7914
ອຸດົມສົມບູນ	-7915
ວຽກເຮັດງານທໍາ	-7916
▁ໃນຄວາມເປັນຈິງ	-7917
ມື້ນີ້ໃນມື້ອື່ນ	-7918
sc	-7919
ada	-7920
que	-7921
play	-7922
▁240	-7923
▁Sar	-7924
▁ອາບ	-7925
▁Carb	-7926
▁ຊຶ້ງ	-7927
▁ຫນີ້	-7928
▁ເຍຊູ	-7929
ວາລະສານ	-7930
ໃນບັນດາ	-7931
ສິ້ນເຊີງ	-7932
ອິດສະຫຼະ	-7933
ເຂົ້າສູ່	-7934
▁ຄໍາຮ້ອງ	-7935
▁ອານາຈັກ	-7936
ສະລັອດຕິງ	-7937
▁ໃນຖານະເປັນ	-7938
LS	-7939
-18	-7940
-30	-7941
lee	-7942
berg	-7943
ryst	-7944
ສາລະ	-7945
▁(19	-7946
▁Ter	-7947
▁ງົວ	-7948
▁ພິດ	-7949
▁ໂມນ	-7950
inder	-7951
ລະດົມ	-7952
ແຫລ່ງ	-7953
▁Pass	-7954
▁ຫນາມ	-7955
atalog	-7956
ations	-7957
▁Nylon	-7958
▁ສາກົນ	-7959
▁ເບື້ອ	-7960
▁ເຜິ້ງ	-7961
ສ່ຽງໃຕ້	-7962
▁ກ່າວໂດຍ	-7963
▁ຕັ້ງແຕ່	-7964
▁ເດັກຍິງ	-7965
ຕົ້ນສະບັບ	-7966
ແລະມີຄວາມ	-7967
ລະມັດລະວັງ	-7968
ນັກຄົ້ນຄວ້າ	-7969
ອີເມວຂອງທ່ານ	-7970
8)	-7971
MT	-7972
nam	-7973
ເອີ	-7974
▁PS	-7975
▁To	-7976
ແຍ່ງ	-7977
▁140	-7978
▁ຈົມ	-7979
▁ປວງ	-7980
▁ເອີ	-7981
ບຸລຸດ	-7982
▁Rock	-7983
ຣິສຕຽນ	-7984
▁Scale	-7985
▁ອຸທິດ	-7986
ຈະສາມາດ	-7987
ບາງຄັ້ງ	-7988
ປະກັນໄພ	-7989
ຫຍໍ້ຂອງ	-7990
ເຫັນວ່າ	-7991
ໃຫ້ເປັນ	-7992
▁ສົມລົດ	-7993
▁ຂ້ອຍໄດ້	-7994
▁ສະບາຍດີ	-7995
▁ເງິນຝາກ	-7996
ວິສະວະກໍາ	-7997
ຢູ່ທີ່ນັ້ນ	-7998
ສັ່ນສະເທືອນ	-7999
ສິ່ງທີ່ພວກເຮົາ	-8000
ຜູ້ຊາຍແລະແມ່ຍິງ	-8001
ih	-8002
ຣູ	-8003
omo	-8004
ope	-8005
war	-8006
yan	-8007
▁Fe	-8008
ຮົ່ວ	-8009
▁Rod	-8010
▁ດຸນ	-8011
ສາເຫດ	-8012
▁Card	-8013
▁sulf	-8014
າວະກາດ	-8015
▁ປາກົດ	-8016
▁Galaxy	-8017
▁ໄບເບິນ	-8018
ຍຸດຕິທໍາ	-8019
▁ອະທິການ	-8020
▁Aluminum	-8021
ຈິນຕະນາການ	-8022
ວ່າມັນເປັນ	-8023
ເຊົ້າວັນທີ	-8024
▁ຊ່ວຍເຫຼືອ	-8025
ຄວາມເຂົ້າໃຈ	-8026
ພະຍາຍາມທີ່ຈະ	-8027
ໃນການແຂ່ງຂັນ	-8028
6,	-8029
ບີ	-8030
-11	-8031
150	-8032
hem	-8033
▁DS	-8034
▁PN	-8035
▁br	-8036
inyl	-8037
ມີນາ	-8038
▁Mer	-8039
▁rad	-8040
▁ປ່ຽງ	-8041
ສະຫຼັບ	-8042
▁ບັນພະ	-8043
ກໍ່ຕັ້ງ	-8044
ຈິງແລ້ວ	-8045
ຮູບຮ່າງ	-8046
▁ທາງວິນ	-8047
▁ມູນຄ່າ	-8048
ລົ້ມເຫຼວ	-8049
▁ກົດລະບຽບ	-8050
▁ເຈົ້າຮູ້	-8051
elashstore	-8052
ຢ່າງວ່ອງໄວ	-8053
▁ຖ້າຫາກວ່າ	-8054
▁ການຢັ້ງຢືນ	-8055
▁ຂຽນເມື່ອສຸດ	-8056
ຂອງພວກເຮົາໄດ້	-8057
▁ເສັ້ນໃຍສັງເຄາະ	-8058
-86	-8059
ico	-8060
ray	-8061
▁59	-8062
rome	-8063
າກອນ	-8064
ື່ອມ	-8065
▁Leg	-8066
▁Mos	-8067
▁mon	-8068
▁sol	-8069
▁ມົວ	-8070
ນີ້ຈະ	-8071
ພິການ	-8072
▁ຊ່າງ	-8073
ເອັດສ໌	-8074
ໃຊ້ງານ	-8075
▁Skype	-8076
▁ບັນຈຸ	-8077
▁ພິສູດ	-8078
ກໍລະກົດ	-8079
ຜິວຫນັງ	-8080
ຜູ້ໃຫຍ່	-8081
ອາວະກາດ	-8082
ຕ່ໍາກວ່າ	-8083
▁scooter	-8084
▁ກະເປົ໋າ	-8085
▁ຕິດຕັ້ງ	-8086
▁ເຈົ້າຂໍ	-8087
▁ພວກເຂົາໄດ້	-8088
ຄວາມຫມັ້ນຄົງ	-8089
ຝາ	-8090
pal	-8091
ຜັດ	-8092
ວີບ	-8093
ຮາກ	-8094
ເມວ	-8095
▁AT	-8096
ກິ່ງ	-8097
ສ່ອງ	-8098
▁Atl	-8099
▁GBP	-8100
▁Sub	-8101
ຫາຍໄປ	-8102
ເອົາມ	-8103
zhuang	-8104
ລິມປິກ	-8105
▁ປະສົງ	-8106
ຜົມສ່ວນ	-8107
▁ການໃຊ້	-8108
▁ສະຖິຕິ	-8109
▁ສົມຄວນ	-8110
ສ່ວນຫຼາຍ	-8111
ໂດຍບໍ່ມີ	-8112
▁ປະຈຸບັນ	-8113
▁ພັນລ້ານ	-8114
ເຊື່ອມໂລຫະ	-8115
▁Bluetooth	-8116
▁ແລະພວກເຂົາ	-8117
--	-8118
An	-8119
DS	-8120
ນິດ	-8121
ເອດ	-8122
ແມ້	-8123
▁Er	-8124
▁PE	-8125
ents	-8126
ສົ້ມ	-8127
▁10,	-8128
▁Saf	-8129
▁ຄອນ	-8130
ໄດ້ໃນ	-8131
▁6000	-8132
▁Open	-8133
ຜົນງານ	-8134
ພາຫະນະ	-8135
▁Saint	-8136
▁Table	-8137
▁Touch	-8138
▁dress	-8139
▁ປະສາດ	-8140
ຈາກນັ້ນ	-8141
ຍັງເປັນ	-8142
ນໍາເອົາ	-8143
້ວານນີ້	-8144
ເຄັ່ງຕຶງ	-8145
ໃຫຍ່ຫຼວງ	-8146
▁Conveyor	-8147
▁ອາເມຣິກາ	-8148
▁ຜູ້ຊ່ຽວຊານ	-8149
▁ຄວາມຕ້ອງການ	-8150
▁ຄໍາຮ້ອງສະຫມັກ	-8151
**	-8152
Pl	-8153
RL	-8154
ລາກ	-8155
▁7:	-8156
▁Jo	-8157
▁TP	-8158
▁no	-8159
0000	-8160
ader	-8161
mmer	-8162
ກະໂປ	-8163
ເດິນ	-8164
▁Cert	-8165
▁Coin	-8166
▁Tool	-8167
ຕິກິລິ	-8168
ທີ່ເກີດ	-8169
ຂອງລະບົບ	-8170
▁ທ່າມກາງ	-8171
▁ຜ້າເຊັດ	-8172
▁ພັກຜ່ອນ	-8173
▁ເປັນຜູ້	-8174
ສູງສຸດຂອງ	-8175
▁Wireless	-8176
▁ຊຶ່ງເປັນ	-8177
▁ສີເຫຼືອງ	-8178
ຜົມສ່ວນບົນ	-8179
▁Changzhou	-8180
▁ລົດບັນທຸກ	-8181
▁ຊື່ຫຍໍ້ຂອງ	-8182
ພື້ນຖານໂຄງລ່າງ	-8183
6)	-8184
JS	-8185
edy	-8186
inc	-8187
rab	-8188
▁EN	-8189
ages	-8190
iaph	-8191
izza	-8192
າບອດ	-8193
ເທຣດ	-8194
▁21,	-8195
▁22,	-8196
▁ITS	-8197
▁Tor	-8198
▁ຄາມ	-8199
▁ປອນ	-8200
▁ຫຼອກ	-8201
▁ເຊັບ	-8202
▁ເບົາ	-8203
▁ແກັສ	-8204
ປຽບທຽບ	-8205
ຫຼອກລວງ	-8206
▁ນິວຢອກ	-8207
ຫ້ອງນໍ້າ	-8208
ອອກແບບມາ	-8209
ຜູ້ບໍລິໂພກ	-8210
▁ໃບອະນຸຍາດ	-8211
ເຮັດໃຫ້ເກີດ	-8212
ໄດ້ຖືກນໍາໃຊ້	-8213
▁ຕົວຢ່າງແມ່ນ	-8214
ໄດ້ຢ່າງງ່າຍດາຍ	-8215
ຟາ	-8216
ມຸງ	-8217
ຣານ	-8218
ແຂກ	-8219
▁CL	-8220
▁EU	-8221
▁Fr	-8222
cept	-8223
ຄ່ອຍ	-8224
ຊ້າຍ	-8225
າບໍ່	-8226
▁ຊິນ	-8227
▁ທຶກ	-8228
▁ບັບ	-8229
ມີຜູ້	-8230
ິສຖານ	-8231
▁sand	-8232
▁ຫລົງ	-8233
ຕີລາຄາ	-8234
ລູກຊາຍ	-8235
ອກຫຼີກ	-8236
ົດເຊີຍ	-8237
▁ປະຫວັດ	-8238
▁ເສຍຫາຍ	-8239
ຄາດວ່າຈະ	-8240
▁ຄໍາສັ່ງ	-8241
ຂອງພຣະອົງ	-8242
ທີ່ສຸດຂອງ	-8243
ສອດຄ່ອງກັບ	-8244
▁ກ່ຽວກັບການ	-8245
ທີ່ຄ້າຍຄືກັນ	-8246
▁ເນື່ອງຈາກວ່າ	-8247
-01	-8248
for	-8249
ຄາຍ	-8250
▁92	-8251
▁Ga	-8252
▁se	-8253
ກິ່ນ	-8254
ນຶ່ງ	-8255
ເອັມ	-8256
▁dev	-8257
▁pix	-8258
▁ຕານ	-8259
▁ບຣາ	-8260
imate	-8261
ອຸທິດ	-8262
ໂມສອນ	-8263
▁card	-8264
ລໍາດັບ	-8265
ອົດທົນ	-8266
▁ຈິດໃຈ	-8267
ລິເລີ່ມ	-8268
▁Direct	-8269
▁Tattoo	-8270
▁ການາດາ	-8271
ທີ່ປອດໄພ	-8272
ທີ່ຢູ່ໃນ	-8273
▁phantom	-8274
▁ທ່ານນາງ	-8275
▁ລ້ານຄົນ	-8276
ລະຫັດຜ່ານ	-8277
ໃນຕອນຕົ້ນ	-8278
ຕ່າງໆເຊັ່ນ	-8279
▁ໄດ້ຈັດຕັ້ງ	-8280
Air	-8281
ບຽງ	-8282
ຝູງ	-8283
▁89	-8284
omas	-8285
▁Log	-8286
▁ດວກ	-8287
▁ລີ້	-8288
▁ລຸດ	-8289
amine	-8290
▁ຫຍ້າ	-8291
▁ເຄມີ	-8292
▁ໄຮໂດ	-8293
ຕົວແບບ	-8294
ທີ່ດິນ	-8295
▁Crack	-8296
▁online	-8297
ເວທີປາໄສ	-8298
ແມ່ເຫຼັກ	-8299
▁detroit	-8300
▁ສຸດທ້າຍ	-8301
▁ທ້ອງຖິ່ນ	-8302
▁ເຂັ້ມແຂງ	-8303
ທີ່ມີຊີວິດ	-8304
▁ກະລຸນາໃສ່	-8305
ການທ່ອງທ່ຽວ	-8306
ການຕ່າງປະເທດ	-8307
ສ່ວນໃຫຍ່ແມ່ນ	-8308
▁ກ່າວຄໍາເຫັນ	-8309
▁ດັ່ງນັ້ນມັນ	-8310
5)	-8311
FTA	-8312
ift	-8313
ເທນ	-8314
▁DX	-8315
▁Py	-8316
▁it	-8317
reen	-8318
uyen	-8319
ygen	-8320
▁lad	-8321
▁ເມກ	-8322
house	-8323
usion	-8324
▁4000	-8325
▁Cool	-8326
ategor	-8327
ຊົງຈໍາ	-8328
▁Union	-8329
ທີ່ເປັນໄປໄດ້	-8330
81	-8331
DP	-8332
ຮູ	-8333
oot	-8334
ret	-8335
ura	-8336
▁Ru	-8337
▁up	-8338
enue	-8339
flex	-8340
ishi	-8341
lymp	-8342
ຊ້ໍາ	-8343
▁Sex	-8344
▁ລ່າ	-8345
erson	-8346
erved	-8347
▁View	-8348
▁wood	-8349
ອອນລາຍ	-8350
ເຟສບຸກ	-8351
ແຂງແຮງ	-8352
ແນວຄິດ	-8353
▁South	-8354
ຂອງກຸ່ມ	-8355
ອອກເປັນ	-8356
▁ຈະເປັນ	-8357
ສັນຍາລັກ	-8358
▁ຂົ່ມຂູ່	-8359
▁ຖ່ານຫີນ	-8360
▁ບັນເທີງ	-8361
▁ນະຄອນຫລວງ	-8362
▁ຜົນໄດ້ຮັບ	-8363
▁ເມື່ອທ່ານ	-8364
▁ງານວາງສະແດງ	-8365
ໄດ້ຮັບບາດເຈັບ	-8366
ທີ່ທ່ານຕ້ອງການ	-8367
▁Meyelashstore	-8368
ume	-8369
vel	-8370
ທອດ	-8371
ລີ່	-8372
ສະຫ	-8373
▁ຈິ	-8374
aker	-8375
ປັ້ນ	-8376
▁12:	-8377
▁Del	-8378
▁FAQ	-8379
▁GPS	-8380
▁Hyd	-8381
▁Sim	-8382
▁ທຽນ	-8383
▁ໂພດ	-8384
▁ໂອບ	-8385
ສະມັດ	-8386
▁2003	-8387
▁Belt	-8388
▁ເຮັງ	-8389
ຊື່ວ່າ	-8390
▁ພະແນກ	-8391
▁ພູເຂົາ	-8392
ທີ່ບໍ່ດີ	-8393
ນິວຊີແລນ	-8394
ບັນຍາກາດ	-8395
▁Service	-8396
ສົມທົບກັບ	-8397
ຢ່າງແທ້ຈິງ	-8398
ທີ່ເຂັ້ມແຂງ	-8399
ອີກເທື່ອຫນຶ່ງ	-8400
83	-8401
ida	-8402
ral	-8403
▁YR	-8404
auda	-8405
▁CHF	-8406
ສິງຫາ	-8407
ເຕົ້າ	-8408
ໄປຕາມ	-8409
▁mult	-8410
▁ກັ້ນ	-8411
iaphrag	-8412
ຂົ່ມຂູ່	-8413
ແມ່ນແຕ່	-8414
▁ຊຸມຊົນ	-8415
ຍົກເວັ້ນ	-8416
ອັດສະຈັນ	-8417
ຖ້າຫາກວ່າ	-8418
▁ເຂົ້າກັນ	-8419
▁ໃນກໍລະນີ	-8420
ການຊ່ວຍເຫຼືອ	-8421
▁ການຄົ້ນຄວ້າ	-8422
FF	-8423
10)	-8424
▁CA	-8425
▁Sy	-8426
etic	-8427
ຊ່ອຍ	-8428
▁Aug	-8429
▁Soc	-8430
anner	-8431
ສາຍຕາ	-8432
▁Okay	-8433
▁free	-8434
ຜູ້ຊົມ	-8435
ອະນາໄມ	-8436
▁Jizer	-8437
▁ສີຟ້າ	-8438
ຂັດແຍ້ງ	-8439
ໄພພິບັດ	-8440
▁ນໍາໃຊ້	-8441
ງົບປະມານ	-8442
ແຜ່ກະຈາຍ	-8443
▁ພາຍຫຼັງ	-8444
ແມ່ນເພື່ອ	-8445
▁ເຈົ້າຂອງ	-8446
ຈໍານວນຫລາຍ	-8447
ສະພາບອາກາດ	-8448
▁ກົງກັນຂ້າມ	-8449
!”	-8450
1-	-8451
DC	-8452
ຖບ	-8453
elf	-8454
ຊີດ	-8455
ແຊກ	-8456
ໄຂ່	-8457
▁gl	-8458
▁vs	-8459
uter	-8460
▁Sec	-8461
▁ຖັດ	-8462
ບາງທີ	-8463
▁Feng	-8464
▁Inje	-8465
▁Nick	-8466
▁ເນີດ	-8467
▁ແມັກ	-8468
ແລະໄດ້	-8469
ໍລິສັດ	-8470
▁ສັນຕິ	-8471
▁ອຸດົມ	-8472
ການສ້າງ	-8473
ຈຸດຫມາຍ	-8474
ເຮັດການ	-8475
▁ທັງສອງ	-8476
iaphragm	-8477
ສັນຕິພາບ	-8478
▁ປ່ຽນແປງ	-8479
▁Blackjack	-8480
ຜູ້ເຂົ້າຮ່ວມ	-8481
▁ຊື່ຂອງມັນແມ່ນ	-8482
);	-8483
4.	-8484
UT	-8485
.05	-8486
ael	-8487
ech	-8488
ດໍາ	-8489
▁Wi	-8490
rent	-8491
ວິກິ	-8492
ົດໃຈ	-8493
▁11,	-8494
▁365	-8495
▁Pox	-8496
▁mac	-8497
▁ຄຶດ	-8498
allet	-8499
olone	-8500
ນີ້ມີ	-8501
ວຸດທິ	-8502
ສະວັດ	-8503
ຮໍໂມນ	-8504
▁Link	-8505
▁ຊ້າຍ	-8506
▁ຊໍ້າ	-8507
▁ຕົວະ	-8508
▁ພາສີ	-8509
estern	-8510
ຫຼືບໍ່	-8511
▁Nguyen	-8512
▁ຊໍານານ	-8513
▁ວຽກງານ	-8514
▁ສອບຖາມ	-8515
▁ເລື່ອນ	-8516
ບັນລຸໄດ້	-8517
ໂລກລະບາດ	-8518
▁ການປ່ອຍ	-8519
ທີ່ຮ້າຍແຮງ	-8520
▁ເທັກໂນໂລຢີ	-8521
51	-8522
FS	-8523
ປະຖ	-8524
▁Im	-8525
▁ຍ່	-8526
ປ່ວຍ	-8527
າກັບ	-8528
▁30%	-8529
▁Out	-8530
▁Rep	-8531
▁Brow	-8532
▁ສໍ່າ	-8533
ograph	-8534
ທິດຖານ	-8535
ຫຼືການ	-8536
ເປື້ອນ	-8537
ເລັກໂທ	-8538
▁Model	-8539
▁TTXVN	-8540
▁ແຫລ່ງ	-8541
ຄິດເຖິງ	-8542
▁casino	-8543
▁ລັດເຊຍ	-8544
ທີ່ຮູ້ຈັກ	-8545
ພວກເຂົາມີ	-8546
▁ເຊິ່ງໄດ້	-8547
ຢ່າງເຕັມທີ່	-8548
ຕັ້ງຂຶ້ນໃນປີ	-8549
ຄໍາຫມັ້ນສັນຍາ	-8550
5,	-8551
7)	-8552
ani	-8553
ili	-8554
opp	-8555
umm	-8556
ເລນ	-8557
ream	-8558
ໍານິ	-8559
▁ລິກ	-8560
berry	-8561
light	-8562
riend	-8563
▁inst	-8564
▁ຕໍ່າ	-8565
▁ເຈາະ	-8566
itting	-8567
ຂັບຂີ່	-8568
ລວບລວມ	-8569
ສະຫລຸບ	-8570
ໄວລຸ້ນ	-8571
▁Board	-8572
▁River	-8573
▁Oxygen	-8574
▁Rotary	-8575
▁ວິສະວະ	-8576
ຍົກລະດັບ	-8577
ມົນລະພິດ	-8578
ເຈົ້າຂອງ	-8579
▁Bowflex	-8580
▁ຄວາມຮັກ	-8581
ການສື່ສານ	-8582
ຂໍ້ກໍານົດ	-8583
▁ຊົນນະບົດ	-8584
▁ສິດທິບັດ	-8585
▁ເຖິງແມ່ນ	-8586
hi	-8587
ANG	-8588
mph	-8589
ວອນ	-8590
▁RM	-8591
9899	-8592
ough	-8593
▁000	-8594
▁Buy	-8595
▁Lad	-8596
▁SMS	-8597
ution	-8598
ລະລາຍ	-8599
ອາຣັບ	-8600
ເຮົາມ	-8601
ໃຊ້ໃນ	-8602
▁2030	-8603
▁York	-8604
▁wire	-8605
▁your	-8606
▁ອະນຸ	-8607
Script	-8608
ipping	-8609
yelash	-8610
▁ຖົງມື	-8611
ທິສັນຍາ	-8612
ແບບນັ້ນ	-8613
▁0086-5	-8614
▁Global	-8615
▁ກັງວົນ	-8616
▁ຕົວແທນ	-8617
ທີ່ຜະລິດ	-8618
ພາດສະຕິກ	-8619
ອັດຕາການ	-8620
ເອົາຊະນະ	-8621
ຂໍ້ມູນທີ່	-8622
▁ອະທິດຖານ	-8623
▁ເປີດເຜີຍ	-8624
▁ປີແຫ່ງວັນ	-8625
▁ຮ້ານອາຫານ	-8626
▁ເມື່ອທຽບໃສ່	-8627
IG	-8628
gsm	-8629
unt	-8630
ຊ່າ	-8631
ຖອຍ	-8632
▁SE	-8633
ລິມະ	-8634
ເພີນ	-8635
▁Jer	-8636
▁ben	-8637
▁ບົກ	-8638
ວນັ້ນ	-8639
ີນ້ໍາ	-8640
▁Wood	-8641
▁ຟ້າວ	-8642
▁ຢັ້ງ	-8643
▁ສ່ອງ	-8644
▁ຫລັບ	-8645
ຍາວນານ	-8646
ດາວທຽມ	-8647
ສິ່ງໃດ	-8648
ເຈລະຈາ	-8649
▁Grand	-8650
▁Sheet	-8651
▁pulse	-8652
▁ກະທູ້	-8653
ຄູອາຈານ	-8654
ເກົາຫລີ	-8655
ແມ່ນບໍ່	-8656
ແລະເຮັດ	-8657
▁ສົມບັດ	-8658
▁ແມ່ນມີ	-8659
▁ພ້ອມກັບ	-8660
ຂັບເຄື່ອນ	-8661
ແບບຍືນຍົງ	-8662
▁Chemical	-8663
▁ການໂຄສະນາ	-8664
ວ່າເປັນຫຍັງ	-8665
BR	-8666
HO	-8667
400	-8668
cam	-8669
ove	-8670
ຫນູ	-8671
ອາບ	-8672
▁0,	-8673
▁62	-8674
▁ກຣ	-8675
acet	-8676
ຫລຸດ	-8677
ຫລົກ	-8678
▁2.0	-8679
ision	-8680
rader	-8681
ກົນໄກ	-8682
ລົງໃນ	-8683
asting	-8684
ການຂອງ	-8685
ດູດຊຶມ	-8686
ະລັດຖະ	-8687
ີດເພີນ	-8688
ີ່ປຸ່ນ	-8689
▁2019,	-8690
tattoos	-8691
ເງິນຝາກ	-8692
▁Avenue	-8693
▁ປະເຊີນ	-8694
▁ໃນຂະນະ	-8695
▁ປະຊາກອນ	-8696
▁ອາຍແກັສ	-8697
ວິທີແກ້ໄຂ	-8698
ຫວັງວ່າຈະ	-8699
ເປັນອາທິດ	-8700
▁Fittings	-8701
▁ສັນຕິພາບ	-8702
ມະຫາສະຫມຸດ	-8703
▁Copyright	-8704
ງານວາງສະແດງ	-8705
ເຫມາະສົມກັບ	-8706
ໄດ້ຮັບລາງວັນ	-8707
4)	-8708
LP	-8709
-00	-8710
24.	-8711
ism	-8712
oow	-8713
une	-8714
ພັງ	-8715
ພານ	-8716
ລານ	-8717
ໂອ້	-8718
ໄຂ້	-8719
▁ox	-8720
ຖົ່ວ	-8721
ປັ່ນ	-8722
ຸນລະ	-8723
▁0.5	-8724
▁Sil	-8725
▁USA	-8726
▁ຂີດ	-8727
▁ຖອຍ	-8728
ellow	-8729
ental	-8730
orial	-8731
ເລົ່າ	-8732
ໃນລັດ	-8733
▁ຊ້ໍາ	-8734
▁ເມັກ	-8735
▁Cauda	-8736
▁hydro	-8737
▁ຄໍາພີ	-8738
ເກົາຫຼີ	-8739
ຂອງເມືອງ	-8740
ຕິກິລິຍາ	-8741
ທີ່ສະອາດ	-8742
ວິສະວະກອນ	-8743
▁ຫລາຍກວ່າ	-8744
▁ຫລຸດຜ່ອນ	-8745
ຜົນກະທົບຂອງ	-8746
ັ໊	-8747
="1	-8748
ena	-8749
ກີດ	-8750
ຄະລ	-8751
ສາບ	-8752
▁07	-8753
▁NZ	-8754
cing	-8755
ning	-8756
ຫິມະ	-8757
▁Bus	-8758
▁ພລາ	-8759
▁ອຸນ	-8760
00:00	-8761
ປະຫານ	-8762
ເລເຊຍ	-8763
ໍາໃຊ້	-8764
▁Will	-8765
▁ຕັ່ງ	-8766
▁ເລີກ	-8767
ການໃຫ້	-8768
ຄົນນີ້	-8769
ຊານຕົງ	-8770
ຕົ້ນປີ	-8771
ພູເຂົາ	-8772
ໂປແກຼມ	-8773
▁Clash	-8774
▁Crypt	-8775
▁Media	-8776
▁ສະດວກ	-8777
▁ອາດຈະ	-8778
▁ເຫລັກ	-8779
ການເປັນ	-8780
ຊົດເຊີຍ	-8781
ຫຸ້ມຂອງ	-8782
ເອກະລາດ	-8783
▁ດິນຊາຍ	-8784
▁ແຜນທີ່	-8785
ສິດທິບັດ	-8786
ເຮັດຫຍັງ	-8787
ແທນທີ່ຈະ	-8788
▁ທີ່ເປັນ	-8789
ບ່າຍວັນທີ	-8790
ໃນການສ້າງ	-8791
▁........	-8792
▁ຢູ່ນະຄອນ	-8793
ທີ່ມີຢູ່ໃນ	-8794
ຍົກລັດຖະມົນຕີ	-8795
ໄຮໂດຣເຈນໄຮໂດຣເຈນ	-8796
EX	-8797
ໂຫ	-8798
-14	-8799
ini	-8800
iti	-8801
rif	-8802
ລີກ	-8803
▁PU	-8804
▁Rd	-8805
▁ໃຍ	-8806
amin	-8807
ston	-8808
ເກ່ຍ	-8809
▁(35	-8810
▁Imp	-8811
▁ຍົມ	-8812
ities	-8813
under	-8814
ໃນມື້	-8815
+00:00	-8816
ພັນຄົນ	-8817
ສາມຄົນ	-8818
▁Angel	-8819
▁Hotel	-8820
▁spong	-8821
ນັກຂ່າວ	-8822
ຜ້າເຊັດ	-8823
ໄດ້ກ່າວ	-8824
▁Oxford	-8825
▁Skeleton	-8826
▁ເກີດຂຶ້ນ	-8827
▁JavaScript	-8828
▁ພວກເຮົາຕ້ອງ	-8829
ເຊວ	-8830
▁Sa	-8831
agon	-8832
ຫຼຽນ	-8833
ແບັກ	-8834
▁AUD	-8835
▁Str	-8836
▁are	-8837
▁mag	-8838
ather	-8839
posit	-8840
ruity	-8841
ນໍາພາ	-8842
ມັນຈະ	-8843
ສັດຕູ	-8844
ໄອແລນ	-8845
▁ຄື້ນ	-8846
ຊື່ສັດ	-8847
ທີ່ຍັງ	-8848
▁Olymp	-8849
▁ປຶກສາ	-8850
▁ອາຈານ	-8851
▁ເກັ່ງ	-8852
▁ເຍີ້ຍ	-8853
ສ້ອມແປງ	-8854
▁Luxury	-8855
▁ກວດສອບ	-8856
ປະຈໍາວັນ	-8857
ມາຈາກການ	-8858
ທີ່ແນ່ນອນ	-8859
▁ຫຼິ້ນເກມ	-8860
ເຊື່ອຖືໄດ້	-8861
ແລະອຸປະກອນ	-8862
ບັນຊີລາຍຊື່	-8863
ສົ່ງເສີມການ	-8864
ກັບຄືນໄປບ່ອນ	-8865
ເວົ້າກ່ຽວກັບ	-8866
▁ການເຊື່ອມໂຍງ	-8867
IM	-8868
eh	-8869
bar	-8870
ema	-8871
ປີນ	-8872
ຫອມ	-8873
▁ຍູ	-8874
1000	-8875
iano	-8876
ucks	-8877
urga	-8878
ມຸ່ງ	-8879
ໆນີ້	-8880
▁(2)	-8881
▁11:	-8882
▁3.0	-8883
▁Cur	-8884
ravel	-8885
ນໍາມາ	-8886
ພົບປະ	-8887
▁5000	-8888
▁CHAT	-8889
ກ້າຫານ	-8890
ຕະເວັນ	-8891
ພົບວ່າ	-8892
ຫາວິທີ	-8893
ຮັ່ງມີ	-8894
▁pizza	-8895
▁ລະວັງ	-8896
ຂາທິການ	-8897
ຄືນໃຫມ່	-8898
▁ລໍາດັບ	-8899
ການຄາດຄະເນ	-8900
ທີ່ຢູ່ອາໄສ	-8901
ຄວາມສາມາດໃນການ	-8902
ya	-8903
ama	-8904
des	-8905
▁77	-8906
ຖ້ວນ	-8907
ຣ່ານ	-8908
▁320	-8909
▁Cup	-8910
▁Oct	-8911
ຊຸມປີ	-8912
ແລະໃນ	-8913
▁Land	-8914
▁Over	-8915
▁hand	-8916
▁ເອີນ	-8917
▁ແກຣມ	-8918
▁ແຮ່ງ	-8919
ດຽວນີ້	-8920
▁2019.	-8921
▁Water	-8922
ຂໍຂອບໃຈ	-8923
ດັ່ງກ່າ	-8924
ລະດູການ	-8925
▁Cookie	-8926
▁Island	-8927
▁ຕະຫຼາດ	-8928
▁ເງື່ອນ	-8929
▁ເຫລືອງ	-8930
▁ໄຊຊະນະ	-8931
ກິດຈະການ	-8932
▁ສໍາຫລັບ	-8933
ຄ້າຍຄືກັບ	-8934
ເວົ້າເຖິງ	-8935
▁ຈັດພີມມາ	-8936
ເປັນຈໍານວນ	-8937
▁Dedusting	-8938
ກໍາລັງຊອກຫາ	-8939
ຄໍາພີໄບເບິນ	-8940
ສະຫຼັບຊັບຊ້ອນ	-8941
▁ເຮັດໃຫ້ມີແສງ	-8942
9)	-8943
AW	-8944
ior	-8945
ody	-8946
ris	-8947
ຈິນ	-8948
ອາງ	-8949
ແຊງ	-8950
ໂປຼ	-8951
2018	-8952
acle	-8953
wich	-8954
ຄວ້າ	-8955
▁Tai	-8956
▁tub	-8957
▁ດີດ	-8958
▁ອິສ	-8959
▁ແຂກ	-8960
osmos	-8961
ປາກົດ	-8962
ຟໍເນຍ	-8963
ສະມາດ	-8964
ອດແລນ	-8965
ໃຫ້ມີ	-8966
▁2500	-8967
▁cell	-8968
ຢ່າງມີ	-8969
▁House	-8970
▁ເຫຍື້ອ	-8971
ແລະສາມາດ	-8972
▁Express	-8973
▁ປະຊາຄົມ	-8974
ການໂຄສະນາ	-8975
ຂໍ້ສະເຫນີ	-8976
ໃນໄລຍະຍາວ	-8977
ategorized	-8978
▁ການຕິດຕັ້ງ	-8979
▁ເປີເຊັນຂອງ	-8980
▁ເອື້ອຍນ້ອງ	-8981
ເຊື່ອມຕໍ່ກັບ	-8982
ເຫຼົ່ານີ້ແມ່ນ	-8983
3)	-8984
FL	-8985
ຍໍ	-8986
ນູ	-8987
ito	-8988
ປຽບ	-8989
avor	-8990
fter	-8991
pson	-8992
ກະສີ	-8993
▁Ins	-8994
ipper	-8995
ທຸກໍາ	-8996
ຢາສູບ	-8997
າວຸໂສ	-8998
▁1800	-8999
▁Song	-9000
▁ຕໍ່ໆ	-9001
▁ຫິມະ	-9002
▁ເຄລຍ	-9003
ປະຫຼາດ	-9004
ອະວະກາດ	-9005
▁ຕອນນີ້	-9006
▁ແຕ່ຂ້ອຍ	-9007
ສາຍການບິນ	-9008
ໃນພື້ນທີ່	-9009
▁wireless	-9010
▁ບັນຍາກາດ	-9011
ໂດຍຜ່ານການ	-9012
▁Injection	-9013
▁ຕັ້ງຢູ່ໃນ	-9014
▁ຜູ້ຈັດການ	-9015
▁ເພີ່ມທະວີ	-9016
▁ເຕັກໂນໂລຢີ	-9017
▁ຄຸນນະສົມບັດ	-9018
▁ປົກກະຕິແລ້ວ	-9019
LL	-9020
edd	-9021
fer	-9022
ວຍະ	-9023
ີ້ງ	-9024
ໂຕນ	-9025
ໂບດ	-9026
▁78	-9027
▁tw	-9028
anda	-9029
ians	-9030
tens	-9031
▁Hor	-9032
▁ຊວນ	-9033
▁ຕຣາ	-9034
ສະເປນ	-9035
ເປືອກ	-9036
ໄຂມັນ	-9037
▁Camp	-9038
▁ຫຸ່ນ	-9039
ມະເລັງ	-9040
ອ່ອນແອ	-9041
ໄດ້ວ່າ	-9042
▁Clear	-9043
▁Giant	-9044
▁Panel	-9045
▁micro	-9046
▁super	-9047
▁ສາເຫດ	-9048
ພາສາລາວ	-9049
ລວມເອົາ	-9050
ຫລາຍຄົນ	-9051
ໄກ່ເກ່ຍ	-9052
▁wooden	-9053
▁ສະຫລຸບ	-9054
ຍາກທີ່ຈະ	-9055
ຜົນຜະລິດ	-9056
ແຕ່ວັນທີ	-9057
▁ແລະທ່ານ	-9058
▁ການທົດລອງ	-9059
▁ການເຮັດວຽກ	-9060
ແລະຜູ້ສະຫນອງ	-9061
GE	-9062
UV	-9063
fe	-9064
ທໍ	-9065
The	-9066
ປອມ	-9067
▁Ke	-9068
▁Wu	-9069
ides	-9070
xBet	-9071
ຊື່ອ	-9072
ອານາ	-9073
▁DVD	-9074
▁Mus	-9075
▁NOT	-9076
arbon	-9077
ກະດານ	-9078
ພີເດຍ	-9079
▁Extr	-9080
▁Fort	-9081
▁Oper	-9082
▁Ther	-9083
▁ດີ້ນ	-9084
ຂຶ້ນໄປ	-9085
ສະຫງວນ	-9086
ໂປຣຕີນ	-9087
ໍາມະນາ	-9088
▁ນິດໄສ	-9089
oowheel	-9090
ຄວາມຜິດ	-9091
ຊົ່ວຄາວ	-9092
ພະຍາບານ	-9093
ໄດ້ສ້າງ	-9094
ເຂົ້າກັບ	-9095
▁ຢາວັກຊີນ	-9096
ມີຄວາມສາມາດ	-9097
▁ບັນພະບຸລຸດ	-9098
ຫຼີກເວັ້ນການ	-9099
ໃນອຸດສາຫະກໍາ	-9100
▁ດໍາລົງຊີວິດ	-9101
ແລະການພັດທະນາ	-9102
Fi	-9103
rd	-9104
yu	-9105
▁u	-9106
12)	-9107
USD	-9108
ica	-9109
irc	-9110
ouk	-9111
win	-9112
ຊັກ	-9113
ຊັງ	-9114
ມ້າ	-9115
າມີ	-9116
akes	-9117
ipit	-9118
ພົ້ນ	-9119
ເຈາະ	-9120
່ງໃສ	-9121
▁Die	-9122
▁SKU	-9123
▁ຈານ	-9124
▁ບໍາ	-9125
-2019	-9126
ພິສູດ	-9127
ມໍເຕີ	-9128
ຫາຍໃຈ	-9129
▁Fire	-9130
▁Tape	-9131
acking	-9132
ໃບຫນ້າ	-9133
▁Santa	-9134
▁ພຶດຕິ	-9135
ທ່ານເອງ	-9136
ປະລິນຍາ	-9137
ອົບອຸ່ນ	-9138
ຽນລະພາບ	-9139
▁Thomas	-9140
▁ຊື່ວ່າ	-9141
ຂອງບັນດາ	-9142
ສະຫຼົດໃຈ	-9143
ອ້ອມຂ້າງ	-9144
▁ບາງຄັ້ງ	-9145
ຈິດວິນຍານ	-9146
▁ການສະແດງ	-9147
▁ພຣະບັນຍັດ	-9148
ໃນການພັດທະນາ	-9149
▁ແນວໃດກໍ່ຕາມ	-9150
ເພີ່ມເຕີມກ່ຽວກັບ	-9151
4:	-9152
lan	-9153
ຍໍາ	-9154
▁53	-9155
▁px	-9156
ອາໃສ	-9157
▁ກົກ	-9158
▁ມອງ	-9159
▁ຫັກ	-9160
atebo	-9161
ember	-9162
▁ຄຸ້ນ	-9163
▁ຖ້ວຍ	-9164
▁ລ່າງ	-9165
ຂອງພັກ	-9166
ສອບຖາມ	-9167
ສໍາອາງ	-9168
▁James	-9169
▁crate	-9170
▁Thread	-9171
▁ລະເບີດ	-9172
▁ສົມທົບ	-9173
ເຂົ້າຈີ່	-9174
▁ມູນນິທິ	-9175
▁ລາຄາຂອງ	-9176
ຂອງຄອບຄົວ	-9177
ທີ່ເຮັດວຽກ	-9178
ມີຄວາມສ່ຽງ	-9179
▁ການປັບປຸງ	-9180
ການເຂົ້າເຖິງ	-9181
▁ພວກເຮົາແມ່ນ	-9182
▁ແຜນຜັງເວັບໄຊ	-9183
56	-9184
.06	-9185
ala	-9186
ete	-9187
olo	-9188
ste	-9189
ແດດ	-9190
▁74	-9191
▁QC	-9192
▁eB	-9193
iece	-9194
ຝ້າຍ	-9195
ຮຸ່ນ	-9196
ໄວຍະ	-9197
▁Lee	-9198
▁ຜືນ	-9199
▁ລຽບ	-9200
odium	-9201
ໄວຣັສ	-9202
▁Volv	-9203
lamode	-9204
ນິວຢອກ	-9205
ວີດີໂອ	-9206
ສວຍງາມ	-9207
ໄວຍະວະ	-9208
▁Flyer	-9209
ຕັ້ງຢູ່	-9210
ເສລີພາບ	-9211
▁ຫນ້າຈໍ	-9212
▁ໂດຍບໍ່	-9213
ຈາກປະເທດ	-9214
ນໍາໄປສູ່	-9215
▁Western	-9216
ກໍາລັງກາຍ	-9217
ຂອງຮູບພາບ	-9218
ວ່າຈະເປັນ	-9219
▁ບາງເທື່ອ	-9220
ທີ່ມີພະລັງ	-9221
ຫ້ອງທົດລອງ	-9222
▁Misslamode	-9223
FX	-9224
pad	-9225
ras	-9226
ງຽບ	-9227
ຈະນ	-9228
ມອນ	-9229
ious	-9230
long	-9231
orts	-9232
ຼລິກ	-9233
▁(10	-9234
▁1.2	-9235
▁Hel	-9236
▁Vir	-9237
▁one	-9238
▁sub	-9239
▁ປີນ	-9240
▁ໄກ່	-9241
ender	-9242
proof	-9243
ກັນໃນ	-9244
▁Jose	-9245
▁NOTE	-9246
▁comp	-9247
▁ຍຸຕິ	-9248
989993	-9249
inches	-9250
ຂອງຊາວ	-9251
ທ່າແຮງ	-9252
ລົງໂທດ	-9253
ຫຼາຍປີ	-9254
▁feeds	-9255
▁ຫລ່ຽມ	-9256
ກະຕັນຍູ	-9257
ຊັ້ນນໍາ	-9258
ໃນລະບົບ	-9259
▁Rights	-9260
▁double	-9261
▁ການພິມ	-9262
▁ສະຫງວນ	-9263
▁ແລະໄດ້	-9264
alloween	-9265
ທີ່ນິຍົມ	-9266
ນໍາເຂົ້າ	-9267
ຄ່າທໍານຽມ	-9268
▁Reserved	-9269
▁ເປັນຕ້ອງ	-9270
▁transposh	-9271
ທີ່ຈະໄດ້ຮັບ	-9272
ສາມາດນໍາໃຊ້	-9273
▁ສູດໂມເລກຸນ	-9274
ການເຊື່ອມໂຍງ	-9275
ຄວາມຮັບຜິດຊອບ	-9276
ເສົ້າສະຫຼົດໃຈ	-9277
9,	-9278
Ar	-9279
OK	-9280
iw	-9281
ily	-9282
uki	-9283
ທິນ	-9284
ບາບ	-9285
ິໂກ	-9286
ແອບ	-9287
▁94	-9288
▁IR	-9289
▁RH	-9290
flix	-9291
iles	-9292
mont	-9293
ກ໊າຊ	-9294
ຄະຕິ	-9295
ຫຍ້າ	-9296
ເຫລວ	-9297
▁14,	-9298
▁Dry	-9299
▁Ele	-9300
▁ຟັນ	-9301
▁ລົນ	-9302
▁ແບກ	-9303
/2017	-9304
▁Fair	-9305
ກົດຈິດ	-9306
ສົມດຸນ	-9307
ອັບອາຍ	-9308
▁2018.	-9309
▁ໄດ້ມີ	-9310
.......	-9311
ization	-9312
otropin	-9313
ຕໍ່ກິໂລ	-9314
ສໍາມະນາ	-9315
▁86-574	-9316
▁ກັບຄືນ	-9317
▁Unthank	-9318
▁ສິ່ງນີ້	-9319
▁ຮ້າຍແຮງ	-9320
▁ໄດ້ກ່າວ	-9321
ຍັງບໍ່ທັນ	-9322
ຕໍ່ສູ້ກັບ	-9323
ບໍ່ມີຫຍັງ	-9324
ພື້ນເມືອງ	-9325
▁Koowheel	-9326
ຂອງອຸປະກອນ	-9327
ສິດທິມະນຸດ	-9328
ຮູ້ກ່ຽວກັບ	-9329
▁Butterfly	-9330
ນັບຕັ້ງແຕ່ປີ	-9331
ຜູ້ໃຫ້ບໍລິການ	-9332
yp	-9333
.12	-9334
ige	-9335
ຫິດ	-9336
▁MC	-9337
▁te	-9338
abol	-9339
head	-9340
isha	-9341
ktop	-9342
ພາວະ	-9343
ຽງໄຮ	-9344
ໄຫລ່	-9345
▁105	-9346
▁650	-9347
▁ODM	-9348
▁ter	-9349
other	-9350
ມາຮອດ	-9351
▁Camb	-9352
▁Hero	-9353
rystal	-9354
ກູ້ຢືມ	-9355
ຄໍາວ່າ	-9356
▁Epson	-9357
▁ແນວໃດ	-9358
ພີ່ນ້ອງ	-9359
ຫມູນວຽນ	-9360
▁ທົ່ວໄປ	-9361
ໄຮໂດຼລິກ	-9362
▁ຜິວຫນັງ	-9363
ເຊື້ອເຊີນ	-9364
▁Archives	-9365
ຄິດກ່ຽວກັບ	-9366
ຊີ້ໃຫ້ເຫັນ	-9367
▁ການຄຸ້ມຄອງ	-9368
▁ຄວາມຮູ້ສຶກ	-9369
989993989993	-9370
ຂອງເຄື່ອງຈັກ	-9371
ມີຄວາມຫຍຸ້ງຍາກ	-9372
ເພື່ອໃຫ້ໄດ້ຮັບ	-9373
GD	-9374
elo	-9375
get	-9376
vis	-9377
ຫາບ	-9378
ໂກ້	-9379
ixer	-9380
mark	-9381
ming	-9382
ຊະນີ	-9383
ນິ້ວ	-9384
▁rou	-9385
▁ກຸງ	-9386
asure	-9387
iness	-9388
ional	-9389
urity	-9390
ຍາກໍາ	-9391
ເຍື່ອ	-9392
▁Auto	-9393
▁Call	-9394
▁Phot	-9395
▁ສະຕີ	-9396
▁ສ້ອມ	-9397
▁ຫງົບ	-9398
▁ຫຍາຍ	-9399
▁ເອກະ	-9400
▁ໄປຫາ	-9401
ກໍ່ໄດ້	-9402
ໂອ້ລົມ	-9403
▁Paris	-9404
▁screw	-9405
▁ຈະບໍ່	-9406
▁ສາຍຕາ	-9407
iffuser	-9408
ຂອງແຫຼວ	-9409
ຄວາມບໍ່	-9410
ວ່າຈະມີ	-9411
▁(2015)	-9412
▁ບົດຂຽນ	-9413
ລະດູຮ້ອນ	-9414
▁ສັດລ້ຽງ	-9415
▁ຄວາມເປັນ	-9416
▁ຫຼາຍກວ່າ	-9417
ເຫຼັກເຫຼັກ	-9418
ໃຫ້ພວກເຂົາ	-9419
▁Generator	-9420
▁ທີ່ສໍາຄັນ	-9421
▁ຜົນປະໂຫຍດ	-9422
ດັ່ງກ່າວໄດ້	-9423
ສາມາດເຮັດໃຫ້	-9424
▁ພຣະພຸດທະເຈົ້າ	-9425
uo	-9426
▁;	-9427
.30	-9428
13)	-9429
ibr	-9430
ປອດ	-9431
ອຶດ	-9432
▁.:	-9433
▁MY	-9434
▁ps	-9435
▁ແຫ	-9436
arak	-9437
face	-9438
rich	-9439
ກວາງ	-9440
ຫຍິບ	-9441
ເພັດ	-9442
▁Aqu	-9443
▁LLC	-9444
▁Set	-9445
glish	-9446
ຊີຟິກ	-9447
ໄດ້ດີ	-9448
ailand	-9449
ທໍາມະນ	-9450
ສໍາຜັດ	-9451
▁Enter	-9452
ດ້ານການ	-9453
ປະຕິຮູບ	-9454
ໃຈທີ່ຈະ	-9455
▁Length	-9456
▁Market	-9457
▁plugin	-9458
▁ກັບການ	-9459
▁ເຫຼັ້ມ	-9460
ທີ່ມາຈາກ	-9461
ນັກສຶກສາ	-9462
▁ມື້ນັ້ນ	-9463
ອາໄສຢູ່ໃນ	-9464
ເມື່ອຂ້ອຍ	-9465
ແບບຈໍາລອງ	-9466
▁ກໍາປູເຈຍ	-9467
▁ຫນັກຫນ່ວງ	-9468
ທັງຫມົດແມ່ນ	-9469
ບັນດາໂຄງການ	-9470
ແລະຄວາມສາມາດ	-9471
ຈຸດຫມາຍປາຍທາງ	-9472
▁semiconductors	-9473
II	-9474
ມມ	-9475
aft	-9476
bag	-9477
met	-9478
ser	-9479
ກະດ	-9480
ປຸກ	-9481
ປົດ	-9482
▁ໄດ	-9483
anth	-9484
item	-9485
ຊຸ່ມ	-9486
▁16,	-9487
▁Dem	-9488
▁PHP	-9489
▁Pot	-9490
▁fil	-9491
▁ບ້າ	-9492
▁ເຈດ	-9493
ອິຣັກ	-9494
ໄປຈາກ	-9495
▁Prof	-9496
▁ຖ້ວມ	-9497
▁ພາຍຸ	-9498
▁ເສີດ	-9499
ທີ່ໃຫ້	-9500
ປະຫລາດ	-9501
ັກຊິໂກ	-9502
້ຽວບິນ	-9503
▁Smith	-9504
ທຸກໆມື້	-9505
▁Driver	-9506
▁ຂ້ອຍຈະ	-9507
▁ເຈົ້ານ	-9508
atalogue	-9509
▁Netflix	-9510
▁Program	-9511
ຊ່ວຍຊີວິດ	-9512
ເຫລົ່ານັ້ນ	-9513
▁ອະນຸຍາດໃຫ້	-9514
▁ເພື່ອແນໃສ່	-9515
ແລະພວກເຮົາຈະ	-9516
ທາງດ້ານການເງິນ	-9517
/5	-9518
RP	-9519
yi	-9520
ວໍ	-9521
170	-9522
esc	-9523
mon	-9524
ດູນ	-9525
▁sn	-9526
dict	-9527
ijia	-9528
ທ່ຽງ	-9529
▁Gir	-9530
▁ດານ	-9531
▁ພຽນ	-9532
ເລັ່ງ	-9533
▁Corp	-9534
▁game	-9535
▁over	-9536
▁ແຫນງ	-9537
ມະເຮັງ	-9538
ໄປສະນີ	-9539
ທີ່ແລ້ວ	-9540
ພັນລະຍາ	-9541
ຫວັງວ່າ	-9542
ອ້າງວ່າ	-9543
ທໍາມະນູນ	-9544
າລະໂອກາດ	-9545
▁ບັງເກີດ	-9546
▁ບໍລິເວນ	-9547
▁ອົງປະກອບ	-9548
ເຮັດວຽກຢູ່	-9549
▁ການຈັດການ	-9550
ຢ່າງສິ້ນເຊີງ	-9551
▁ແຫຼ່ງຂໍ້ມູນ	-9552
CI	-9553
PN	-9554
PT	-9555
ດິ	-9556
ໄຍ	-9557
ixi	-9558
utt	-9559
ມອງ	-9560
ສະນ	-9561
ຫ້ວ	-9562
ເຄຣ	-9563
▁FI	-9564
▁HU	-9565
▁kg	-9566
ລະນາ	-9567
ລິຍະ	-9568
ສະຖາ	-9569
ັກຄີ	-9570
arius	-9571
ophil	-9572
ulose	-9573
▁Qual	-9574
▁mini	-9575
▁ສະເຕ	-9576
ເກມເກມ	-9577
▁Innov	-9578
ນີ້ເປັນ	-9579
ການສະແດງ	-9580
ຊະນະເລີດ	-9581
ທີ່ຈະນໍາ	-9582
ແລະບໍ່ມີ	-9583
ໃນເລື່ອງ	-9584
▁scanner	-9585
▁ການອ່ານ	-9586
ຂອງຮ່າງກາຍ	-9587
ຊາວກະສິກອນ	-9588
ຕົວທ່ານເອງ	-9589
ເຄື່ອງດື່ມ	-9590
ເວລາດົນນານ	-9591
▁ຕົ້ນສະບັບ	-9592
▁ອີງຕາມການ	-9593
categorized	-9594
ແລະການຜະລິດ	-9595
▁ກະຕືລືລົ້ນ	-9596
ໂຮງງານໂຮງງານ	-9597
Qu	-9598
ki	-9599
໊ກ	-9600
-40	-9601
ວຽດ	-9602
ໂຕະ	-9603
▁TV	-9604
ient	-9605
ones	-9606
uddy	-9607
▁Bao	-9608
▁ROW	-9609
▁XML	-9610
▁ສາບ	-9611
▁ແພ້	-9612
ໄດ້ມີ	-9613
▁CSGO	-9614
▁Idea	-9615
▁Mesh	-9616
▁Test	-9617
▁cont	-9618
▁ຫລອກ	-9619
▁ເອັດ	-9620
ກະເປົາ	-9621
ປະເພນີ	-9622
ເລື່ອນ	-9623
▁2017.	-9624
ຂັດແຍ່ງ	-9625
ແລະຂ້ອຍ	-9626
▁Router	-9627
▁cheats	-9628
▁ບັນດານ	-9629
▁ສິດສອນ	-9630
▁ແລະຜູ້	-9631
▁ໄຕ່ຕອງ	-9632
ຈັກກະວານ	-9633
ໃນຄອບຄົວ	-9634
▁ຂຸດຄົ້ນ	-9635
▁ຕໍາຫລວດ	-9636
▁ຄວາມຮ້ອນ	-9637
▁ອ້າງເຖິງ	-9638
▁ຕໍ່ໄປແມ່ນ	-9639
ຂອງພຣະເຈົ້າ	-9640
▁galvanized	-9641
▁Refinecolor	-9642
ລູກຄ້າຂອງພວກເຮົາ	-9643
iu	-9644
la	-9645
ຮາ	-9646
999	-9647
jin	-9648
rug	-9649
ຈົກ	-9650
▁AN	-9651
▁IC	-9652
▁IS	-9653
▁MA	-9654
▁ss	-9655
▁ນ໌	-9656
NESS	-9657
avic	-9658
gang	-9659
ດ່ຽວ	-9660
ຜູ້ນ	-9661
ພາລາ	-9662
▁Act	-9663
▁Lev	-9664
▁ຂວດ	-9665
▁ໂລດ	-9666
indle	-9667
ປະພຶດ	-9668
ໃຈກາງ	-9669
▁Hond	-9670
▁Viet	-9671
▁Vill	-9672
▁that	-9673
▁ເຢຊູ	-9674
▁ໃກ້ໆ	-9675
ຖືກຈັບ	-9676
ະໂຍບາຍ	-9677
ໃກ້ຄຽງ	-9678
ຄຣິສຕຽນ	-9679
ດາວເຄາະ	-9680
ບັນເທີງ	-9681
ເວລານີ້	-9682
ໂທລະທັດ	-9683
ໃນໂອກາດ	-9684
▁Pocket	-9685
▁ອອກຈາກ	-9686
▁ອຸປະຕິ	-9687
▁Ceramic	-9688
▁ແມ່ນແຕ່	-9689
ຂອງອົງການ	-9690
ຄໍາຮ້ອງຂໍ	-9691
ເຂົ້າຫນົມ	-9692
ຄວາມຜິດພາດ	-9693
▁ທ່ານອາດຈະ	-9694
▁ເດືອນພະຈິກ	-9695
It	-9696
res	-9697
ນົມ	-9698
ຟຸກ	-9699
ລຽນ	-9700
ຫມູ	-9701
່ວິ	-9702
▁87	-9703
atte	-9704
engo	-9705
rane	-9706
ິຍົມ	-9707
ເດົາ	-9708
▁135	-9709
▁Bit	-9710
▁Bos	-9711
▁ຄອຍ	-9712
▁ໄຖ່	-9713
28113	-9714
ຖາວອນ	-9715
▁CNIL	-9716
▁ສັ່ນ	-9717
ລົບກວນ	-9718
ອາວຸໂສ	-9719
▁Azure	-9720
▁Frank	-9721
▁Intel	-9722
▁ຍຸດຕິ	-9723
ຂັ້ນສູງ	-9724
ຈໍາເພາະ	-9725
ແມ່ນຍໍາ	-9726
▁ສີເທົາ	-9727
ມາດຕະການ	-9728
ໂດດເດັ່ນ	-9729
▁1528113	-9730
▁Casengo	-9731
▁Jizerou	-9732
▁ຂະນະທີ່	-9733
ຄູ່ຮ່ວມມື	-9734
ທົນທານຕໍ່	-9735
ຍົກຕົວຢ່າງ	-9736
ໄດ້ກາຍເປັນ	-9737
▁ເຂົ້າໄປໃນ	-9738
ການຈ່າຍເງິນ	-9739
ບໍ່ດົນມານີ້	-9740
▁ການເຄື່ອນໄຫວ	-9741
▁ມົນທົນຊານຕົງ	-9742
ລັດຖະມົນຕີກະຊວງ	-9743
▁ກ່າວຄໍາເຫັນທີ່	-9744
pc	-9745
16)	-9746
aha	-9747
bus	-9748
uel	-9749
ງວດ	-9750
▁UL	-9751
chat	-9752
rong	-9753
vers	-9754
▁12,	-9755
▁Hun	-9756
▁MCS	-9757
▁ult	-9758
▁ປືນ	-9759
▁ອວດ	-9760
▁ແສນ	-9761
▁ໄຮ່	-9762
prise	-9763
ທາລະນ	-9764
ເລເຊີ	-9765
ແປກໃຈ	-9766
ໂບນັດ	-9767
▁Back	-9768
▁Doll	-9769
Casino	-9770
ITNESS	-9771
itemap	-9772
ຍົກສູງ	-9773
ມາເປັນ	-9774
ເຫຼັ້ມ	-9775
ໂຕ້ຕອບ	-9776
▁Cheng	-9777
▁Conne	-9778
ການສົ່ງ	-9779
ຄົນນັ້ນ	-9780
▁Shijia	-9781
▁bottom	-9782
▁ໃນຊ່ວງ	-9783
ຈະມາເຖິງ	-9784
ຜູ້ຫນຶ່ງ	-9785
▁ປະເທດໄທ	-9786
ຜູ້ໂດຍສານ	-9787
ສ່ວນຫນຶ່ງ	-9788
ໂອກາດທີ່ຈະ	-9789
▁ບໍ່ພຽງແຕ່	-9790
▁ເນັ້ນຫນັກ	-9791
ຄວາມແຕກຕ່າງ	-9792
▁ສາດສະຫນາຈັກ	-9793
▁Shijiazhuang	-9794
▁ການເຊື່ອມຕໍ່	-9795
▁ສິດທິທັງຫມົດ	-9796
ພື້ນຖານເສດຖະກິດ	-9797
RC	-9798
”,	-9799
▁]	-9800
-80	-9801
una	-9802
ຍຶດ	-9803
ຕຶກ	-9804
ຟອດ	-9805
ລ້າ	-9806
▁RO	-9807
aber	-9808
ກາລະ	-9809
▁CBD	-9810
▁CIS	-9811
▁DIN	-9812
▁ປິກ	-9813
▁ແຮ່	-9814
oline	-9815
ource	-9816
ລະທໍາ	-9817
ເຫລໍກ	-9818
▁Bank	-9819
▁Full	-9820
▁Grat	-9821
▁Mart	-9822
▁Rich	-9823
▁Visa	-9824
▁Yang	-9825
▁neur	-9826
▁wind	-9827
ຫມໍ້ໄຟ	-9828
ແບັກທີ	-9829
▁Biote	-9830
▁EVFTA	-9831
▁mavic	-9832
▁ກະຈາຍ	-9833
▁ກໍ່ຄື	-9834
ແລະສ້າງ	-9835
▁Commun	-9836
▁Fabric	-9837
▁ຮຸນແຮງ	-9838
▁ເສື່ອມ	-9839
▁ເອື້ອມ	-9840
ຕ້ອງເຮັດ	-9841
ມິດຕະພາບ	-9842
▁Company	-9843
▁Flatbed	-9844
ຊ່ອງຫວ່າງ	-9845
ການສົນທະນາ	-9846
ຂອງທ່ານແມ່ນ	-9847
▁ເຄື່ອງຫມາຍ	-9848
▁ໃນເດືອນຕຸລາ	-9849
ຄວາມເປັນໄປໄດ້	-9850
ທີ່ຫນ້າອັດສະຈັນ	-9851
▁...............	-9852
?"	-9853
Bl	-9854
IU	-9855
Sl	-9856
km	-9857
aya	-9858
gin	-9859
rig	-9860
ຮວມ	-9861
▁67	-9862
▁BL	-9863
▁Fu	-9864
-100	-9865
2005	-9866
ດີຈີ	-9867
ຫຍຸດ	-9868
▁15,	-9869
▁25,	-9870
▁Inf	-9871
▁ທວນ	-9872
email	-9873
ສະການ	-9874
ສະສົມ	-9875
▁Game	-9876
▁Nash	-9877
▁ທ່ຽງ	-9878
▁ຫມວກ	-9879
ຊິງຕັນ	-9880
ເຄີຍມີ	-9881
▁tubes	-9882
ວິຊາຊີບ	-9883
ວິໄສທັດ	-9884
ໄວຫນຸ່ມ	-9885
▁500000	-9886
ແລະລະບົບ	-9887
▁ອະນຸມັດ	-9888
▁ໃນບັນດາ	-9889
ກອງກໍາລັງ	-9890
ການຟື້ນຟູ	-9891
ຂະຫນາດຂອງ	-9892
ງ່າຍທີ່ຈະ	-9893
ປະເມີນຜົນ	-9894
ແນະນໍາໃຫ້	-9895
▁ບໍ່ສາມາດ	-9896
▁Guangzhou	-9897
▁ພິເສດແມ່ນ	-9898
▁ເລືອກເອົາ	-9899
ອຸນຫະພູມສູງ	-9900
▁ໄດ້ດໍາເນີນ	-9901
ຍິນດີຕ້ອນຮັບ	-9902
▁ເປັນບໍລິສັດ	-9903
ຜະລິດຕະພັນຫຼື	-9904
▁ການຊໍາລະເງິນ	-9905
ຣກ	-9906
-05	-9907
-25	-9908
.08	-9909
160	-9910
ືອຍ	-9911
ົ໋າ	-9912
໋ອງ	-9913
▁ດຣ	-9914
ailb	-9915
feng	-9916
unny	-9917
yang	-9918
ຫມັນ	-9919
ຸດິບ	-9920
▁50%	-9921
▁Big	-9922
▁Mad	-9923
▁Sav	-9924
▁met	-9925
▁nad	-9926
▁ຕອງ	-9927
ລາບານ	-9928
ສະຈາກ	-9929
ອີຣັກ	-9930
▁ປະຈຸ	-9931
ກົນຈັກ	-9932
ທີ່ພັກ	-9933
ບໍ່ຄວນ	-9934
ານາຊາດ	-9935
▁Proxy	-9936
▁synth	-9937
▁ເປົ໋າ	-9938
ລາຄາແພງ	-9939
ສິນລະປະ	-9940
ຫ້ອງຮຽນ	-9941
▁Royale	-9942
▁pixels	-9943
▁English	-9944
ການຮຽນຮູ້	-9945
ຂອງທ່ານໃນ	-9946
ເນັ້ນຫນັກ	-9947
▁sandwich	-9948
ກັບພວກເຮົາ	-9949
ຜິດກົດຫມາຍ	-9950
▁2006-2020	-9951
▁ເທົ່ານັ້ນ	-9952
▁ການຕໍ່ຕ້ານ	-9953
▁ຢູ່ຮ່າໂນ້ຍ	-9954
▁ນັກວິທະຍາສາດ	-9955
▁Uncategorized	-9956
▁ຂຸດຄົ້ນບໍ່ແຮ່	-9957
Cl	-9958
ba	-9959
ຟິ	-9960
-21	-9961
APE	-9962
ERI	-9963
GSM	-9964
TER	-9965
elt	-9966
ese	-9967
uth	-9968
ຂັງ	-9969
ແພ້	-9970
ໂພງ	-9971
▁Do	-9972
▁Pi	-9973
▁sa	-9974
asma	-9975
ນາດາ	-9976
▁13,	-9977
▁HDL	-9978
▁Ham	-9979
▁Let	-9980
▁Nan	-9981
▁ປອກ	-9982
ກໍ່ຄື	-9983
ກໍ່ຈະ	-9984
ເຖົ້າ	-9985
້ນ້ໍາ	-9986
▁Spot	-9987
▁serv	-9988
▁ຮ່ອງ	-9989
▁ແຍ່ງ	-9990
ແຫວງຫາ	-9991
▁ພິການ	-9992
ທີ່ເຮົາ	-9993
ຫ່າງໄກສ	-9994
▁sulfur	-9995
▁ກອງທຶນ	-9996
▁ທີ່ສຸດ	-9997
▁ສິລະປະ	-9998
▁ເຫຍື່ອ	-9999
osilicon	-10000
ການໂຈມຕີ	-10001
ເຖິງແມ່ນ	-10002
ແຕ່ງຕັ້ງ	-10003
ແມ່ນເປັນ	-10004
ກັນແລະກັນ	-10005
ການລະເບີດ	-10006
▁ສະຫນາມບິນ	-10007
ການຕັດສິນໃຈ	-10008
ຄຸນນະພາບຂອງ	-10009
ແລະເຄື່ອງຈັກ	-10010
▁ຄຸນນະພາບສູງ	-10011
▁ສະຫນັບສະຫນູນການ	-10012
be	-10013
lr	-10014
ຈ໌	-10015
-60	-10016
EMA	-10017
LTD	-10018
vas	-10019
▁SW	-10020
anca	-10021
enny	-10022
ping	-10023
ປົ່ງ	-10024
ລັ່ງ	-10025
ີເມວ	-10026
ແກັດ	-10027
▁AAS	-10028
▁Dom	-10029
▁bug	-10030
▁equ	-10031
▁ອານ	-10032
▁ແຊກ	-10033
Point	-10034
otton	-10035
phone	-10036
ອາລົມ	-10037
▁Alex	-10038
▁pass	-10039
▁ບ່າຍ	-10040
ຢືນຢູ່	-10041
ອີກວ່າ	-10042
ຮູບຊົງ	-10043
▁Spray	-10044
▁ສົງໄສ	-10045
▁ຫຼາຍໆ	-10046
ຂອງຂວັນ	-10047
ດີຈີຕອນ	-10048
ຕໍ່ຫນ້າ	-10049
ຮູບຖ່າຍ	-10050
ຮ່ວມເພດ	-10051
▁ພາກຮຽນ	-10052
▁ວ່າການ	-10053
arbonate	-10054
ປະເທດຊາດ	-10055
ເຕົ້າໂຮມ	-10056
ເວັບໄຊຕ໌	-10057
▁William	-10058
▁ພາລະກິດ	-10059
▁ມາເລເຊຍ	-10060
ນະຄອນຫຼວງ	-10061
▁Pressure	-10062
ພື້ນຖານຂອງ	-10063
▁ການວິເຄາະ	-10064
▁ຖານຂໍ້ມູນ	-10065
ທາງການເມືອງ	-10066
ດັ່ງຕໍ່ໄປນີ້	-10067
▁ໄດ້ເວົ້າວ່າ	-10068
ທີ່ພວກເຮົາໄດ້	-10069
▁ການເກັບຮັກສາ	-10070
▁ພວກເຮົາກໍາລັງ	-10071
▁ຄວາມສາມາດໃນການ	-10072
Fl	-10073
MH	-10074
RI	-10075
Un	-10076
ua	-10077
ຈອງ	-10078
ບໄຊ	-10079
ຫລງ	-10080
ແງ່	-10081
໊ອບ	-10082
1390	-10083
ປະດາ	-10084
ຫມາດ	-10085
ຫລີກ	-10086
ໆທີ່	-10087
▁Bad	-10088
▁Ink	-10089
▁Lab	-10090
▁Pul	-10091
▁cat	-10092
▁ຖອນ	-10093
▁ຫາດ	-10094
▁ເທີ	-10095
izing	-10096
minal	-10097
ສົງໃສ	-10098
ເອເຊຍ	-10099
▁Snap	-10100
▁ມຸ່ງ	-10101
actory	-10102
urgaon	-10103
ອີເມລ໌	-10104
ື້ອງອກ	-10105
▁State	-10106
ຄາດຫມາຍ	-10107
ຊະຍາກໍາ	-10108
ລິຟໍເນຍ	-10109
ເປົ໋າກະ	-10110
▁design	-10111
▁ຄາດວ່າ	-10112
ຫມູ່ບ້ານ	-10113
ຫລາຍຂື້ນ	-10114
ຮັບມືກັບ	-10115
ໄວ້ວາງໃຈ	-10116
▁Manager	-10117
ບັງຄັບໃຫ້	-10118
▁ຮອງປະທານ	-10119
ການປະກັນໄພ	-10120
ໃນທ້ອງຖິ່ນ	-10121
▁Converter	-10122
▁ແນ່ນອນວ່າ	-10123
ພື້ນຖານແລ້ວ	-10124
ແລະເຄື່ອງມື	-10125
▁Fiberglass	-10126
▁ທີ່ເອີ້ນວ່າ	-10127
▁ນ້ໍາຫນັກຂອງ	-10128
1819181918191819	-10129
ດຽ	-10130
ທຸ	-10131
ໄບ	-10132
-03	-10133
ker	-10134
olf	-10135
ໄຮ້	-10136
▁TW	-10137
Tool	-10138
cont	-10139
ites	-10140
phen	-10141
ມ້ວນ	-10142
ະລັກ	-10143
ື່ອຍ	-10144
ເນົາ	-10145
ແອັດ	-10146
▁29,	-10147
▁SGS	-10148
▁spe	-10149
▁ລຸງ	-10150
▁ໂກງ	-10151
ading	-10152
ainer	-10153
fiber	-10154
ments	-10155
ຕົກໃຈ	-10156
ສາດສະ	-10157
▁1600	-10158
▁Cell	-10159
▁Flex	-10160
▁More	-10161
▁Tech	-10162
ຄົງທີ່	-10163
ວິທະຍຸ	-10164
ອີງຕາມ	-10165
ໄປເຖິງ	-10166
▁Honda	-10167
▁Spong	-10168
▁Times	-10169
▁ເຊົ່າ	-10170
utorial	-10171
ດູດຝຸ່ນ	-10172
ລູມິນຽມ	-10173
ສູງກວ່າ	-10174
ສ່ວນທີ່	-10175
ເດິນທາງ	-10176
▁ຜູ້ຂຽນ	-10177
ວົງໂຄຈອນ	-10178
▁Jiangsu	-10179
▁ລາວກ່າວ	-10180
▁Diffuser	-10181
▁ເຫມາະສົມ	-10182
ຂອງທ່ານເອງ	-10183
▁ເດືອນເມສາ	-10184
▁ເມື່ອເຮົາ	-10185
ກ້ອງຖ່າຍຮູບ	-10186
ປົກປັກຮັກສາ	-10187
ຫນ້າເຊື່ອຖື	-10188
▁ການບໍລິໂພກ	-10189
▁ເດືອນທັນວາ	-10190
ໄວ້ໃນຕອນຕົ້ນ	-10191
▁ລະບົບຕ່ອງໂສ້	-10192
▁ລະຫັດບໍລິສັດ	-10193
▁ຕອນເຊົ້າວັນທີ	-10194
EW	-10195
SS	-10196
140	-10197
iki	-10198
oom	-10199
ໂສກ	-10200
▁IB	-10201
ober	-10202
prop	-10203
stan	-10204
ກະເບ	-10205
ອັກຄ	-10206
ເອກະ	-10207
▁NZD	-10208
▁SQL	-10209
▁ind	-10210
▁int	-10211
▁ຈົງ	-10212
▁ປິນ	-10213
iller	-10214
xiang	-10215
ກະບອກ	-10216
ບັນຊາ	-10217
ຜູ້ໃດ	-10218
ວິກິດ	-10219
ຫນ້ານ	-10220
ເພິ່ງ	-10221
▁Ling	-10222
▁ຕ້ອນ	-10223
▁ວຸ້ນ	-10224
▁ແຕ່ນ	-10225
covery	-10226
ກະທັ້ງ	-10227
ນີ້ແລະ	-10228
ວິນາທີ	-10229
ເຫມືອນ	-10230
▁Opera	-10231
▁Print	-10232
▁Share	-10233
▁Silic	-10234
▁ອິດສະ	-10235
ລ້ານຄົນ	-10236
ຫັນປ່ຽນ	-10237
ໄຂ້ຫວັດ	-10238
▁Carbon	-10239
▁ທຸກຄົນ	-10240
▁ແຕ່ຍັງ	-10241
ທົດສະວັດ	-10242
▁Atlanta	-10243
▁ປະລິນຍາ	-10244
ຫຼາຍປານໃດ	-10245
▁download	-10246
▁ຫມາກເຜັດ	-10247
ບັນຊີລາຍການ	-10248
ເປັນມືອາຊີບ	-10249
▁ການປົກປ້ອງ	-10250
▁ມະຫາສະຫມຸດ	-10251
▁ມັນບໍ່ແມ່ນ	-10252
ວິວັດທະນາການ	-10253
ອ້າງອີງອ້າງອີງ	-10254
▁ດັ່ງນັ້ນພວກເຮົາ	-10255
ກຸ	-10256
110	-10257
ຈອກ	-10258
ຈົມ	-10259
ເອນ	-10260
ໂອບ	-10261
Chat	-10262
bert	-10263
elin	-10264
iper	-10265
itor	-10266
xbet	-10267
▁End	-10268
▁Hum	-10269
▁pvc	-10270
▁ນົງ	-10271
▁ແຫວ	-10272
▁ໂສດ	-10273
ຖຸດິບ	-10274
▁ຫວຽດ	-10275
▁ເດັດ	-10276
▁ແອັບ	-10277
▁ໂທຫາ	-10278
change	-10279
ຂອງຫົວ	-10280
ຈາກຈີນ	-10281
ທີ່ເຄຍ	-10282
ມັນໄດ້	-10283
ຢາກໃຫ້	-10284
ລາຍຮັບ	-10285
ເຫມືອງ	-10286
▁buddy	-10287
▁ໂດຍມີ	-10288
ປັບແຕ່ງ	-10289
ອາໄສຢູ່	-10290
▁Odisha	-10291
▁ລົງທຶນ	-10292
▁ອົບຮົມ	-10293
ຫຼາຍຮ້ອຍ	-10294
ອອກມາຈາກ	-10295
ະພະຍາຍາມ	-10296
▁ເປັນການ	-10297
▁ເມຣິກັນ	-10298
ification	-10299
ທາລະນະລັດ	-10300
ໃບໄມ້ປົ່ງ	-10301
▁Electron	-10302
▁ວົງໂຄຈອນ	-10303
▁ຫ້ອງນໍ້າ	-10304
ສະມາຊິກຂອງ	-10305
ເປັນຕົວແທນ	-10306
ແລະປະຕິບັດ	-10307
▁ການສະຫນອງ	-10308
ຂອງເດັກນ້ອຍ	-10309
ມີຄວາມສົນໃຈ	-10310
ສາມາດໃຊ້ໄດ້	-10311
▁ງວນລິຂະສິດ	-10312
ທໍາຄວາມສະອາດ	-10313
ທີ່ທ່ານໄດ້ຮັບ	-10314
▁ຕອນບ່າຍວັນທີ	-10315
ພາສາລາວພາສາລາວ	-10316
ມາດຕະຖານມາດຕະຖານ	-10317
54	-10318
Ex	-10319
fa	-10320
1.5	-10321
bul	-10322
can	-10323
jet	-10324
lon	-10325
ຄືບ	-10326
ທຽນ	-10327
ບົກ	-10328
ສະຕ	-10329
▁do	-10330
elle	-10331
pher	-10332
yuan	-10333
ພ່ອງ	-10334
ໄອທີ	-10335
▁Mah	-10336
▁Que	-10337
▁Tan	-10338
▁ant	-10339
▁cer	-10340
▁ຂັງ	-10341
▁ງົດ	-10342
▁ທິມ	-10343
▁ຟອງ	-10344
field	-10345
ility	-10346
ໂຊກດີ	-10347
▁2001	-10348
▁HBOT	-10349
▁ຂື້ນ	-10350
ປີກ່ອນ	-10351
ສະຫລອງ	-10352
ໄວ້ວ່າ	-10353
▁ຈະຖືກ	-10354
▁ຊາວນາ	-10355
▁ເອເຊຍ	-10356
ablanca	-10357
ແມ່ນ້ໍາ	-10358
▁Comedy	-10359
▁Engine	-10360
▁Turkey	-10361
▁ຕົ້ນຕໍ	-10362
▁ວົງຈອນ	-10363
ລາບານເຕະ	-10364
ເຮັດສິ່ງ	-10365
▁Measure	-10366
▁scratch	-10367
▁ຄໍາເຫັນ	-10368
▁ນັກຂ່າວ	-10369
ທີ່ບໍ່ໄດ້	-10370
ທີ່ສະຫຼາດ	-10371
ຜູ້ຈັດການ	-10372
ແລະຊຸມຊົນ	-10373
ຄວາມສະຫງົບ	-10374
ເຂົ້າລະຫັດ	-10375
ເຮັດໃຫ້ມັນ	-10376
▁ສະຖານະການ	-10377
ຄວາມສໍາເລັດ	-10378
ທີ່ສຸດໃນໂລກ	-10379
ສິ່ງທີ່ຂ້ອຍ	-10380
ໃນຕອນກາງຄືນ	-10381
▁Casablanca	-10382
ດ້ານຈັນຍາບັນ	-10383
▁ຈີນຜູ້ຜະລິດ	-10384
ເພື່ອຮັບປະກັນ	-10385
zy	-10386
-02	-10387
-17	-10388
-90	-10389
="2	-10390
ask	-10391
rim	-10392
ych	-10393
ກາກ	-10394
ນຸມ	-10395
ຣີດ	-10396
າະນ	-10397
▁69	-10398
▁HT	-10399
▁Na	-10400
▁ຮາ	-10401
star	-10402
ward	-10403
ຈະລາ	-10404
▁1.6	-10405
▁Apr	-10406
▁Rom	-10407
▁bon	-10408
▁ສະກ	-10409
netic	-10410
ປັດໄຈ	-10411
ໃນຮອບ	-10412
▁Feed	-10413
▁Kids	-10414
ກັບຄົນ	-10415
ການອອກ	-10416
ບັນຍາຍ	-10417
▁Forum	-10418
▁Price	-10419
▁Techn	-10420
▁ຍັງມີ	-10421
▁ເສຍໃຈ	-10422
aterial	-10423
ມໍລະດົກ	-10424
ລິມະສິດ	-10425
ສາລະເອວ	-10426
ຫຼາຍແລະ	-10427
▁Darius	-10428
ateboard	-10429
▁Casting	-10430
▁Package	-10431
▁Trading	-10432
▁ຂຶ້ນກັບ	-10433
ຖະແຫຼງການ	-10434
▁modified	-10435
ສິ່ງສໍາຄັນ	-10436
▁Cartridge	-10437
▁propeller	-10438
▁ຂະຫນາດໃຫຍ່	-10439
▁ຊັບພະຍາກອນ	-10440
ສະເພາະໃດຫນຶ່ງ	-10441
▁ວິວັດທະນາການ	-10442
ເຊັ່ນດຽວກັນກັບ	-10443
▁ແລະຂ້າພະເຈົ້າ	-10444
ຕາເວັນອອກສ່ຽງໃຕ້	-10445
▁ລັດຖະມົນຕີກະຊວງ	-10446
AY	-10447
sss	-10448
zip	-10449
ງົວ	-10450
ທິມ	-10451
ຢ່າ	-10452
ເລີ	-10453
▁EP	-10454
▁ນູ	-10455
9999	-10456
ense	-10457
ills	-10458
ຖົ່າ	-10459
ມ່ວງ	-10460
ຢັ້ງ	-10461
▁3.2	-10462
▁DMF	-10463
▁Han	-10464
▁Hub	-10465
▁Reg	-10466
▁Sea	-10467
▁UAE	-10468
▁ແມນ	-10469
older	-10470
rogen	-10471
umblr	-10472
ສາມັນ	-10473
ໍານຶງ	-10474
▁Tele	-10475
▁VAPE	-10476
▁ຍ່ອຍ	-10477
▁ຮົ້ວ	-10478
▁ເຄັດ	-10479
ຈະເລີນ	-10480
ຕ້ອງມີ	-10481
ຢູ່ນອກ	-10482
ໂມຊັ່ນ	-10483
▁ຕາລາງ	-10484
ເປີດຕົວ	-10485
ແມ່ນໄດ້	-10486
▁Burner	-10487
▁valves	-10488
▁ກໍາຈັດ	-10489
▁ທ່ານມີ	-10490
▁ນັ້ນຄື	-10491
ailbreak	-10492
ຂີ້ເຖົ່າ	-10493
ຕ່າງໆຂອງ	-10494
▁Limited	-10495
▁ແລະຄວາມ	-10496
ການຕະຫຼາດ	-10497
▁ພ້ອມດ້ວຍ	-10498
▁ເຈົ້າຢາກ	-10499
▁ໃນທີ່ສຸດ	-10500
▁ໄຟຟ້າຈາກ	-10501
ຢ່າງຮຸນແຮງ	-10502
ແລະຫຼັງຈາກນັ້ນ	-10503
▁ອົງການຈັດຕັ້ງ	-10504
ທີ່ສະຫຼັບຊັບຊ້ອນ	-10505
,"	-10506
01	-10507
df	-10508
ຫນິ	-10509
▁5%	-10510
▁Bh	-10511
▁DH	-10512
▁EX	-10513
▁GT	-10514
aked	-10515
eler	-10516
ette	-10517
▁3.5	-10518
▁CEO	-10519
▁Feb	-10520
▁Kit	-10521
▁car	-10522
▁tra	-10523
▁ດູກ	-10524
▁ທັກ	-10525
▁ບ່າ	-10526
▁ມອນ	-10527
cheng	-10528
ຕະກໍາ	-10529
▁Bang	-10530
▁Cash	-10531
▁Coun	-10532
▁ບູຊາ	-10533
▁ເມນູ	-10534
ຄົນດຽວ	-10535
ບັນດາກ	-10536
ແລະຖືກ	-10537
ໃນກຸ່ມ	-10538
▁ກາຕູນ	-10539
▁ເຝົ້າ	-10540
ຈະລາຈອນ	-10541
ຈົນກວ່າ	-10542
ບອກທ່ານ	-10543
ກ້ອງກ້ອງ	-10544
ໄລຍະເວລາ	-10545
▁Gurgaon	-10546
▁Instrum	-10547
▁Michael	-10548
▁Molding	-10549
▁ກັນນ້ໍາ	-10550
▁ນໍ້າມັນ	-10551
ຄວາມສະດວກ	-10552
ທີ່ຊັດເຈນ	-10553
ຫນ້ອຍກວ່າ	-10554
ະລັດຖະທູດ	-10555
▁ການບັນຈຸ	-10556
▁Nashville	-10557
▁rendering	-10558
▁ການສື່ສານ	-10559
▁ທະນາຍຄວາມ	-10560
▁ສື່ມວນຊົນ	-10561
ທີ່ບໍ່ສາມາດ	-10562
ສໍາພັດພາຍໃນ	-10563
ອັກຄະລັດຖະທູດ	-10564
▁ໂດຍສື່ມວນຊົນ	-10565
ທາງດ້ານຮ່າງກາຍ	-10566
ເສັ້ນຜ່າສູນກາງ	-10567
ແລະສະຫນັບສະຫນູນ	-10568
▁ລະຫັດການປະກັນໄພ	-10569
":	-10570
-50	-10571
INE	-10572
ກັກ	-10573
ທືກ	-10574
ປອນ	-10575
ພວມ	-10576
ຢິວ	-10577
▁6.	-10578
▁HK	-10579
▁Ta	-10580
▁we	-10581
orge	-10582
west	-10583
ຄລິກ	-10584
ຕົວກ	-10585
ເຊີດ	-10586
ແວ່ນ	-10587
ໂຊຕາ	-10588
▁Cre	-10589
▁Lan	-10590
▁Nic	-10591
▁WCB	-10592
▁ຈອກ	-10593
▁ມຸງ	-10594
ublic	-10595
ຖືວ່າ	-10596
ວັນນະ	-10597
ສັ້ນໆ	-10598
ັກຮຽນ	-10599
▁1990	-10600
▁Bird	-10601
▁Xing	-10602
▁ອຸປະ	-10603
ຂອງຖົງ	-10604
ຈອດລົດ	-10605
ລາສສິກ	-10606
ໃນທ້າຍ	-10607
▁Color	-10608
▁Pharm	-10609
▁Range	-10610
▁Tread	-10611
▁ປະສານ	-10612
▁ເດີ່ນ	-10613
▁ໃນເຂດ	-10614
ຊາຍຝັ່ງ	-10615
ຍຸຕິທໍາ	-10616
ວ່າຂ້ອຍ	-10617
ສານເຄມີ	-10618
ແນວນັ້ນ	-10619
▁AASraw	-10620
▁dedust	-10621
oukville	-10622
ອັນດັບທີ	-10623
▁Village	-10624
Catalogue	-10625
ຄຣິດສະມາດ	-10626
ທີ່ຈະແຈ້ງ	-10627
▁ເປັນຕົ້ນ	-10628
ທີ່ເກີດຂຶ້ນ	-10629
▁ການປ້ອງກັນ	-10630
▁ຂະຫນາດນ້ອຍ	-10631
▁ດ້ວຍຫົວຂໍ້	-10632
▁ໃນປະເທດຈີນ	-10633
ຖະຫນົນຫົນທາງ	-10634
ໄດ້ເລີ່ມຕົ້ນ	-10635
ຫ່າງໄກສອກຫຼີກ	-10636
ແລະຄວາມຕ້ອງການ	-10637
▁Organosilicon	-10638
▁ປະທານນາທິບໍດີ	-10639
ຄ່	-10640
ORD	-10641
aga	-10642
aps	-10643
ຈັງ	-10644
ນ້ໍ	-10645
ັ໊ມ	-10646
▁!!	-10647
▁84	-10648
▁96	-10649
▁Ji	-10650
▁bi	-10651
▁ຕໍ	-10652
ency	-10653
ging	-10654
ival	-10655
ject	-10656
pack	-10657
ມຸ້ງ	-10658
▁123	-10659
▁Adv	-10660
▁CPT	-10661
▁Den	-10662
▁Gar	-10663
▁Her	-10664
▁Rab	-10665
▁Yan	-10666
▁ຈອດ	-10667
▁ຝາກ	-10668
▁ລາງ	-10669
ening	-10670
sssss	-10671
ຍຸໂຣບ	-10672
ລົດເມ	-10673
ເຮົານ	-10674
▁Bear	-10675
▁Chen	-10676
▁Gall	-10677
▁Size	-10678
▁this	-10679
▁ຈົ່ມ	-10680
ວັນສຸກ	-10681
ເຮັດໃນ	-10682
▁Money	-10683
▁Royal	-10684
▁favor	-10685
▁hover	-10686
▁ມະຊາດ	-10687
charger	-10688
ຄວາມຈໍາ	-10689
ຄວາມສູງ	-10690
ລຸ່ມນີ້	-10691
ສູງອາຍຸ	-10692
ຫຼັກຊັບ	-10693
ຮອບດ້ານ	-10694
ໃນອາທິດ	-10695
▁Fruity	-10696
▁Oracle	-10697
▁Tagged	-10698
▁cosmos	-10699
▁ທໍານາຍ	-10700
▁ວິທະຍາ	-10701
▁ວີດີໂອ	-10702
ຂ້າງຫນ້າ	-10703
ຄວາມຫມາຍ	-10704
▁acetate	-10705
▁ສອດຄ່ອງ	-10706
ophilized	-10707
ທີ່ຈະສ້າງ	-10708
ບຸກຄົນທີ່	-10709
ເພື່ອຊ່ວຍ	-10710
▁Electric	-10711
▁Passport	-10712
▁ເຊິ່ງແມ່ນ	-10713
ເປັນປົກກະຕິ	-10714
ໃນທົ່ວປະເທດ	-10715
ໃນປະຫວັດສາດ	-10716
▁ອິນໂດເນເຊຍ	-10717
ຄວາມໄວ້ວາງໃຈ	-10718
ຄາຂອງພວກເຮົາ	-10719
▁Dariussssss	-10720
ແລະອຸດສາຫະກໍາ	-10721
ທີ່ຈະໃຫ້ພວກເຮົາ	-10722
:.	-10723
DI	-10724
TO	-10725
-88	-10726
/12	-10727
ECT	-10728
azz	-10729
emy	-10730
urb	-10731
ຮັດ	-10732
ເຈດ	-10733
▁ER	-10734
▁ES	-10735
▁GW	-10736
back	-10737
ergy	-10738
outs	-10739
pert	-10740
ແລ້ງ	-10741
▁Emb	-10742
▁Lou	-10743
▁par	-10744
▁pay	-10745
ດົນໃຈ	-10746
ໂຄວິດ	-10747
▁Work	-10748
▁ກາເຟ	-10749
ການາດາ	-10750
ຢູ່ນີ້	-10751
ວ່ານີ້	-10752
ຫລືບໍ່	-10753
ຮູ້ສືກ	-10754
ົ້ານົມ	-10755
▁fiber	-10756
ຂອງນ້ໍາ	-10757
ັ້ງເດີມ	-10758
▁Linked	-10759
▁google	-10760
rawberry	-10761
ກ່າວເຖິງ	-10762
ຂອງແຕ່ລະ	-10763
ຜົນກໍາໄລ	-10764
ເຮັດດ້ວຍ	-10765
ໃຫ້ມີການ	-10766
▁Acetate	-10767
▁Fitness	-10768
▁ອາກາດໃນ	-10769
ບໍ່ຈໍາກັດ	-10770
ບໍ່ໄດ້ຖືກ	-10771
ໃນພາກພື້ນ	-10772
▁ສ້າງຕັ້ງ	-10773
▁ເປັນເວລາ	-10774
ໄດ້ເຮັດໃຫ້	-10775
▁ການຮ່ວມມື	-10776
▁ການເຕີບໂຕ	-10777
▁ຄະນະກໍາມະ	-10778
ແຫຼ່ງຂໍ້ມູນ	-10779
▁ສະຫນັບສະຫນຸນ	-10780
DM	-10781
On	-10782
SI	-10783
ນໍ	-10784
day	-10785
och	-10786
ຄັບ	-10787
ບີບ	-10788
▁(6	-10789
▁GP	-10790
▁RC	-10791
▁mg	-10792
▁ຜາ	-10793
cast	-10794
edia	-10795
ural	-10796
zzle	-10797
ເກີ້	-10798
▁GMO	-10799
▁Jul	-10800
▁Kar	-10801
▁Ros	-10802
▁Sal	-10803
▁Tre	-10804
▁Und	-10805
▁Xia	-10806
▁dis	-10807
enger	-10808
ieces	-10809
owder	-10810
ylene	-10811
ປະລາດ	-10812
ສະວິດ	-10813
ຫຍຸ່ນ	-10814
▁Jing	-10815
▁Roll	-10816
▁volt	-10817
▁ມ້ວນ	-10818
▁ອ້ອນ	-10819
ຕອບໂຕ້	-10820
ຕົວຕົນ	-10821
ຕໍ່ມື້	-10822
ທີ່ສອງ	-10823
ໄຟໄຫມ້	-10824
▁2020,	-10825
▁©2005	-10826
▁ຖັດໄປ	-10827
▁ໂຄມໄຟ	-10828
໊ອກນ້ໍາ	-10829
▁Master	-10830
ຄະແນນສຽງ	-10831
ພຣະວິຫານ	-10832
ລະດູຫນາວ	-10833
▁charter	-10834
▁ຄວາມຖີ່	-10835
▁ສ້າງສັນ	-10836
ຊອກຫາວິທີ	-10837
ປຶກສາຫາລື	-10838
ສະຫນອງການ	-10839
▁ທ່ານຕ້ອງ	-10840
ການຕິດຕັ້ງ	-10841
▁Rendering	-10842
▁ຄົນອັບເດດ	-10843
▁ລະຫັດພາສີ	-10844
ສະພາແຫ່ງຊາດ	-10845
ສັກຢາວັກຊີນ	-10846
ແບ່ງອອກເປັນ	-10847
▁©2005-2018	-10848
▁ຫຼັງຈາກທີ່	-10849
▁ເດືອນກຸມພາ	-10850
▁ເຈົ້າຮູ້ສຶກ	-10851
▁ແມ່ນຫນຶ່ງໃນ	-10852
▁ຕິດຕໍ່ພວກເຮົາ	-10853
ຕົ	-10854
19)	-10855
350	-10856
axi	-10857
ປອງ	-10858
ຢິບ	-10859
ແຊນ	-10860
▁1%	-10861
▁2)	-10862
▁71	-10863
▁BO	-10864
▁ຮູ	-10865
ords	-10866
ຄ້າງ	-10867
ະລາຍ	-10868
▁0.2	-10869
▁Ash	-10870
▁Kim	-10871
▁Mil	-10872
▁Rev	-10873
▁Rog	-10874
▁TPU	-10875
▁alt	-10876
ກໍລະນ	-10877
ນັບຖື	-10878
ເສຍໃຈ	-10879
▁Rand	-10880
▁Ring	-10881
▁Xbox	-10882
▁ມຸ້ງ	-10883
▁ອາສາ	-10884
google	-10885
ທີ່ຮັກ	-10886
ອຶດຫິວ	-10887
▁Peter	-10888
ກະເບື້ອ	-10889
ຈ່າຍຄ່າ	-10890
ຕະວັດທີ	-10891
ມັນແມ່ນ	-10892
ອະນຸລັກ	-10893
ແບ່ງແຍກ	-10894
▁Nickel	-10895
▁ຂອງຜູ້	-10896
▁ໃຫ້ແກ່	-10897
▁ຕົ້ນໄມ້	-10898
▁ສະຫະພັນ	-10899
▁ແມ່ນໄດ້	-10900
ການຊື້ຂາຍ	-10901
ສະຫນອງໃຫ້	-10902
▁ຫມາຍຄວາມ	-10903
ຕໍ່ຊົ່ວໂມງ	-10904
ທຸກທໍລະມານ	-10905
ເລົ່າເລື່ອງ	-10906
ອົກຊີເຈນອົກຊີເຈນ	-10907
▁ນາຍົກລັດຖະມົນຕີ	-10908
AA	-10909
ອໍ	-10910
ັລ	-10911
▁່	-10912
11)	-10913
oul	-10914
ກາວ	-10915
ທູບ	-10916
ອິງ	-10917
ັອກ	-10918
▁82	-10919
▁UP	-10920
airs	-10921
mium	-10922
neum	-10923
ຸກົມ	-10924
▁(25	-10925
▁225	-10926
▁Pol	-10927
▁not	-10928
ປັດຕະ	-10929
▁Anal	-10930
▁Meta	-10931
▁Show	-10932
▁play	-10933
▁ກຣາມ	-10934
tattoo	-10935
ubarak	-10936
ໂດຍລວມ	-10937
▁Bohem	-10938
▁Horiz	-10939
▁Plate	-10940
▁Start	-10941
ບໍ່ມີໃຜ	-10942
▁Paypal	-10943
ຍືດຫຍຸ່ນ	-10944
ພັນທະມິດ	-10945
▁ສິ້ນສຸດ	-10946
▁ຫຼັກສູດ	-10947
▁ອາຟຣິກາ	-10948
ທໍາອິດທີ່	-10949
▁ງົບປະມານ	-10950
▁ຫຼຸດຜ່ອນ	-10951
▁ເວົ້າຂອງ	-10952
▁ໄດ້ມີການ	-10953
ຂອງພຣະຄຣິດ	-10954
▁ໃນປະຈຸບັນ	-10955
ປ້ອງກັນປະເທດ	-10956
ຜູ້ອໍານວຍການ	-10957
ມີການປ່ຽນແປງ	-10958
▁Lyophilized	-10959
ທີ່ມີປະສົບການ	-10960
ເປັນທີ່ຮູ້ຈັກ	-10961
▁ການປ່ອຍສິນເຊື່ອ	-10962
AI	-10963
da	-10964
gu	-10965
pi	-10966
car	-10967
eep	-10968
oma	-10969
zer	-10970
ນົກ	-10971
▁MG	-10972
▁cy	-10973
ason	-10974
heng	-10975
itar	-10976
list	-10977
post	-10978
ugby	-10979
ສະໄຕ	-10980
▁Cnc	-10981
▁RSS	-10982
▁Sem	-10983
amber	-10984
embly	-10985
inger	-10986
ຊີມັງ	-10987
ສືກສາ	-10988
▁Mont	-10989
▁Pick	-10990
▁Plug	-10991
ນອກຈາກ	-10992
ຣັດເຊຍ	-10993
ລົດຊາດ	-10994
▁Chain	-10995
▁Cisco	-10996
▁Metro	-10997
▁Monop	-10998
▁Paper	-10999
▁spark	-11000
▁ແຕ່ໃນ	-11001
ນາທິການ	-11002
ປະທັບຕາ	-11003
▁Joseph	-11004
▁Option	-11005
▁Tumblr	-11006
▁ຕົວເລກ	-11007
ນ້ໍາຖ້ວມ	-11008
ປະສານງານ	-11009
ລະດັບສູງ	-11010
ສາມາດຖືກ	-11011
ອີກຕໍ່ໄປ	-11012
ເທົ່າທຽມ	-11013
▁Network	-11014
▁ນ້ໍາຕານ	-11015
▁ພິພາກສາ	-11016
▁ຮຽບຮ້ອຍ	-11017
▁favorite	-11018
▁ຊື່ງເປັນ	-11019
▁ສິນລະທໍາ	-11020
ເຮັດວຽກກັບ	-11021
ດ້ານການເງິນ	-11022
ທີ່ເປັນປະໂຫຍດ	-11023
ແລະຂ້າພະເຈົ້າ	-11024
▁ສ້າງຕັ້ງຂຶ້ນ	-11025
ພວກເຂົາເຈົ້າໄດ້	-11026
53	-11027
iC	-11028
js	-11029
.09	-11030
.23	-11031
168	-11032
ety	-11033
xin	-11034
ຊິບ	-11035
ຍົດ	-11036
ເດນ	-11037
▁ZK	-11038
▁py	-11039
ours	-11040
ຍື່ນ	-11041
ມິຕິ	-11042
▁-20	-11043
▁Bal	-11044
▁Yam	-11045
▁Yue	-11046
▁ຫມູ	-11047
▁ແສດ	-11048
craft	-11049
ຍະກໍາ	-11050
ສະລິມ	-11051
ແຕ່ປີ	-11052
▁Cand	-11053
▁Coca	-11054
ປະເສີດ	-11055
ສັງຫານ	-11056
▁25000	-11057
▁Poker	-11058
▁ພັກດີ	-11059
▁ລວມມີ	-11060
▁ເທືອນ	-11061
ຄວາມລັບ	-11062
ຕ້ານການ	-11063
ມະຫາຊົນ	-11064
ເດັກຊາຍ	-11065
▁Player	-11066
▁Studio	-11067
▁Tablet	-11068
▁roller	-11069
▁ລັບການ	-11070
▁ລູກຊາຍ	-11071
.05.2018	-11072
ipitator	-11073
lication	-11074
ການປະຊຸມ	-11075
ແບບພິເສດ	-11076
ໃຊ້ເພື່ອ	-11077
▁Deposit	-11078
▁Predict	-11079
▁hacking	-11080
▁ການເຮັດ	-11081
▁ທ່ານຮູ້	-11082
▁ພ້ອມກັນ	-11083
ຄ່ໍາວັນທີ	-11084
ຈັດການກັບ	-11085
ຕິດພັນກັບ	-11086
ຕ້ອງສົງໄສ	-11087
▁ການກະທໍາ	-11088
▁ເວທີປາໄສ	-11089
▁ແມ່ນແລ້ວ	-11090
ການຄ້າເສລີ	-11091
ການປຸງແຕ່ງ	-11092
ທີ່ງ່າຍດາຍ	-11093
ໃນສະຖານທີ່	-11094
ທີ່ມີຄຸນຄ່າ	-11095
ໃນການອອກແບບ	-11096
▁ເດືອນກັນຍາ	-11097
ຕໍ່ໄປຂອງທ່ານ	-11098
ພຣະພຸດທະເຈົ້າ	-11099
ຂອງຄວາມຫນາແຫນ້ນ	-11100
FP	-11101
mA	-11102
xi	-11103
.15	-11104
14)	-11105
uch	-11106
ນຶກ	-11107
ີນິ	-11108
ແບນ	-11109
ໃຫຍ	-11110
▁DI	-11111
▁FN	-11112
▁JB	-11113
▁SU	-11114
▁ZH	-11115
▁el	-11116
Sets	-11117
jing	-11118
omen	-11119
qiao	-11120
ຫຼືອ	-11121
▁280	-11122
▁Bat	-11123
▁EVA	-11124
▁GDP	-11125
▁SAP	-11126
▁mar	-11127
▁ຊາກ	-11128
▁ເຈນ	-11129
anges	-11130
ກະສັດ	-11131
ໂລຫິດ	-11132
ໄປທາງ	-11133
▁Anti	-11134
▁Tail	-11135
▁ສົ້ນ	-11136
ending	-11137
ດິນຊາຍ	-11138
ຕອນປາຍ	-11139
ມອບໃຫ້	-11140
ວາງໄວ້	-11141
ແຊກແຊງ	-11142
ໂປ່ງໃສ	-11143
ໃຫ້ຄໍາ	-11144
▁Metal	-11145
▁Shell	-11146
▁gener	-11147
ອ້ອມຮອບ	-11148
ຮັບເອົາ	-11149
▁Energy	-11150
ຄົນອື່ນໆ	-11151
ຫລາຍຂຶ້ນ	-11152
ເຂັ້ມງວດ	-11153
ແຈ້ງເຕືອນ	-11154
ໃກ້ຊິດກັບ	-11155
▁ລະບົບການ	-11156
▁ເວົ້າກັບ	-11157
▁ໄຮໂດຣເຈນ	-11158
ຄວາມຮຸນແຮງ	-11159
ດ້ວຍຕົນເອງ	-11160
ປະທານປະເທດ	-11161
ໃນກອງປະຊຸມ	-11162
ຕົ້ນກໍາເນີດ	-11163
ຄວາມຫນາແຫນ້ນ	-11164
ເມື່ອພວກເຮົາ	-11165
ຢ່າງເລິກເຊິ່ງ	-11166
▁ຂອງເຂົາເຈົ້າ	-11167
▁ເດືອນພຶດສະພາ	-11168
gr	-11169
BET	-11170
Box	-11171
SER	-11172
afu	-11173
ita	-11174
ius	-11175
omi	-11176
pha	-11177
ຂ່າ	-11178
ຕັບ	-11179
▁GR	-11180
▁MD	-11181
▁TN	-11182
▁ນໍ	-11183
case	-11184
ship	-11185
ຄື້ນ	-11186
▁CAS	-11187
▁Nev	-11188
▁Tom	-11189
▁est	-11190
▁net	-11191
▁ບຸດ	-11192
▁ລາດ	-11193
▁ແຕະ	-11194
▁ໂທຣ	-11195
755-2	-11196
aging	-11197
crypt	-11198
ຕາມິນ	-11199
ທີ່ສະ	-11200
ພູມໃຈ	-11201
ຫ້າປີ	-11202
ຮອດປີ	-11203
▁Hall	-11204
▁Para	-11205
▁prof	-11206
▁ກ້າມ	-11207
▁ປັ່ນ	-11208
▁ຫມຶກ	-11209
▁ເດີມ	-11210
intage	-11211
urnace	-11212
ຕະຫລົກ	-11213
ຕ້ຫວັນ	-11214
ບອກວ່າ	-11215
▁Khaki	-11216
▁forex	-11217
▁shopp	-11218
▁ຄ່ອຍໆ	-11219
▁ຈຸລັງ	-11220
ຄິດສ້າງ	-11221
ຕ່າງຫາກ	-11222
ທີ່ສ້າງ	-11223
ຫັນເປັນ	-11224
ອັບໂຫລດ	-11225
▁Sponge	-11226
▁ການນໍາ	-11227
▁ຊີ້ຂາດ	-11228
▁ສີນ້ໍາ	-11229
rostatic	-11230
ຝຣັ່ງເສດ	-11231
ອີເລັກໂທ	-11232
▁Dusting	-11233
▁ຄວາມວ່າ	-11234
ທໍາອິດຂອງ	-11235
ມື້ວານນີ້	-11236
▁ລາຄາແມ່ນ	-11237
ນະແມ່ເຫຼັກ	-11238
▁ຂະແຫນງການ	-11239
▁ຕົວຊີ້ວັດ	-11240
ມານະພະຍາຍາມ	-11241
▁Genotropin	-11242
▁Production	-11243
▁ພວກເຮົາຍັງ	-11244
ທີ່ກໍານົດໄວ້	-11245
ມີຄວາມສໍາຄັນ	-11246
ໃຫ້ຄໍາແນະນໍາ	-11247
ໄດ້ຮັບຂໍ້ມູນ	-11248
▁ສິ່ງແວດລ້ອມ	-11249
▁ອຸດົມສົມບູນ	-11250
▁ເຊັ່ນດຽວກັນ	-11251
ແລະເຕັກໂນໂລຊີ	-11252
▁ຂໍ້ມູນຈໍາເພາະ	-11253
ຸຍ	-11254
.18	-11255
380	-11256
osp	-11257
set	-11258
zil	-11259
ກຸງ	-11260
ແຊບ	-11261
▁73	-11262
▁Di	-11263
▁MO	-11264
Cola	-11265
enna	-11266
qing	-11267
ຫ່ວງ	-11268
ເດັດ	-11269
▁210	-11270
▁Add	-11271
▁ນັດ	-11272
▁ມິນ	-11273
▁ລະຫ	-11274
▁ວາຍ	-11275
▁ໂຫດ	-11276
aking	-11277
phere	-11278
ທີ່ມາ	-11279
▁1999	-11280
▁Fram	-11281
▁HVAC	-11282
▁Jiao	-11283
▁Mand	-11284
▁Mass	-11285
▁grid	-11286
▁guit	-11287
▁mach	-11288
▁ກວາງ	-11289
▁ຍ້ອງ	-11290
▁ຫນຽວ	-11291
▁ອະໄພ	-11292
ງານບຸນ	-11293
ທ່ານມີ	-11294
ສົມມຸດ	-11295
ອອກສຽງ	-11296
ແບບຟອມ	-11297
▁Graph	-11298
▁Night	-11299
▁ເບື່ອ	-11300
ນານາຊາດ	-11301
ພຣະເຢຊູ	-11302
ສະບາຍໃຈ	-11303
ແຄນນາດາ	-11304
▁Chrome	-11305
▁cookie	-11306
ສະເຫມີໄປ	-11307
ໂດຍລົດໄຟ	-11308
▁ຄົ້ນພົບ	-11309
▁ມໍລະດົກ	-11310
▁ເຕັມທີ່	-11311
ຂອງຂໍ້ມູນ	-11312
ຕັ້ງແຕ່ປີ	-11313
▁ບ່ອນນັ່ງ	-11314
▁ເຈົ້າວ່າ	-11315
▁ແຮງຈູງໃຈ	-11316
ກໍ່ໃຫ້ເກີດ	-11317
▁ຜູ້ທີ່ໄດ້	-11318
ຄຸນນະສົມບັດ	-11319
▁strawberry	-11320
ດ້ານເສດຖະກິດ	-11321
▁ໂດຍສະເພາະແມ່ນ	-11322
ທີ່ພວກເຮົາສາມາດ	-11323
EI	-11324
HZ	-11325
dg	-11326
-04	-11327
.19	-11328
.95	-11329
Ind	-11330
UST	-11331
eda	-11332
ref	-11333
ດິບ	-11334
ເຄີ	-11335
ແຈງ	-11336
▁..	-11337
▁97	-11338
cial	-11339
omer	-11340
ould	-11341
udge	-11342
ຖິ່ນ	-11343
ບົ່ມ	-11344
▁CAN	-11345
▁Get	-11346
▁Hey	-11347
▁How	-11348
▁JPY	-11349
▁ງຫາ	-11350
▁ຊັນ	-11351
▁ພະຍ	-11352
▁ເພີ	-11353
▁ໂຍງ	-11354
▁ໄຫຼ	-11355
▁Edge	-11356
▁pier	-11357
▁type	-11358
▁ປ່ຽວ	-11359
enturi	-11360
ຂຶ້ນມາ	-11361
ຊົມໃຊ້	-11362
▁Grill	-11363
▁Parad	-11364
▁Volvo	-11365
rugated	-11366
ຄວາມຖີ່	-11367
ວັດທະນະ	-11368
▁radial	-11369
▁ມັນຍັງ	-11370
▁ເຊື່ອງ	-11371
▁ແຂງແຮງ	-11372
ການກະທໍາ	-11373
ຊື່ອີເມວ	-11374
ຖົງປະເພດ	-11375
ທາດເຫຼັກ	-11376
ຢູ່ເຮືອນ	-11377
▁Quality	-11378
▁ການເກັບ	-11379
▁ຄວາມຈິງ	-11380
▁ຮູບຮ່າງ	-11381
ທີ່ຈະເປັນ	-11382
ເດີນທາງໄປ	-11383
▁ຍົກເວັ້ນ	-11384
▁ທ່ອງທ່ຽວ	-11385
▁ເພີດເພີນ	-11386
▁ເວົ້າລົມ	-11387
▁ໄລຍະເວລາ	-11388
ຈໍານວນເງິນ	-11389
ປະທານອາຫານ	-11390
▁Unlimited	-11391
▁ອະລູມິນຽມ	-11392
▁ບັນດາປະເທດ	-11393
▁ລາວກ່າວວ່າ	-11394
ມີຄວາມຮູ້ສຶກ	-11395
ໃນການເຮັດວຽກ	-11396
▁ຈໍານວນຕົວແບບ	-11397
▁ຢ່າງໃດກໍ່ຕາມ	-11398
ມັດທະຍົມຕອນປາຍ	-11399
▁ດັ່ງນັ້ນມັນຈຶ່ງ	-11400
++	-11401
SE	-11402
Se	-11403
ef	-11404
jo	-11405
ຍີ	-11406
ຄອຍ	-11407
ບ້າ	-11408
ຮັນ	-11409
ໂຫຍ	-11410
້ອາ	-11411
▁EM	-11412
▁ms	-11413
▁us	-11414
ache	-11415
aner	-11416
rate	-11417
rine	-11418
ulic	-11419
ກະວີ	-11420
ຊະຍາ	-11421
ປ໋ອງ	-11422
ເດີ້	-11423
ໃຫ່ຍ	-11424
▁Los	-11425
▁Yin	-11426
▁cnc	-11427
▁spr	-11428
▁ຄວາ	-11429
▁ຕັກ	-11430
▁ບອດ	-11431
▁ໂຊມ	-11432
▁ໄຟລ	-11433
ມີຄົນ	-11434
ເຂົາມ	-11435
ໄດ້ມາ	-11436
▁Cixi	-11437
▁Coff	-11438
▁Fast	-11439
▁Lake	-11440
▁ກູໂກ	-11441
ຄວາມດີ	-11442
ຄາດການ	-11443
ຈະເຮັດ	-11444
ຈຸດສຸມ	-11445
ດຽວກັບ	-11446
ຫວັດດີ	-11447
ເຕະບານ	-11448
ແລະຂາຍ	-11449
ໃນນ້ໍາ	-11450
▁2012.	-11451
▁Huafu	-11452
▁Photo	-11453
▁ໃຫມ່ໆ	-11454
ຍ້ອນວ່າ	-11455
ສະໂມສອນ	-11456
ອາເມລິກ	-11457
ເງິນສົດ	-11458
ໄດ້ເປັນ	-11459
▁ນຶ່ງປີ	-11460
▁ສະຫຼາດ	-11461
▁ເປື້ອນ	-11462
neumatic	-11463
ລະດັບຊາດ	-11464
ເພື່ອການ	-11465
▁Ninjago	-11466
▁Percent	-11467
ifunction	-11468
ຄວາມໄວສູງ	-11469
ສາຍພົວພັນ	-11470
▁ລົງທະບຽນ	-11471
ມະຫັດສະຈັນ	-11472
ຢ່າງແນ່ນອນ	-11473
▁cellulose	-11474
▁ການຊື້ຂາຍ	-11475
ຄວາມເຈັບປວດ	-11476
ເວັບໄຊທ໌ນີ້	-11477
ຂອງພວກເຮົາໃນ	-11478
ແລະຄວາມປອດໄພ	-11479
ແລະຕ່າງປະເທດ	-11480
ທີ່ເຊື່ອຖືໄດ້	-11481
▁ການເຂົ້າເຖິງ	-11482
▁ເປັນຜູ້ຜະລິດ	-11483
ເຫມາະສົມສໍາລັບ	-11484
▁ເຫຼົ່ານີ້ແມ່ນ	-11485
%,	-11486
TE	-11487
oe	-11488
ຣ໌	-11489
-22	-11490
ibo	-11491
ven	-11492
ຂີດ	-11493
ຄຽດ	-11494
▁EC	-11495
▁NW	-11496
ains	-11497
ຮຸ່ງ	-11498
ເພີງ	-11499
ແຫລງ	-11500
້ນີ້	-11501
▁(18	-11502
▁26,	-11503
▁Cab	-11504
▁ECN	-11505
▁GED	-11506
▁HIV	-11507
▁Non	-11508
▁pad	-11509
▁rel	-11510
▁tok	-11511
▁ຊຶມ	-11512
▁ນ້າ	-11513
▁ປີກ	-11514
aylor	-11515
lines	-11516
ການສະ	-11517
ບໄຊທ໌	-11518
ພະຍົນ	-11519
ແລະຢາ	-11520
ໄຕມາດ	-11521
▁1980	-11522
▁ຍ່ອມ	-11523
inting	-11524
ບັນທືກ	-11525
ພາກຮຽນ	-11526
ລະນິທິ	-11527
ລູກສາວ	-11528
ໃຫ້ລາວ	-11529
▁2019!	-11530
▁Autom	-11531
▁Brown	-11532
▁ສຸພາບ	-11533
▁ເຮືອງ	-11534
ຄົບຖ້ວນ	-11535
ສູງເຖິງ	-11536
ໃກ້ຂ້ອຍ	-11537
▁Armati	-11538
▁Guitar	-11539
▁guitar	-11540
▁ຊອບທໍາ	-11541
▁ສົງສານ	-11542
essenger	-11543
ກັບຄືນມາ	-11544
ເຂົ້າກັນ	-11545
▁Belmont	-11546
▁ຂອງຂ້ອຍ	-11547
▁ງ່າຍດາຍ	-11548
▁ດາວໂຫຼດ	-11549
carbonate	-11550
ingdirect	-11551
ກາລະໂອກາດ	-11552
ຍານພາຫະນະ	-11553
ທີ່ທ່ານຈະ	-11554
ແລະໄດ້ຮັບ	-11555
ໃນສະຫະລັດ	-11556
▁Bohemian	-11557
▁facebook	-11558
▁solenoid	-11559
▁ຍຸດທະສາດ	-11560
▁ວາດສະຫນາ	-11561
ຄຸນະພາບສູງ	-11562
ປະເຊີນຫນ້າ	-11563
ເຄື່ອງນຸ່ງ	-11564
ໃຫ້ປະຊາຊົນ	-11565
▁Wordpress	-11566
ແລະສະຖານທີ່	-11567
ທີ່ມີຄຸນນະພາບ	-11568
ສະທ້ອນໃຫ້ເຫັນ	-11569
▁ພາກຕາເວັນອອກ	-11570
▁ໄດ້ສົມທົບກັບ	-11571
ບໍ່ຈໍາເປັນຕ້ອງ	-11572
ເປົ໋າກະເປົ໋າກະ	-11573
▁Biotechnology	-11574
▁ການສັງເກດເຫັນ	-11575
Al	-11576
JD	-11577
ົສ	-11578
IFI	-11579
asy	-11580
ikh	-11581
yle	-11582
ຄິວ	-11583
ຊອນ	-11584
ແບກ	-11585
້ວກ	-11586
▁DU	-11587
▁ປໍ	-11588
▁ອໍ	-11589
acqu	-11590
ures	-11591
ຫຼັບ	-11592
▁128	-11593
▁Ann	-11594
▁Cut	-11595
▁NAS	-11596
▁Run	-11597
▁Zur	-11598
▁ກອດ	-11599
▁ຍັດ	-11600
hacks	-11601
ກະເສດ	-11602
ລະບົດ	-11603
ສອງປີ	-11604
ອຸທອນ	-11605
▁1950	-11606
▁1998	-11607
▁ASTM	-11608
▁Bulk	-11609
▁NEMA	-11610
▁Text	-11611
ກັນວ່າ	-11612
ສາຍໂສ້	-11613
ໄວໆນີ້	-11614
ຄາດເດົາ	-11615
ຕາຫນ່າງ	-11616
ສູງຂຶ້ນ	-11617
ແຈ້ງວ່າ	-11618
▁10,000	-11619
▁ຂຶ້ນມາ	-11620
▁ສົມມຸດ	-11621
▁Eyelash	-11622
▁Mubarak	-11623
▁ຂອງຂວັນ	-11624
▁ສິງກະໂປ	-11625
▁ໃຊ້ເວລາ	-11626
▁ໄດ້ເປັນ	-11627
ກ່າວຫາວ່າ	-11628
ທີ່ຮຸນແຮງ	-11629
ພ້ອມທີ່ຈະ	-11630
ແລະຂໍ້ມູນ	-11631
▁Paradise	-11632
ກັບຄົນອື່ນ	-11633
ຖະແຫຼງຂ່າວ	-11634
ວ່ານີ້ແມ່ນ	-11635
▁Enterprise	-11636
▁ລະມັດລະວັງ	-11637
ສໍາລັບລູກຄ້າ	-11638
LA	-11639
ep	-11640
-07	-11641
Des	-11642
arp	-11643
hib	-11644
mes	-11645
ona	-11646
ຟອງ	-11647
▁HS	-11648
▁TK	-11649
▁ສປ	-11650
iana	-11651
itan	-11652
ocon	-11653
omet	-11654
rone	-11655
well	-11656
ຄຸ້ນ	-11657
ດຍິງ	-11658
ພ້າວ	-11659
ມື້ນ	-11660
▁0.9	-11661
▁108	-11662
▁csg	-11663
▁man	-11664
▁ກະດ	-11665
▁ສົກ	-11666
ໂອເນຍ	-11667
▁Note	-11668
▁ຖໍ້າ	-11669
▁ລະຍະ	-11670
▁ລະບຸ	-11671
ກວດພົບ	-11672
ຊວນຟຸກ	-11673
ດັດແປງ	-11674
ທີ່ມັກ	-11675
ປານກາງ	-11676
ລໍາບາກ	-11677
ໃນທົ່ວ	-11678
▁Huang	-11679
▁Screw	-11680
▁Width	-11681
▁ສະກັດ	-11682
▁ເລກທີ	-11683
embrane	-11684
ເຊື້ອໄຟ	-11685
ໄດ້ງ່າຍ	-11686
▁Corpor	-11687
▁Posted	-11688
▁ການຕັດ	-11689
▁ຜິດພາດ	-11690
ໃນກໍລະນີ	-11691
▁October	-11692
▁Related	-11693
▁Silicon	-11694
▁Tianjin	-11695
▁ceramic	-11696
▁ຊື່ແມ່ນ	-11697
▁ປົກປ້ອງ	-11698
▁ລັງເຮັດ	-11699
▁ຫຼັກການ	-11700
▁ຫຼຸດລົງ	-11701
▁ອ້ອນວອນ	-11702
ຂອງຊຸມຊົນ	-11703
▁ການສັກຢາ	-11704
▁ການເຄືອບ	-11705
▁ຍິ່ງໃຫຍ່	-11706
ເສີມຂະຫຍາຍ	-11707
▁Certified	-11708
▁instagram	-11709
ສາມາດໄດ້ຮັບ	-11710
ສ່ວນຫນ້າຂອງ	-11711
ອັນໃຫຍ່ຫຼວງ	-11712
▁Innovative	-11713
ບານເຕະບານເຕະ	-11714
ເຮັດວຽກຮ່ວມກັບ	-11715
▁shoppingdirect	-11716
ໂດຍລົດໄຟໂດຍລົດໄຟ	-11717
7.	-11718
va	-11719
ດ໌	-11720
ຖີ	-11721
860	-11722
fit	-11723
ima	-11724
ຕາກ	-11725
ຕ້າ	-11726
ຟິນ	-11727
ລວດ	-11728
▁SN	-11729
▁Ts	-11730
▁gr	-11731
▁kn	-11732
arat	-11733
base	-11734
ines	-11735
oung	-11736
rank	-11737
ສະເຕ	-11738
ເກັດ	-11739
▁420	-11740
▁May	-11741
▁Suz	-11742
▁end	-11743
▁ທຸງ	-11744
▁ລ້າ	-11745
▁ແຊງ	-11746
annel	-11747
ບູຮານ	-11748
▁1100	-11749
▁Reed	-11750
▁Tang	-11751
ກໍາແພງ	-11752
ທີ່ນາງ	-11753
ມີອາຍຸ	-11754
ສາຍແອວ	-11755
ສົມຄວນ	-11756
ອາຍພິດ	-11757
ຮັບການ	-11758
ເຫຼົ້າ	-11759
▁Hacks	-11760
▁Strip	-11761
▁elect	-11762
▁ຄືກັນ	-11763
ຄົນເຮົາ	-11764
ຖ້ຽວບິນ	-11765
ທີ່ຜ່ານ	-11766
ມອບຫມາຍ	-11767
ເຕົາອົບ	-11768
ເອກະພາບ	-11769
ແລະຫມາກ	-11770
▁Yamaha	-11771
▁ສູນເສຍ	-11772
▁ຫລັງຄາ	-11773
ological	-11774
ກໍາປູເຈຍ	-11775
ປະຫລາດໃຈ	-11776
ຫນຶ່ງທີ່	-11777
ໂອລິມປິກ	-11778
▁ຄວາມບໍ່	-11779
▁ພະຍາກອນ	-11780
▁ອົບອຸ່ນ	-11781
▁ເພິ່ນໄດ້	-11782
▁ແຕ່ງຕັ້ງ	-11783
ລະຫວ່າງສອງ	-11784
ຕິດຕາມກວດກາ	-11785
▁ຍົກຕົວຢ່າງ	-11786
ຫນຶ່ງຊົ່ວໂມງ	-11787
ຂອງການຄົ້ນຄວ້າ	-11788
▁ຂອງຂ້າພະເຈົ້າ	-11789
▁ຂ້າພະເຈົ້າຢາກ	-11790
")	-11791
GL	-11792
\)	-11793
ໄຫ	-11794
eet	-11795
ລອກ	-11796
ຮາດ	-11797
▁AD	-11798
▁DK	-11799
▁Da	-11800
▁Vi	-11801
▁Vo	-11802
▁\(	-11803
.0.0	-11804
2000	-11805
comp	-11806
flon	-11807
ກ້າມ	-11808
ປ່ວນ	-11809
ເຖືງ	-11810
▁(0)	-11811
▁CCN	-11812
▁FOB	-11813
▁IEC	-11814
▁etc	-11815
▁imp	-11816
▁ມາຍ	-11817
▁ລິນ	-11818
▁ຮາວ	-11819
▁ໂຄຣ	-11820
ທິຍານ	-11821
ຫາກໍ່	-11822
ອຸດົມ	-11823
▁Cann	-11824
▁Form	-11825
▁Hard	-11826
▁Head	-11827
▁Rome	-11828
▁Yong	-11829
▁cake	-11830
▁will	-11831
▁ລ້ໍາ	-11832
▁ເສັງ	-11833
osting	-11834
raulic	-11835
ລິບປິນ	-11836
ວ່ານັກ	-11837
ວ່ານາງ	-11838
ເຊື່ອງ	-11839
ແຜນທີ່	-11840
ໄດ້ປຽບ	-11841
▁Adder	-11842
▁Franc	-11843
▁Pants	-11844
▁ບັນຊາ	-11845
▁ປີນີ້	-11846
▁ເວືອງ	-11847
ography	-11848
ຂາຍຍ່ອຍ	-11849
ຊ່ວຍເຫຼ	-11850
ພລາສຕິກ	-11851
ພາຍຫຼັງ	-11852
ແຫ່ງລັດ	-11853
▁Zurich	-11854
▁ກະເປົາ	-11855
▁ຊັດເຈນ	-11856
▁ທົນທານ	-11857
▁ລາວບໍ່	-11858
▁ເມຣິກາ	-11859
▁ໄວຮຸ່ນ	-11860
ບຽງອາຫານ	-11861
ປະກົດຕົວ	-11862
ຫ້ອງນ້ໍາ	-11863
▁Chamber	-11864
▁twitter	-11865
▁ໄພໂອເນຍ	-11866
propylene	-11867
ຂະຫນາດກາງ	-11868
ຂາຍເຄື່ອງ	-11869
ຄວາມເຊື່ອ	-11870
▁Exchange	-11871
▁Supplier	-11872
▁Thailand	-11873
▁ພຶດຕິກໍາ	-11874
▁ຫນ່ວຍງານ	-11875
ສົນທິສັນຍາ	-11876
ສໍາລັບຄວາມ	-11877
ອິນໂດເນເຊຍ	-11878
ເຊືອກເຊືອກ	-11879
ແຜ່ນດິນໄຫວ	-11880
ແລະບໍລິການ	-11881
▁ຂໍ້ມູນເກມ	-11882
▁ອາດຈະເປັນ	-11883
▁ເຈົ້າຕ້ອງ	-11884
▁ເຊື່ອມຕໍ່	-11885
ຂອງຮູບພາບຫາ	-11886
ຜູ້ເສຍຊີວິດ	-11887
ເປັນເອກະລັກ	-11888
▁Galvanized	-11889
▁ມະຫັດສະຈັນ	-11890
ຜູ້ເປັນເຈົ້າ	-11891
▁ຂະຫນາດບັນຈຸ	-11892
▁ລະຍະຫ່າງຈາກ	-11893
ເຄື່ອງປິ່ນປົວ	-11894
▁ສູງສຸດທີ່ເຄຍ	-11895
ເຖິງຜົມສ່ວນບົນ	-11896
▁ຄວາມສູງຂອງຫົວ	-11897
57	-11898
AH	-11899
DN	-11900
GT	-11901
We	-11902
.07	-11903
Man	-11904
fil	-11905
ຖອດ	-11906
ມືກ	-11907
ວີດ	-11908
ຫາວ	-11909
▁AI	-11910
▁ri	-11911
ingo	-11912
rain	-11913
ries	-11914
ອາຍາ	-11915
ແຫວນ	-11916
▁APK	-11917
▁BCH	-11918
▁WPC	-11919
▁dji	-11920
▁ຂົວ	-11921
▁ບອບ	-11922
▁ເວດ	-11923
▁ໄຮ້	-11924
-2017	-11925
9001:	-11926
ander	-11927
ifier	-11928
ຄາບອນ	-11929
▁Circ	-11930
▁Cond	-11931
▁Ever	-11932
▁Stan	-11933
▁Tong	-11934
▁hard	-11935
▁jets	-11936
▁year	-11937
▁ເທົາ	-11938
▁ເລີນ	-11939
affeta	-11940
reathe	-11941
ໃນຖານະ	-11942
ໃນຫຼາຍ	-11943
▁Relay	-11944
▁Sihan	-11945
▁stero	-11946
▁ຂະບວນ	-11947
▁ຈຸນລະ	-11948
▁ໂຄຈອນ	-11949
▁ໃຈກາງ	-11950
ທີ່ຈະມີ	-11951
ສາດສະດາ	-11952
ອີກຢ່າງ	-11953
▁Castle	-11954
▁bottle	-11955
▁ງານບຸນ	-11956
▁ປາຍທາງ	-11957
▁ມັນຖືກ	-11958
▁ສໍາພາດ	-11959
▁ຮັບຮອງ	-11960
▁ເຕີບໂຕ	-11961
ຄົນຫນື່ງ	-11962
ບັນດາການ	-11963
ລົ້ມເຫລວ	-11964
ເທົ່າກັບ	-11965
▁Breathe	-11966
▁Spotify	-11967
▁ຕັ້ງຢູ່	-11968
▁ບໍລິຫານ	-11969
▁ພາກພື້ນ	-11970
▁ຫຼັກຖານ	-11971
ການປຽບທຽບ	-11972
ບໍ່ຮູ້ວ່າ	-11973
ຢ່າງລະອຽດ	-11974
ລັດຖະສະພາ	-11975
ສະຕິປັນຍາ	-11976
▁ທາງເລືອກ	-11977
▁ໃຊ້ລະຫັດ	-11978
ຕາມກົດຫມາຍ	-11979
ລັກສະນະຂອງ	-11980
ເນື້ອເຍື່ອ	-11981
▁ຄ່າທໍານຽມ	-11982
▁ຈິດວິນຍານ	-11983
▁ແສງຕາເວັນ	-11984
ປີທີ່ຜ່ານມາ	-11985
ປົກກະຕິແລ້ວ	-11986
▁ການແກ້ໄຂໃນ	-11987
▁ເພາະສະນັ້ນ	-11988
▁ແທ້ຈິງແລ້ວ	-11989
ພິຈາລະນາຄະດີ	-11990
▁ທີ່ຍິ່ງໃຫຍ່	-11991
ທາງດ້ານການເມືອງ	-11992
▁ສະຫະລັດອາເມລິກາ	-11993
AU	-11994
PH	-11995
.35	-11996
.70	-11997
ONG	-11998
oli	-11999
ves	-12000
ຟາມ	-12001
ັຣກ	-12002
ແດ່	-12003
ແຖບ	-12004
ໂຟນ	-12005
ໄຖ່	-12006
▁Iq	-12007
Outs	-12008
ຖ່ອມ	-12009
ມະຕິ	-12010
ເອັບ	-12011
ແບັດ	-12012
▁Bai	-12013
▁MID	-12014
▁Mor	-12015
▁Pad	-12016
▁Shi	-12017
▁Tex	-12018
▁Veg	-12019
▁vol	-12020
▁ສີດ	-12021
▁ໂຢບ	-12022
ising	-12023
owers	-12024
ຂໍ້ຫາ	-12025
ປະມູນ	-12026
ມາເນຍ	-12027
ລັກຊີ	-12028
ເກັ່ງ	-12029
▁Data	-12030
▁Drop	-12031
▁roll	-12032
▁ກຸ້ມ	-12033
▁ງຸ່ນ	-12034
▁ຫົ່ມ	-12035
▁ເຖີດ	-12036
ຍິນຍອມ	-12037
ບັນດາບ	-12038
ຫມາແລະ	-12039
ຫລັງຄາ	-12040
▁Admin	-12041
ຖ່າຍທອດ	-12042
ປາຖະຫນາ	-12043
ອາດຈະມີ	-12044
▁Cutter	-12045
▁Orange	-12046
▁ການຂາຍ	-12047
▁ຂອງພວກ	-12048
▁ຊຶ່ງມີ	-12049
▁ລົດຈັກ	-12050
ກິນອາຫານ	-12051
ຕັ້ງຫນ້າ	-12052
ທາງປັນຍາ	-12053
ປົວພະຍາດ	-12054
▁Control	-12055
▁Patrick	-12056
▁Sitemap	-12057
▁ຈົນເຖິງ	-12058
▁ດິຈິຕອນ	-12059
▁ບັນເທົາ	-12060
▁ຫຸ່ນຍົນ	-12061
▁ອຸທິຍານ	-12062
ຂອງອິນເດຍ	-12063
ທີ່ສົມບູນ	-12064
ຫນ້າສົນໃຈ	-12065
ແປກປະຫຼາດ	-12066
່ຽວກັບການ	-12067
▁Hangzhou	-12068
▁piercing	-12069
▁ຫຼາຍກ່ວາ	-12070
ຄວາມສໍາຄັນ	-12071
ດ້ານການຄ້າ	-12072
ຕະຫຼອດເວລາ	-12073
ຫນ້າທໍາອິດ	-12074
ອາຣັບອາຣັບ	-12075
ເລືອກທີ່ຈະ	-12076
ແລະວິທີການ	-12077
ໄປກວ່ານັ້ນ	-12078
▁Diaphragm	-12079
▁butterfly	-12080
▁ການສົນທະນາ	-12081
ເພີ່ມຂຶ້ນຂອງ	-12082
▁ທົ່ວໂລກແມ່ນ	-12083
▁ເຄື່ອງປະດັບ	-12084
ຂອງອຸດສາຫະກໍາ	-12085
▁Precipitator	-12086
▁ຄ່າໃຊ້ຈ່າຍທັງ	-12087
▁ທີ່ຢູ່ເວັບໄຊທ໌	-12088
▁ເຄື່ອງນຸ່ງຫົ່ມ	-12089
ເຂັມເຂັມເຂັມເຂັມ	-12090
wp	-12091
.17	-12092
/10	-12093
/19	-12094
10,	-12095
ced	-12096
hou	-12097
inn	-12098
ivo	-12099
ule	-12100
unk	-12101
ຊ້ມ	-12102
▁RE	-12103
▁ve	-12104
hane	-12105
wood	-12106
ອ໊ອກ	-12107
ແຕ່ນ	-12108
ໂຫຍກ	-12109
ໄມໂຄ	-12110
▁315	-12111
▁CRM	-12112
▁Deb	-12113
▁ຟາມ	-12114
▁ຫມີ	-12115
▁ແອບ	-12116
berra	-12117
ecker	-12118
ງ່າຍໆ	-12119
▁1080	-12120
▁1914	-12121
▁Ball	-12122
▁Stud	-12123
▁tube	-12124
▁ຄ້ານ	-12125
▁ຢ່ອນ	-12126
ຂ້ອຍຈະ	-12127
ຕຽງຕຽງ	-12128
ສະຫລົດ	-12129
ເຊີແລນ	-12130
ໃຕ້ດິນ	-12131
▁CPTPP	-12132
▁crack	-12133
ກ້ອນຫີນ	-12134
ຕົກແຕ່ງ	-12135
ເກີດເຫດ	-12136
ເອົາມັນ	-12137
▁(2016)	-12138
▁Brazil	-12139
▁ROWSER	-12140
▁ການໃຫ້	-12141
▁ຂອງນາງ	-12142
▁ຍັງໄດ້	-12143
ຄືກັນກັບ	-12144
ທາງຈິດໃຈ	-12145
ປັບອາກາດ	-12146
ແລະເບິ່ງ	-12147
▁ເກົາຫຼີ	-12148
ຄັ້ງທີສອງ	-12149
ສຸມໃສ່ການ	-12150
▁ມັດທະຍົມ	-12151
▁ອື່ນໆທີ່	-12152
ມີປະສົບການ	-12153
▁Precision	-12154
ໄດ້ເສຍຊີວິດ	-12155
▁ປະທານປະເທດ	-12156
ເຄື່ອນຍ້າຍໄປ	-12157
ໃນລະຫວ່າງການ	-12158
▁ແລະການຜະລິດ	-12159
▁ເດືອນກໍລະກົດ	-12160
ສິ່ງທີ່ພວກເຂົາ	-12161
ds	-12162
hr	-12163
-08	-12164
IAN	-12165
hen	-12166
tty	-12167
ງ່ນ	-12168
ຫິນ	-12169
ແກມ	-12170
ແຊມ	-12171
▁DB	-12172
▁Es	-12173
▁MX	-12174
▁PV	-12175
▁pu	-12176
opes	-12177
vert	-12178
ວນໍາ	-12179
ຫມຸນ	-12180
ຫຼົກ	-12181
ເຫ້ວ	-12182
ໄຊດ໌	-12183
▁198	-12184
▁316	-12185
▁777	-12186
▁Dar	-12187
▁GMP	-12188
▁Hou	-12189
▁Pri	-12190
▁Upd	-12191
▁Vac	-12192
▁cam	-12193
▁rib	-12194
▁ອັຟ	-12195
ໃນຈີນ	-12196
▁1300	-12197
▁BCHT	-12198
▁Marc	-12199
▁bolt	-12200
▁ປັ້ນ	-12201
edding	-12202
irates	-12203
ຂອງຕົວ	-12204
ຄາດວ່າ	-12205
ທີ່ອາດ	-12206
ຢູ່ທາງ	-12207
ໂປຼຕີນ	-12208
▁latte	-12209
▁ອັກຄະ	-12210
▁ໃນທາງ	-12211
ຈົນເຖິງ	-12212
ຊົມເຊີຍ	-12213
ພື້ນຜິວ	-12214
ອາບນ້ໍາ	-12215
ແຫ່ງການ	-12216
▁corros	-12217
▁ທີ່ພັກ	-12218
▁ທ້າທາຍ	-12219
▁ມີຫນ້າ	-12220
▁ມີຫຼາຍ	-12221
ຄຸ້ນເຄີຍ	-12222
ອາດຈະບໍ່	-12223
ເຈັດເຈັດ	-12224
ເນື້ອທີ່	-12225
▁Acrylic	-12226
▁ຂົນສົ່ງ	-12227
▁ບາດເຈັບ	-12228
▁ຜູ້ນັ້ນ	-12229
▁ລັບຂ້ອຍ	-12230
▁ເຖິງວ່າ	-12231
▁ແມ່ນຖືກ	-12232
ຄົນອັບເດດ	-12233
ສະເຫນີໃຫ້	-12234
ເປີດກວ້າງ	-12235
▁ບັນດານັກ	-12236
ຂໍ້ມູນແມ່ນ	-12237
ທີ່ຊ່ຽວຊານ	-12238
ເຂົ້າເມືອງ	-12239
ເຮັດໃຫ້ການ	-12240
ແຕກຕ່າງຈາກ	-12241
ແລະພວກເຂົາ	-12242
▁ການຂະຫຍາຍ	-12243
▁ມັນໄດ້ຖືກ	-12244
▁ຢ່າງຫນ້ອຍ	-12245
ບັນດາອົງການ	-12246
ເປັນສິ່ງທີ່	-12247
▁corrugated	-12248
▁ເຕັມໄປດ້ວຍ	-12249
▁ແຕ່ພວກເຮົາ	-12250
ສໍາລັບຈຸດປະສົງ	-12251
ການຈ່າຍເງິນແມ່ນ	-12252
Os	-12253
TH	-12254
ZK	-12255
ta	-12256
120	-12257
Web	-12258
amm	-12259
cil	-12260
rit	-12261
uns	-12262
ທົວ	-12263
ບຣາ	-12264
ມົງ	-12265
ສອດ	-12266
ຮີບ	-12267
ເກງ	-12268
ໂຊມ	-12269
ໂພສ	-12270
▁FL	-12271
▁NC	-12272
▁ປູ	-12273
▁ໄບ	-12274
igan	-12275
odia	-12276
tain	-12277
umen	-12278
ຊ້ອມ	-12279
ຕັ່ງ	-12280
ຕົ້ມ	-12281
ທົ່ງ	-12282
▁Alb	-12283
▁BTC	-12284
▁PhD	-12285
▁Wen	-12286
▁ຟິກ	-12287
▁ໂອນ	-12288
attle	-12289
ລີນິກ	-12290
▁2002	-12291
▁Site	-12292
▁Watt	-12293
▁ທະລາ	-12294
▁ບ້າໆ	-12295
▁ຝ້າຍ	-12296
▁ເຜົາ	-12297
Sphere	-12298
amping	-12299
androl	-12300
angers	-12301
ressor	-12302
ຈາກຜູ້	-12303
ຕອບແທນ	-12304
ຕາຂ່າຍ	-12305
ປັບຕົວ	-12306
ພັດລົມ	-12307
ເຫລືອງ	-12308
ໂດຍຜູ້	-12309
▁86-13	-12310
▁Space	-12311
▁Symph	-12312
▁silic	-12313
▁ລາມົກ	-12314
olution	-12315
ທຸກໆຄົນ	-12316
ຜ່ານແດນ	-12317
ເຕືອນໄພ	-12318
▁Cooler	-12319
▁Valley	-12320
▁ຕົນເອງ	-12321
▁ສຸມໃສ່	-12322
▁ໄດ້ບອກ	-12323
▁ໄດ້ອອກ	-12324
▁ໄດ້ໃຫ້	-12325
ເສຍສະຫຼະ	-12326
ໃນລາຍການ	-12327
▁ຄາດຄະເນ	-12328
▁ດັດຊະນີ	-12329
ຂະແຫນງການ	-12330
ສະຖຽນລະພາບ	-12331
ຫຼັງຈາກການ	-12332
ຫຼາຍເກີນໄປ	-12333
▁Pneumatic	-12334
▁ສິ່ງທ້າທາຍ	-12335
ເຂົ້າຮ່ວມຂອງ	-12336
ເປັນອັນຕະລາຍ	-12337
▁ກ້ອງຖ່າຍຮູບ	-12338
▁ແລະດັ່ງນັ້ນ	-12339
ໄດ້ຮັບອະນຸຍາດ	-12340
▁ການຊ່ວຍເຫຼືອ	-12341
ລາຄາຖືກລາຄາຖືກ	-12342
ເພື່ອຕອບສະຫນອງ	-12343
ໄດ້ຮັບຜົນປະໂຫຍດ	-12344
KV	-12345
ືງ	-12346
ໃຕ	-12347
໊ດ	-12348
.14	-12349
700	-12350
EST	-12351
jie	-12352
kgs	-12353
obe	-12354
urs	-12355
ກຽວ	-12356
ມະໂ	-12357
▁Je	-12358
▁Ub	-12359
▁ໂຖ	-12360
acth	-12361
aven	-12362
omes	-12363
room	-12364
ບົ່ງ	-12365
▁But	-12366
▁Men	-12367
▁Pvc	-12368
▁out	-12369
▁pcs	-12370
▁ງ່າ	-12371
▁ປ້າ	-12372
▁ເຈີ	-12373
itute	-12374
oshan	-12375
ຜະສົມ	-12376
ຢູໂຣບ	-12377
ອົງຄະ	-12378
ັດທົວ	-12379
ໂດເມນ	-12380
▁Core	-12381
▁HDPE	-12382
▁Spin	-12383
ຂອງສານ	-12384
ທັນຫັນ	-12385
ຜ່ານໄປ	-12386
ແລະໃຫ້	-12387
ໃຕ້ຂອງ	-12388
▁Birds	-12389
▁Views	-12390
▁ຄົບຫາ	-12391
▁ຕາບອດ	-12392
▁ທະວີບ	-12393
▁ມໍເຕີ	-12394
ກໍ່ແມ່ນ	-12395
ຕໍ່ນາທີ	-12396
ພະເຈົ້າ	-12397
ມະໂຫລານ	-12398
ຢຸດເຊົາ	-12399
ສໍາຫລວດ	-12400
▁Extens	-12401
▁Motors	-12402
▁Suzuki	-12403
▁carton	-12404
▁sensor	-12405
▁ສາຍແອວ	-12406
▁ສົມສັກ	-12407
acthacks	-12408
ຂ້ອຍຈຶ່ງ	-12409
ຈອນເຕັ້ນ	-12410
ບົ່ມຊ້ອນ	-12411
ປະຈໍາການ	-12412
ອ໊ອກໄຊດ໌	-12413
▁Angeles	-12414
▁Bonuses	-12415
▁printer	-12416
▁ຂອງເຮົາ	-12417
▁ບັງເອີນ	-12418
▁ຮ້ອງໄຫ້	-12419
ກວ່າເກົ່າ	-12420
ຫນຶ່ງແມ່ນ	-12421
ແລະໂຮງງານ	-12422
▁Symphony	-12423
▁ລະຫັດທົວ	-12424
ປົກຫຸ້ມຂອງ	-12425
ແມ່ນພຽງແຕ່	-12426
ແລະອາຍແກັສ	-12427
▁Connector	-12428
▁ຊື່ຍີ່ຫໍ້	-12429
▁ເພື່ອສ້າງ	-12430
▁ການບໍລິຫານ	-12431
▁ຂ້ອຍຄິດວ່າ	-12432
ຄວາມເຂັ້ມແຂງ	-12433
ເຮັດໃຫ້ມີແສງ	-12434
ສໍາລັບທຸລະກິດ	-12435
ສໍາລັບພວກເຮົາ	-12436
▁ຕອນຄ່ໍາວັນທີ	-12437
ກອງປະຊຸມສໍາມະນາ	-12438
ເຄື່ອງຫມາຍການຄ້າ	-12439
WS	-12440
ALE	-12441
bow	-12442
inh	-12443
kin	-12444
ຣອນ	-12445
ຣີ່	-12446
▁Ft	-12447
▁HY	-12448
▁Oh	-12449
▁ຄຸ	-12450
▁ລູ	-12451
chor	-12452
ຕລາຍ	-12453
▁720	-12454
▁Cra	-12455
▁Ger	-12456
▁Mob	-12457
▁Ten	-12458
▁Wol	-12459
▁aut	-12460
▁ຈິກ	-12461
▁ຮີດ	-12462
▁ເອດ	-12463
INGBO	-12464
itian	-12465
ooder	-12466
ມູນິດ	-12467
▁2025	-12468
▁Cord	-12469
▁Guan	-12470
▁Near	-12471
▁Time	-12472
▁wifi	-12473
▁ຂີ້ເ	-12474
▁ດ່ວນ	-12475
▁ແຫນ່	-12476
hereum	-12477
ການຕັດ	-12478
ຖະແຫລງ	-12479
ທີ່ແຂງ	-12480
ລະເສີນ	-12481
▁Louis	-12482
▁Ocean	-12483
▁Tower	-12484
▁brush	-12485
▁ເດວິດ	-12486
ຄືບຫນ້າ	-12487
ບາງສ່ວນ	-12488
ສາມັກຄີ	-12489
ອັນຕລາຍ	-12490
▁Geocon	-12491
▁Rooder	-12492
▁ການຈັດ	-12493
▁ປີກ່ອນ	-12494
▁ອຸປະມາ	-12495
ຄວາມເຢັນ	-12496
ທີ່ຈະໃຊ້	-12497
ລະບົດບາດ	-12498
ລະບຽບການ	-12499
ສີ່ຫລ່ຽມ	-12500
ເມື່ອວັນ	-12501
▁Crusher	-12502
▁ທີ່ທ່ານ	-12503
▁ເຄົາລົບ	-12504
▁ໄດ້ສ້າງ	-12505
ຂອງຄວາມໄວ	-12506
ຢືນຢັນວ່າ	-12507
ວຸດທິສະພາ	-12508
ສິ່ງຕ່າງໆ	-12509
ອິສາລະເອວ	-12510
ເຄື່ອງຕັດ	-12511
ເຮັດວຽກໃນ	-12512
▁LinkedIn	-12513
▁ການພະນັນ	-12514
▁ບໍ່ມີການ	-12515
▁ການຟື້ນຟູ	-12516
▁ລະຫັດຜ່ານ	-12517
▁ວິສະວະກອນ	-12518
▁exacthacks	-12519
▁ໃນເວລານັ້ນ	-12520
▁ໂດຍບໍ່ມີການ	-12521
▁ຂ້າພະເຈົ້າຈະ	-12522
▁Sihanoukville	-12523
ຢ່າງກວ້າງຂວາງໃນ	-12524
▁ນອກເຫນືອຈາກການ	-12525
ຫ້ອງນໍ້າຫ້ອງນໍ້າ	-12526
="0	-12527
eal	-12528
era	-12529
ror	-12530
ude	-12531
ຊິວ	-12532
ປົນ	-12533
ຣີນ	-12534
ລີດ	-12535
ຫາງ	-12536
▁81	-12537
▁GS	-12538
▁Of	-12539
▁Ra	-12540
▁hy	-12541
▁vk	-12542
acen	-12543
hong	-12544
ຕຸ້ງ	-12545
ອະໄພ	-12546
ຮ່ຈິ	-12547
ໂປໂລ	-12548
▁0.6	-12549
▁25%	-12550
▁91;	-12551
▁acc	-12552
▁dec	-12553
▁ຖີບ	-12554
▁ອວຍ	-12555
▁ແຄບ	-12556
▁ແມວ	-12557
2.168	-12558
inity	-12559
otion	-12560
ນິເວດ	-12561
ສາມປີ	-12562
ສາວົກ	-12563
ຫາສຽງ	-12564
ໂຄມໄຟ	-12565
ໃສ່ໃນ	-12566
▁Apps	-12567
▁Mail	-12568
▁Mary	-12569
▁Teen	-12570
▁coin	-12571
eroean	-12572
iscuit	-12573
ຍ້າຍໄປ	-12574
ປະຫວັດ	-12575
ໍ່ສ້າງ	-12576
▁Cross	-12577
▁Texas	-12578
▁ຫມ້າຍ	-12579
▁ອິສຣາ	-12580
▁ໂມດູນ	-12581
ຄວາມຍາວ	-12582
ທີ່ເຄີຍ	-12583
ທ້ອງຟ້າ	-12584
ຢາງພາລາ	-12585
▁Crypto	-12586
▁Temper	-12587
▁Zipper	-12588
▁hacker	-12589
▁ຂອງລາວ	-12590
▁ຕໍ່ໆໄປ	-12591
▁ບັນຍາຍ	-12592
▁ພໍ່ແມ່	-12593
▁ຟື້ນຟູ	-12594
▁ສີສົ້ມ	-12595
▁ແຮງງານ	-12596
ບ່ອນນັ່ງ	-12597
ເຕົ້ານົມ	-12598
ໂສກເສົ້າ	-12599
▁Factory	-12600
▁desktop	-12601
▁flicker	-12602
▁ກັບຄວາມ	-12603
▁ຂາຍສົ່ງ	-12604
▁ຂຶ້ນຢູ່	-12605
▁ຄົນອື່ນ	-12606
▁ມື້ຄ່ໍາ	-12607
▁ເຂົາໄດ້	-12608
ຄິດວ່າມັນ	-12609
▁Assembly	-12610
▁Business	-12611
▁Canberra	-12612
▁roulette	-12613
▁ຕ່າງໆຂອງ	-12614
▁ພະບັນຍັດ	-12615
▁ຢາເສບຕິດ	-12616
ຄວາມກັງວົນ	-12617
ຕ້ອງການໃຫ້	-12618
ປະຕິກິລິຍາ	-12619
ສວນສາທາລະນະ	-12620
ຮູບພາບໄປສູ່	-12621
▁ເກີດຂຶ້ນຄື	-12622
ການປະດິດສ້າງ	-12623
▁ເສົ້າສະຫລົດ	-12624
ການປ່ຽນແປງຂອງ	-12625
ແລະຄ່າໃຊ້ຈ່າຍ	-12626
ຊ່ວຍໃຫ້ພວກເຮົາ	-12627
ການສະຫນັບສະຫນູນ	-12628
ທີ່ຂ້າພະເຈົ້າໄດ້	-12629
GI	-12630
GR	-12631
sp	-12632
.38	-12633
IVE	-12634
apy	-12635
rus	-12636
ugh	-12637
uxi	-12638
ງັບ	-12639
ຕີ້	-12640
ເມກ	-12641
ເວຍ	-12642
▁GU	-12643
▁Mo	-12644
ogen	-12645
ຄວັນ	-12646
ເທດຍ	-12647
່ວາງ	-12648
▁Bab	-12649
▁Ban	-12650
▁DNA	-12651
▁FDA	-12652
▁Hen	-12653
▁SEC	-12654
▁cur	-12655
▁twe	-12656
▁ເວີ	-12657
▁ແມ້	-12658
istan	-12659
ສະຕິງ	-12660
▁1960	-12661
▁Dete	-12662
▁Pipe	-12663
▁Qing	-12664
▁ອ່າວ	-12665
ການປິດ	-12666
ຊຸມນຸມ	-12667
▁Peach	-12668
▁Promo	-12669
▁ອີຣັກ	-12670
ບັງເອີນ	-12671
ວົງເງິນ	-12672
ສອງຄັ້ງ	-12673
ສາມາດມີ	-12674
ອານຸຍາດ	-12675
▁Jacket	-12676
▁Valent	-12677
▁Virgin	-12678
▁invent	-12679
▁ຄໍານຶງ	-12680
▁ປະເມີນ	-12681
ທາງລົດໄຟ	-12682
ບັນດານໃຈ	-12683
ຟ້ອງຮ້ອງ	-12684
ລ່ວງຫນ້າ	-12685
ຫລວງຫລາຍ	-12686
ອະໄວຍະວະ	-12687
ແມ່ນຄວາມ	-12688
▁Premium	-12689
▁ຄວາມຮູ້	-12690
▁ນ້ໍາແຂງ	-12691
▁ແມ່ນ້ໍາ	-12692
ການຕິດຕໍ່	-12693
ການສະຫນອງ	-12694
ຂໍ້ມູນຈາກ	-12695
ທຸລະກິດໃນ	-12696
ສາມາດຊ່ວຍ	-12697
▁ethereum	-12698
▁ເອີ້ນວ່າ	-12699
ຢູ່ໃນລະດັບ	-12700
ເຂົ້າໃນການ	-12701
ຂອງອາເມລິກາ	-12702
ພຽງເລັກນ້ອຍ	-12703
ຮ່າງກົດຫມາຍ	-12704
ເຮັດໃຫ້ຂ້ອຍ	-12705
▁ບໍລິສັດໄດ້	-12706
▁ເຄື່ອງດື່ມ	-12707
ເພື່ອປ້ອງກັນ	-12708
ທາງອິນເຕີເນັດ	-12709
ME	-12710
gg	-12711
ko	-12712
OMO	-12713
sey	-12714
tek	-12715
ຊາມ	-12716
ຖືອ	-12717
ບອດ	-12718
ປອກ	-12719
ມາຍ	-12720
ລອບ	-12721
ສໍ້	-12722
ເຈາ	-12723
ເປຍ	-12724
ເຣນ	-12725
ໂກນ	-12726
▁EA	-12727
▁Ho	-12728
▁SC	-12729
▁ຄີ	-12730
.6.4	-12731
Time	-12732
imer	-12733
kers	-12734
orld	-12735
ປະທະ	-12736
ສຸ່ມ	-12737
ຫລໍ່	-12738
ຫຼືກ	-12739
ແຄ້ນ	-12740
ໂຫວດ	-12741
▁30,	-12742
▁Exp	-12743
▁Laz	-12744
▁Nex	-12745
▁Rec	-12746
▁Sky	-12747
▁Sok	-12748
▁WEF	-12749
▁ກາວ	-12750
▁ຣິກ	-12751
▁ອຽງ	-12752
ippie	-12753
leece	-12754
riday	-12755
stock	-12756
ກະບົດ	-12757
ຄູຝຶກ	-12758
ໄວຣັດ	-12759
ໍລະນີ	-12760
▁1.0%	-12761
▁1997	-12762
▁Buck	-12763
▁Lead	-12764
▁WiFi	-12765
▁Zhen	-12766
▁cage	-12767
▁iPod	-12768
▁live	-12769
▁ribb	-12770
▁ເຊີດ	-12771
ration	-12772
ກະລຸນາ	-12773
ຂື້ນໃນ	-12774
ພໍ່ຄ້າ	-12775
ສະຖານະ	-12776
ສໍາຮອງ	-12777
າກະຊວງ	-12778
ໃນທຸກໆ	-12779
▁40000	-12780
▁Beige	-12781
▁Brush	-12782
▁Ether	-12783
▁Ninja	-12784
▁Scott	-12785
▁ປະຫານ	-12786
▁ລະບາຍ	-12787
▁ລົດໄຟ	-12788
parator	-12789
ຄຸ້ມກັນ	-12790
ຈະມີການ	-12791
ຕື່ມອີກ	-12792
ທີ່ສົ່ງ	-12793
ມູນນິທິ	-12794
ລະບຸວ່າ	-12795
ຫນ້າດິນ	-12796
ໂລຫະແລະ	-12797
ໄລຍະຍາວ	-12798
▁Rabies	-12799
▁Soccer	-12800
▁Sodium	-12801
▁pretty	-12802
▁ທອງແດງ	-12803
▁ອະໄຫລ່	-12804
▁ອ່ອນແອ	-12805
ຄວາມຫວັງ	-12806
ເສຍອົງຄະ	-12807
ໄດ້ເລີ່ມ	-12808
▁Drifter	-12809
▁jackpot	-12810
▁youjian	-12811
▁ສະຊອບແວ	-12812
ກໍລະນີນີ້	-12813
ຂອງອັງກິດ	-12814
ຂອງແມ່ຍິງ	-12815
ທີ່ລາວໄດ້	-12816
ອະລູມິນຽມ	-12817
ເງິນເດືອນ	-12818
ເພດສໍາພັນ	-12819
▁AWITNESS	-12820
▁tutorial	-12821
▁ບັນລະຍາຍ	-12822
ເພື່ອນບ້ານ	-12823
ໄລຍະດຽວກັນ	-12824
▁Compressor	-12825
ສໍາລັບເຄື່ອງ	-12826
▁ຄໍາບັນລະຍາຍ	-12827
▁ປີທີ່ຜ່ານມາ	-12828
▁ສາຍການຜະລິດ	-12829
▁ຫງວຽນຊວນຟຸກ	-12830
ທີ່ຈະໄດ້ຮັບການ	-12831
ພັດທະນາເສດຖະກິດ	-12832
KE	-12833
RH	-12834
zi	-12835
220	-12836
Mar	-12837
odi	-12838
rem	-12839
ຣິນ	-12840
▁-.	-12841
▁OK	-12842
▁TO	-12843
▁bo	-12844
▁ຈູ	-12845
▁ານ	-12846
book	-12847
emon	-12848
irus	-12849
ສາຂາ	-12850
▁-10	-12851
▁Gab	-12852
▁HKD	-12853
▁Lap	-12854
▁Pac	-12855
▁SSL	-12856
▁bit	-12857
▁mai	-12858
▁rot	-12859
▁ນົມ	-12860
▁ຟລີ	-12861
Haber	-12862
stein	-12863
ຟີຊິກ	-12864
ອັດສະ	-12865
ເຫມາະ	-12866
▁MIDI	-12867
▁Sale	-12868
▁from	-12869
▁ninj	-12870
▁ເຄົາ	-12871
▁ແຫວນ	-12872
ດັດແກ້	-12873
ທີ່ຍາກ	-12874
ີນິເຈີ	-12875
ໄດ້ໃຫ້	-12876
▁Break	-12877
▁Music	-12878
▁Point	-12879
▁black	-12880
▁games	-12881
▁under	-12882
▁ເພດານ	-12883
▁ເຫມັນ	-12884
stanbul	-12885
ນ້ໍາແຂງ	-12886
ຢູ່ຂ້າງ	-12887
ລົບລ້າງ	-12888
ອຸປະສັກ	-12889
ເງິນຂອງ	-12890
▁Baging	-12891
▁Gaming	-12892
▁Tester	-12893
▁ການບິນ	-12894
▁ມັນບໍ່	-12895
ເຜົາໄຫມ້	-12896
ໄວທີ່ສຸດ	-12897
▁Pickets	-12898
▁ຊົ່ວຄາວ	-12899
▁ນີ້ເປັນ	-12900
▁ວິທີທີ່	-12901
▁ໄດ້ເຮັດ	-12902
ທີ່ຍາວນານ	-12903
ລັກອັກສອນ	-12904
ສໍາລັບຄົນ	-12905
▁RayHaber	-12906
▁ເກົ້າສິບ	-12907
ທັງຫມົດທີ່	-12908
ເບື້ອງຫຼັງ	-12909
ແຍກຕ່າງຫາກ	-12910
ແລະພັດທະນາ	-12911
▁ຂີ້ເຫຍື້ອ	-12912
▁ເມື່ອຂ້ອຍ	-12913
▁ເລຂາທິການ	-12914
ຂອງການສຶກສາ	-12915
ດໍາເນີນຄະດີ	-12916
▁ຖ້າພວກເຮົາ	-12917
ທີ່ກວ້າງຂວາງ	-12918
ທີ່ມີຢູ່ແລ້ວ	-12919
ເຂົ້າຮ່ວມການ	-12920
ໃນເບື້ອງຕົ້ນ	-12921
▁ຢາຕ້ານເຊື້ອ	-12922
ລັດຖະທໍາມະນູນ	-12923
ເກັບຂີ້ເຫຍື້ອ	-12924
PO	-12925
fr	-12926
lu	-12927
sl	-12928
-09	-12929
ACH	-12930
ENT	-12931
itz	-12932
opt	-12933
vid	-12934
ຕັກ	-12935
ບິກ	-12936
ບົບ	-12937
ເຮີ	-12938
໊ອດ	-12939
▁3)	-12940
▁CV	-12941
▁JH	-12942
▁Yu	-12943
▁ດ້	-12944
bank	-12945
ique	-12946
oday	-12947
otot	-12948
rier	-12949
ວິດີ	-12950
ຫນີ້	-12951
ອິສະ	-12952
ິເຕີ	-12953
ເຊັບ	-12954
▁(13	-12955
▁2.8	-12956
▁256	-12957
▁Eva	-12958
▁Ret	-12959
▁Tel	-12960
▁Wil	-12961
▁cre	-12962
▁ມີດ	-12963
▁ສໍ້	-12964
▁ແວງ	-12965
▁້ໍາ	-12966
anced	-12967
ptide	-12968
river	-12969
ກຸສົນ	-12970
ຕິຄຸນ	-12971
ທະວີບ	-12972
ສູບຢາ	-12973
ຫານີ້	-12974
ົງໄຫຼ	-12975
ໃຫມ່ນ	-12976
▁Bish	-12977
▁Clom	-12978
▁Food	-12979
▁Gate	-12980
▁Priv	-12981
▁Temp	-12982
▁spin	-12983
▁ແຊ່ງ	-12984
ການຂຽນ	-12985
ຄອນເທນ	-12986
ຈະຊ່ວຍ	-12987
ຜູກມັດ	-12988
ຜູ້ຖືກ	-12989
ພຣະກິດ	-12990
ພິມໄດ້	-12991
ຮາງວັນ	-12992
ເຂັ້ມຂ	-12993
ເອີລົບ	-12994
ແຂນແຂນ	-12995
ໃຫ້ໄດ້	-12996
▁Cable	-12997
▁Sheng	-12998
▁Women	-12999
▁vinyl	-13000
▁ທັນໃດ	-13001
▁ເມດຕາ	-13002
▁ໃນໂລກ	-13003
content	-13004
ຂ້າງຄຽງ	-13005
ຢ່າງບໍ່	-13006
ຮ່ຈິມິນ	-13007
▁Dragon	-13008
▁Heroes	-13009
▁Spring	-13010
▁ດຶງດູດ	-13011
▁ອະນາໄມ	-13012
▁ແຕ່ບໍ່	-13013
ກວາງຕຸ້ງ	-13014
ມຸດສະລິມ	-13015
ວັດຖຸດິບ	-13016
ເບິ່ງວ່າ	-13017
▁0086-13	-13018
▁Saracen	-13019
▁crusher	-13020
▁ຈົ່ງຈື່	-13021
▁ທິດສະດີ	-13022
▁ປ່ຽນກັບ	-13023
▁ສະຕະວັດ	-13024
ທີ່ມີອາຍຸ	-13025
ພົ້ນເດັ່ນ	-13026
ໃນຕອນທ້າຍ	-13027
▁Cambodia	-13028
▁Silicone	-13029
▁ຫນູນຊ່ວຍ	-13030
ລ່ວງລະເມີດ	-13031
ສະບັບເລກທີ	-13032
ເປັນຜູ້ນໍາ	-13033
ແຜ່ນດິນໂລກ	-13034
ແລະບໍລິສັດ	-13035
▁Extrusion	-13036
▁Morehacks	-13037
▁ກ່ອນທີ່ຈະ	-13038
▁ຜູ້ສະຫມັກ	-13039
▁ເຂົ້າຫນົມ	-13040
ຕ້ອງການຄວາມ	-13041
ບໍາລຸງຮັກສາ	-13042
ເທົ່າທຽມກັນ	-13043
ໃນການທົດລອງ	-13044
ປະດິດຄິດສ້າງ	-13045
▁ຫມາຍຄວາມວ່າ	-13046
ການເຊື່ອມໂລຫະ	-13047
ຂຸດຄົ້ນບໍ່ແຮ່	-13048
ຢ່າງວ່ອງໄວແລະ	-13049
ຕາມຄວາມຕ້ອງການ	-13050
ຂໍ້ມູນຂອງພວກເຮົາ	-13051
ນາຍຍົກລັດຖະມົນຕີ	-13052
MN	-13053
my	-13054
ws	-13055
COM	-13056
ISO	-13057
PCS	-13058
ely	-13059
oen	-13060
ຄວບ	-13061
ຄະນ	-13062
ບົວ	-13063
ເລະ	-13064
▁BP	-13065
▁Ep	-13066
▁Mu	-13067
▁ບຣ	-13068
▁ຫິ	-13069
FXCL	-13070
angu	-13071
ຈິ່ງ	-13072
ດິ່ງ	-13073
ຖືພາ	-13074
ສາມີ	-13075
▁102	-13076
▁165	-13077
▁2.4	-13078
▁304	-13079
▁574	-13080
▁DMC	-13081
▁Hex	-13082
▁Lor	-13083
▁Low	-13084
▁War	-13085
▁she	-13086
▁ພຸດ	-13087
▁ໂຄມ	-13088
/2018	-13089
ERIES	-13090
esser	-13091
iforn	-13092
iston	-13093
sheng	-13094
stone	-13095
ຕາບອດ	-13096
ຖະກໍາ	-13097
ສະເຫນ	-13098
▁Demo	-13099
▁Real	-13100
▁Saga	-13101
▁Sign	-13102
▁Weld	-13103
▁have	-13104
▁soft	-13105
▁ກະວີ	-13106
▁ເມລິ	-13107
lector	-13108
ຂອງເກມ	-13109
ຍ້ອງຍໍ	-13110
ປົກຄຸມ	-13111
ິສະຖານ	-13112
ໄດ້ອອກ	-13113
▁Watts	-13114
▁ຕະກໍາ	-13115
▁ທີ່ດີ	-13116
▁ສະມັດ	-13117
▁ໂຊວຽດ	-13118
ດິນເຜົາ	-13119
ຕັດຫຍິບ	-13120
ຕ້ອງໃຊ້	-13121
ນັ້ນໄດ້	-13122
ເຈດຕະນາ	-13123
▁Friend	-13124
▁ຕໍ່ກັບ	-13125
▁ບໍ່ດົນ	-13126
cription	-13127
ຊີວິດຂອງ	-13128
ຢູ່ພາຍໃນ	-13129
ເຫນືອຂອງ	-13130
ໃນວັນສຸກ	-13131
▁Scooter	-13132
▁ຄູອາຈານ	-13133
▁ເຊິ່ງມີ	-13134
ເດືອນຕຸລາ	-13135
ເຫດການນີ້	-13136
▁hydrogen	-13137
▁ອິດທິພົນ	-13138
▁ເຊື້ອສາຍ	-13139
▁ໃນຮູບແບບ	-13140
ເຂດພື້ນທີ່	-13141
ໄດອ໊ອກໄຊດ໌	-13142
▁Christian	-13143
▁ການຕະຫຼາດ	-13144
▁ຄູ່ຜົວເມຍ	-13145
ຢ່າງຖືກຕ້ອງ	-13146
ສາຍການຜະລິດ	-13147
ເພື່ອປັບປຸງ	-13148
▁insulation	-13149
ການເກັບຮັກສາ	-13150
ແລະການນໍາໃຊ້	-13151
▁Application	-13152
▁Corporation	-13153
▁ໃນເດືອນເມສາ	-13154
ປະສິດທິພາບສູງ	-13155
▁ຄວາມເຂັ້ມແຂງ	-13156
▁ສະພາບແວດລ້ອມ	-13157
▁ການສະຫນັບສະຫນູນ	-13158
OH	-13159
Up	-13160
ແຮ	-13161
.40	-13162
122	-13163
duc	-13164
fox	-13165
rap	-13166
rey	-13167
rot	-13168
ຂົວ	-13169
ຊາບ	-13170
ຕາດ	-13171
ຖັນ	-13172
າະລ	-13173
ແຟນ	-13174
▁1)	-13175
▁Ax	-13176
▁lo	-13177
▁ໂຟ	-13178
alth	-13179
kamp	-13180
oven	-13181
ຊ໊ອກ	-13182
ມະຕະ	-13183
ັນດາ	-13184
ິນິວ	-13185
ເວີດ	-13186
▁27,	-13187
▁270	-13188
▁Bin	-13189
▁Ken	-13190
▁THB	-13191
▁TKT	-13192
▁inc	-13193
▁sex	-13194
▁top	-13195
▁ຂຸມ	-13196
▁ຄາງ	-13197
▁ສາງ	-13198
tdown	-13199
ກໍ່ມີ	-13200
ຫາກໍາ	-13201
ເຕີຣີ	-13202
▁ANSI	-13203
▁CANN	-13204
▁Fold	-13205
▁Lott	-13206
▁Pear	-13207
▁RFID	-13208
▁disc	-13209
▁ຊ້ອມ	-13210
▁ລ້ວນ	-13211
ການນໍາ	-13212
ຈັບກຸມ	-13213
ບໍ່ທັນ	-13214
ປີໃຫມ່	-13215
ມື້ນັບ	-13216
ສັນຍາກ	-13217
ສານພິດ	-13218
ສົ່ງໄປ	-13219
ເສື້ອຍ	-13220
່ານັ້ງ	-13221
▁1,000	-13222
▁2020.	-13223
▁Piece	-13224
▁bonus	-13225
▁ວາງໃຈ	-13226
▁ສາບານ	-13227
▁ເຂດແຄ	-13228
ifornia	-13229
itioner	-13230
ດີເດັ່ນ	-13231
ນ້ໍາແລະ	-13232
ສັ່ງຊື້	-13233
ສິ່ງຂອງ	-13234
ຮົ່ວໄຫຼ	-13235
ຮ່ອງຮອຍ	-13236
ຮ້ອງໄຫ້	-13237
ັດສະດຸກ	-13238
▁School	-13239
▁petals	-13240
▁ກໍາແພງ	-13241
▁ລອນດອນ	-13242
▁ຫມໍ້ໄຟ	-13243
▁ອີຣ່ານ	-13244
ດັ້ງເດີມ	-13245
ດ້ານໄອທີ	-13246
ຕົວເລືອກ	-13247
ວໍຊິງຕັນ	-13248
ເປັນຢ່າງ	-13249
ແຮງຈູງໃຈ	-13250
ໃຊ້ໄຟຟ້າ	-13251
ໃນຂອບເຂດ	-13252
▁192.168	-13253
▁Beroean	-13254
▁machine	-13255
▁ຊຶ່ງພວກ	-13256
▁ຕາຫນ່າງ	-13257
▁ສັງກະສີ	-13258
▁ຫ້ອງຮຽນ	-13259
▁ອຸປະສັກ	-13260
emailkamp	-13261
ຄອນເທນເນີ	-13262
ບັນທຶກການ	-13263
ສິ່ງທີ່ດີ	-13264
▁ຈະສືບຕໍ່	-13265
▁ເຂົ້າສູ່	-13266
▁ເວັ້ນຈາກ	-13267
ການແລກປ່ຽນ	-13268
ທີ່ສູງຂຶ້ນ	-13269
ສິດທິໃນການ	-13270
ສໍາເລັດຮູບ	-13271
ຫນ້ອຍຫນຶ່ງ	-13272
▁ຕາເວັນຕົກ	-13273
▁ສົມທົບກັບ	-13274
ຄວາມຖືກຕ້ອງ	-13275
ສັງເກດເບິ່ງ	-13276
ເປັນຫນຶ່ງໃນ	-13277
▁California	-13278
▁fiberglass	-13279
▁ຊື່ຂອງທ່ານ	-13280
ປະສົບກັບຄວາມ	-13281
ຫມາແລະຫມາແລະ	-13282
ອີເລັກໂທຣນິກ	-13283
▁ແຮງດັນໄຟຟ້າ	-13284
ຫຼີ້ນການພະນັນ	-13285
ໂລກລະບາດໂຄວິດ	-13286
▁ຕາເວັນອອກກາງ	-13287
▁ເປັນຫຍັງຈຶ່ງ	-13288
▁ໄດ້ເຂົ້າຮ່ວມ	-13289
ທີ່ເປັນອັນຕະລາຍ	-13290
ທີ່ແຕກຕ່າງກັນຂອງ	-13291
AB	-13292
CT	-13293
ty	-13294
-70	-13295
001	-13296
IDE	-13297
ado	-13298
aza	-13299
ges	-13300
lad	-13301
opy	-13302
ລຽບ	-13303
ແມວ	-13304
▁EL	-13305
▁HG	-13306
▁fo	-13307
▁ml	-13308
▁ນ້	-13309
etra	-13310
imeo	-13311
ison	-13312
ists	-13313
ຊາກິ	-13314
ຫຼົບ	-13315
ອ່າວ	-13316
ເກິດ	-13317
▁16:	-13318
▁185	-13319
▁24)	-13320
▁AMP	-13321
▁Gem	-13322
▁Pop	-13323
▁VIP	-13324
▁VPN	-13325
▁Ven	-13326
▁opt	-13327
▁ຕົງ	-13328
abeth	-13329
anton	-13330
ibbon	-13331
zzles	-13332
ກັບໄປ	-13333
ປະກວດ	-13334
ມີຢູ່	-13335
ລິຄອບ	-13336
ສະທໍາ	-13337
ສະເຕີ	-13338
ະຫນານ	-13339
າຊາກິ	-13340
▁1995	-13341
▁Cost	-13342
▁Fest	-13343
▁Grey	-13344
▁Need	-13345
▁arch	-13346
▁extr	-13347
ington	-13348
ionate	-13349
phenyl	-13350
ທຽບກັບ	-13351
າບັນດາ	-13352
ເຄຣດິດ	-13353
▁Check	-13354
▁Girls	-13355
▁Sales	-13356
▁Trade	-13357
▁Vegas	-13358
▁ກະດານ	-13359
▁ທັກສະ	-13360
▁ມີຄົນ	-13361
▁ໃນບາງ	-13362
ທີ່ຕັ້ງ	-13363
ຢ່າງແຮງ	-13364
ອີກດ້ວຍ	-13365
ອ້າງອິງ	-13366
ຮ້ອງເພງ	-13367
ໄດ້ສົ່ງ	-13368
▁(2012)	-13369
▁Hunter	-13370
▁Roller	-13371
▁ກໍ່ໄດ້	-13372
▁ຄົບຮອບ	-13373
▁ວິເຄາະ	-13374
▁ເປັນຕາ	-13375
▁ໂດຍກົງ	-13376
ຖິ້ມຖິ້ມ	-13377
ບັນຊາການ	-13378
ຢ່າງຫນັກ	-13379
▁Display	-13380
▁Textile	-13381
▁ນອກນັ້ນ	-13382
▁ປະສິດທິ	-13383
▁ປ່ອຍໃຫ້	-13384
ຂໍ້ກ່າວຫາ	-13385
ລະອຽດອ່ອນ	-13386
ເບິ່ງເຫັນ	-13387
ແບັກທີເຣຍ	-13388
ແບັດເຕີຣີ	-13389
ແລະວິດີໂອ	-13390
▁Airlines	-13391
▁ຄາດວ່າຈະ	-13392
▁ເວັບໄຊຕ໌	-13393
ການບໍລິໂພກ	-13394
ຄໍາອະທິບາຍ	-13395
ສໍານັກຂ່າວ	-13396
ເງິນລົງທຶນ	-13397
▁Hydraulic	-13398
▁Institute	-13399
▁ຕອບສະຫນອງ	-13400
▁ສ່ວນປະກອບ	-13401
▁ແຕ່ວ່າມັນ	-13402
ຈໍານວນຫນຶ່ງ	-13403
ທີ່ເຮັດດ້ວຍ	-13404
▁Electronic	-13405
▁ເຈົ້າສາມາດ	-13406
ໃນອິນເຕີເນັດ	-13407
▁ຄວາມຕ້ານທານ	-13408
▁ສະຫະປະຊາຊາດ	-13409
▁ຫໍສັງເກດການ	-13410
ເສຍສະຫຼະຊີວິດ	-13411
ໄດ້ຮັບຜົນກະທົບ	-13412
ເອກອັກຄະລັດຖະທູດ	-13413
%;	-13414
/8	-13415
PL	-13416
TY	-13417
lp	-13418
ອູ	-13419
.34	-13420
128	-13421
aic	-13422
bao	-13423
len	-13424
oof	-13425
ເກຍ	-13426
▁DW	-13427
▁VI	-13428
▁ip	-13429
▁ບະ	-13430
igin	-13431
oria	-13432
umma	-13433
vard	-13434
ດີໃຈ	-13435
ືກສາ	-13436
ແກ່ງ	-13437
▁(2,	-13438
▁0.7	-13439
▁260	-13440
▁Dan	-13441
▁ILS	-13442
▁SAR	-13443
▁bar	-13444
▁ຊິບ	-13445
▁ນວຍ	-13446
▁ອີ່	-13447
▁ຮານ	-13448
▁ຮີບ	-13449
▁ແຟນ	-13450
earch	-13451
entai	-13452
izhou	-13453
ongee	-13454
pport	-13455
ptine	-13456
ຂະນະນ	-13457
ນີ້ໃນ	-13458
ປາເລດ	-13459
ພາສິດ	-13460
ວິວັດ	-13461
ສີສັນ	-13462
ເຂົ່າ	-13463
▁1994	-13464
▁Aust	-13465
▁Band	-13466
▁Down	-13467
▁Kate	-13468
▁Lego	-13469
▁Stop	-13470
▁Wang	-13471
▁ຫລໍ່	-13472
▁ແຫຼວ	-13473
Trader	-13474
ophone	-13475
ຂອງຊາດ	-13476
ຄອບຄອງ	-13477
ຝັງດິນ	-13478
ສັນຖານ	-13479
ສຸດຍອດ	-13480
▁Chips	-13481
▁Villa	-13482
▁Vinyl	-13483
▁chess	-13484
▁clamp	-13485
▁ຕົກໃຈ	-13486
ທົ່ວທຸກ	-13487
ປັກກິ່ງ	-13488
ລາມິເຕີ	-13489
ສັບຊ້ອນ	-13490
ສໍາເນົາ	-13491
ແມ່ນຜູ້	-13492
▁(2013)	-13493
▁Saving	-13494
▁webcam	-13495
▁ບັນທຸກ	-13496
ອື່ນໆຂອງ	-13497
ອຸທິດຕົນ	-13498
ເຊື້ອຊາດ	-13499
ໃນທາງບວກ	-13500
▁Midwest	-13501
▁ribbons	-13502
▁ກັນນັ້ນ	-13503
▁ເຕົາອົບ	-13504
ສາມາດສ້າງ	-13505
ແລະຄອບຄົວ	-13506
ແລະປັບປຸງ	-13507
▁Istanbul	-13508
▁ສັດຕະວັດ	-13509
ຄະນະຜູ້ແທນ	-13510
ຢູ່ຫວຽດນາມ	-13511
ສາມາດບັນລຸ	-13512
ເປີເຊັນຂອງ	-13513
▁Halloween	-13514
▁ການສໍາພາດ	-13515
ກຸ່ມບໍລິສັດ	-13516
ນັກທ່ອງທ່ຽວ	-13517
▁Downloader	-13518
▁ການຕັ້ງຄ່າ	-13519
▁ຂໍ້ກໍາຫນົດ	-13520
ເປັນຜູ້ຜະລິດ	-13521
▁ອຸປະກອນເສີມ	-13522
ລະດູໃບໄມ້ປົ່ງ	-13523
ເຂົ້າສູ່ລະບົບ	-13524
▁ການນໍາສະເຫນີ	-13525
▁ໂທຣຫາພວກເຮົາ	-13526
ຊີວະພາບຊີວະພາບ	-13527
ຖືກນໍາໃຊ້ເພື່ອ	-13528
ທີ່ສະຫນັບສະຫນູນ	-13529
▁tattoostattoos	-13530
ທາງເລືອກທາງເລືອກ	-13531
59	-13532
/11	-13533
134	-13534
17)	-13535
ERS	-13536
ato	-13537
awa	-13538
imp	-13539
the	-13540
ພີກ	-13541
ເຣດ	-13542
ເຫນ	-13543
▁::	-13544
▁LO	-13545
▁ep	-13546
iral	-13547
▁330	-13548
▁8.2	-13549
▁BBC	-13550
▁Ear	-13551
▁Lat	-13552
▁Lot	-13553
▁Meg	-13554
▁NEW	-13555
▁PLN	-13556
▁Toy	-13557
▁Viv	-13558
▁col	-13559
▁ຈອມ	-13560
▁ຊອງ	-13561
▁ດັກ	-13562
▁ດ່າ	-13563
Shirt	-13564
odeon	-13565
phalt	-13566
ຈະໃຊ້	-13567
ມີສິດ	-13568
ລະຍຸດ	-13569
ໂຄສົກ	-13570
▁Duct	-13571
▁Eliz	-13572
▁Film	-13573
▁Shot	-13574
▁Trip	-13575
▁Vict	-13576
▁With	-13577
▁ເຂີນ	-13578
▁ເສິກ	-13579
ຂັບໄລ່	-13580
ຕົວຂອງ	-13581
ນິວເຄຍ	-13582
ສິດສອນ	-13583
ເສຍດາຍ	-13584
▁Vimeo	-13585
▁Weill	-13586
▁ຫລັ່ງ	-13587
,000.00	-13588
anthate	-13589
opamine	-13590
ກ່າວກັບ	-13591
ຕ່ໍາສຸດ	-13592
▁Friday	-13593
▁Lights	-13594
▁ຊື່ສຽງ	-13595
▁ປະເດັນ	-13596
▁ພວກມັນ	-13597
▁ໃກ້ກັບ	-13598
ຫນ້ານັ້ນ	-13599
ຫລາຍຢ່າງ	-13600
▁Payouts	-13601
▁ປັບແຕ່ງ	-13602
▁ເງິນສົດ	-13603
▁ໄພພິບັດ	-13604
ກັບຄືນສູ່	-13605
ຄະນະກໍາມະ	-13606
ມາຢ້ຽມຢາມ	-13607
ສະຖາປັດຕະ	-13608
▁ກວດເບິ່ງ	-13609
▁ນັກສະແດງ	-13610
▁ພັນທຸກໍາ	-13611
▁Elizabeth	-13612
▁Francisco	-13613
▁ການສະເຫນີ	-13614
▁ທີ່ມີຄວາມ	-13615
ຄັ້ງສຸດທ້າຍ	-13616
▁ຫຼັງຈາກການ	-13617
aneemailkamp	-13618
ຄວາມອາດສາມາດ	-13619
ອອກກໍາລັງກາຍ	-13620
▁Nickelodeon	-13621
▁ຈະເປັນແນວໃດ	-13622
ການປິ່ນປົວດ້ວຍ	-13623
ກົດຫມາຍວ່າດ້ວຍ	-13624
ກັບຈຸດຫມາຍປາຍທາງ	-13625
Ad	-13626
FA	-13627
20)	-13628
="3	-13629
ICK	-13630
MLE	-13631
hui	-13632
iev	-13633
rel	-13634
ຊີກ	-13635
ຊຽມ	-13636
ວິວ	-13637
▁Ti	-13638
▁ຟະ	-13639
4000	-13640
nice	-13641
ຊະຍະ	-13642
ຊັກຊ	-13643
ຫມວກ	-13644
ຫລາກ	-13645
▁(3)	-13646
▁(40	-13647
▁15:	-13648
▁2.2	-13649
▁850	-13650
▁ATV	-13651
▁Cin	-13652
▁Had	-13653
▁Rub	-13654
▁Spl	-13655
▁ນອງ	-13656
ersey	-13657
ished	-13658
ungal	-13659
ຈໍເຈຍ	-13660
ສະຫມີ	-13661
ເທດສະ	-13662
ເຜີ້ງ	-13663
ເຮືອງ	-13664
▁....	-13665
▁1050	-13666
▁1993	-13667
▁Bldg	-13668
▁Carl	-13669
▁Clar	-13670
▁Coup	-13671
▁From	-13672
▁Join	-13673
▁Wuxi	-13674
▁cent	-13675
▁cool	-13676
▁ຫຼ້າ	-13677
acetam	-13678
ຊີເອັນ	-13679
ລ້ຽງດູ	-13680
ຫາດຊາຍ	-13681
ຫາເງິນ	-13682
ຮາກຖານ	-13683
▁sauna	-13684
▁ບລັອກ	-13685
▁ບຸກຄະ	-13686
▁ປັດໄຈ	-13687
▁ວິບັດ	-13688
▁ສຸຂຸມ	-13689
▁ອິດສາ	-13690
▁ເລັ່ງ	-13691
acquard	-13692
ທໍາຮ້າຍ	-13693
ປາຊີຟິກ	-13694
ພ້ອມກັນ	-13695
▁Review	-13696
▁ຕາມການ	-13697
▁ລິດເດດ	-13698
▁ສູນກາງ	-13699
▁ອິຕາລີ	-13700
▁ໄວລຸ້ນ	-13701
ວິກິດການ	-13702
ສະຖານທູດ	-13703
ຫນ້ອຍລົງ	-13704
▁Crystal	-13705
▁Florida	-13706
▁ຄລາສສິກ	-13707
▁ຍ້ອນວ່າ	-13708
▁ບໍ່ມີໃຜ	-13709
▁ລຸກຂຶ້ນ	-13710
▁ແລະເປັນ	-13711
ຂອງນັກຮຽນ	-13712
ທຸກຄົນທີ່	-13713
ສໍາຄັນຂອງ	-13714
ເພື່ອເຮັດ	-13715
ເລັກໂຕນິກ	-13716
ໂຄງການນີ້	-13717
▁Material	-13718
▁ການໂຈມຕີ	-13719
▁ກ໊ອກນ້ໍາ	-13720
▁ຄາວາຊາກິ	-13721
▁ຊອບແວທີ່	-13722
▁ທີ່ມີການ	-13723
▁ເນື້ອງອກ	-13724
▁ແມ່ນເປັນ	-13725
ເກີດຂື້ນໃນ	-13726
ເພື່ອແນໃສ່	-13727
▁ຄວາມໄວສູງ	-13728
ifunctional	-13729
ຄໍາສັບຕ່າງໆ	-13730
ຄໍາເວົ້າຂອງ	-13731
ເພື່ອສະຫນອງ	-13732
ແຂກທ່ອງທ່ຽວ	-13733
ໄດ້ເກີດຂຶ້ນ	-13734
▁ຜູ້ຕາງຫນ້າ	-13735
▁ອຸບັດຕິເຫດ	-13736
ດາວທຽມດາວທຽມ	-13737
ຢ່າງເຕັມສ່ວນ	-13738
▁ຫງວນລິຂະສິດ	-13739
ກໍາຈັດຂີ້ຝຸ່ນ	-13740
ກ່ຽວກັບວິທີການ	-13741
ກ່ຽວກັບສິ່ງທີ່	-13742
▁ເນື່ອງໃນໂອກາດ	-13743
TL	-13744
nh	-13745
ເຝ	-13746
▁%	-13747
114	-13748
:06	-13749
Com	-13750
PDF	-13751
ມີດ	-13752
ອິສ	-13753
ເຊລ	-13754
ແທດ	-13755
▁(+	-13756
▁4)	-13757
▁CM	-13758
▁Lu	-13759
▁ZM	-13760
▁ດຸ	-13761
▁ຟາ	-13762
Free	-13763
apor	-13764
aron	-13765
comm	-13766
ovel	-13767
ຊ້າງ	-13768
ວາລະ	-13769
ສະຕີ	-13770
ຫນຽວ	-13771
ະລົກ	-13772
▁1.1	-13773
▁101	-13774
▁7.5	-13775
▁Bet	-13776
▁Bor	-13777
▁Ess	-13778
▁NCS	-13779
▁Pte	-13780
▁RUB	-13781
▁Rap	-13782
▁hoo	-13783
▁ຄັກ	-13784
▁ຊູນ	-13785
▁ຕະລ	-13786
▁ຢຽບ	-13787
▁ຫາບ	-13788
▁ເລຍ	-13789
chool	-13790
ducts	-13791
pping	-13792
ຄະລິກ	-13793
ຄືການ	-13794
ຕອບສະ	-13795
ທີການ	-13796
ປະຖໍາ	-13797
ລະບອບ	-13798
ລາສາດ	-13799
ສຸດທິ	-13800
ອິນຊີ	-13801
ເບື່ອ	-13802
▁Face	-13803
▁Just	-13804
▁Lace	-13805
▁Ping	-13806
▁[...	-13807
▁dust	-13808
▁ເລັງ	-13809
▁ແຕ່ວ	-13810
▁ແອ້ມ	-13811
abolic	-13812
eptine	-13813
ຂອງວັນ	-13814
ຖາມວ່າ	-13815
ປະເດັນ	-13816
ລ່າສັດ	-13817
ໃຫມ່ໃນ	-13818
▁ມານີ້	-13819
▁ມາຮອດ	-13820
Changes	-13821
▁Coffee	-13822
▁Marble	-13823
▁ດີກວ່າ	-13824
▁ວັນສຸກ	-13825
▁ສັດປ່າ	-13826
▁ອ່ານໃນ	-13827
.06.2018	-13828
ຝ່າຍຄ້ານ	-13829
ແລະຜະລິດ	-13830
ແລະອາຫານ	-13831
▁Charles	-13832
▁Dresses	-13833
▁propane	-13834
▁ຂີ້ຝຸ່ນ	-13835
▁ຂ້ອຍຢາກ	-13836
▁ຕື້ໂດລາ	-13837
▁ຖ້ອຍຄໍາ	-13838
▁ຫລັກຖານ	-13839
Changeset	-13840
androlone	-13841
ຂອງຕະຫຼາດ	-13842
ຂອງຜູ້ຊາຍ	-13843
ຈະກາຍເປັນ	-13844
ຢູ່ພາຍໃຕ້	-13845
ສາມາດເປັນ	-13846
ຮຽນຮູ້ຈາກ	-13847
ເຫດຜົນທີ່	-13848
ໄດ້ຮັບຮູ້	-13849
▁Ultimate	-13850
▁ສະຖານທູດ	-13851
ສໍາເລັດຂອງ	-13852
ໃຫຍ່ທີ່ສຸດ	-13853
▁Container	-13854
▁ການພົວພັນ	-13855
▁ທີ່ແທ້ຈິງ	-13856
ດ້ານສຸຂະພາບ	-13857
ປັ້ນດິນເຜົາ	-13858
ພວກເຮົາຕ້ອງ	-13859
▁MetaTrader	-13860
▁ມັນເປັນການ	-13861
ສ່ວນທີ່ເຫຼືອ	-13862
ຫວັງວ່າຈະໄດ້	-13863
▁ແມ່ນຖືກຕ້ອງ	-13864
ພວກເຮົາມີຄວາມ	-13865
▁ເຄື່ອງສໍາອາງ	-13866
DR	-13867
HC	-13868
SW	-13869
.50	-13870
.91	-13871
105	-13872
che	-13873
ກີ້	-13874
ຄີມ	-13875
ພົດ	-13876
ຣາດ	-13877
ລີ້	-13878
ລຸນ	-13879
ຼາມ	-13880
ໂຊນ	-13881
ໂຍກ	-13882
ໄຕ່	-13883
▁+1	-13884
▁Ig	-13885
▁KY	-13886
▁nh	-13887
▁ງູ	-13888
ebob	-13889
esis	-13890
ilin	-13891
otic	-13892
part	-13893
test	-13894
wall	-13895
ກູໂກ	-13896
ຫນ່ຽ	-13897
ຮຸ້ນ	-13898
ເຄືອ	-13899
ເຟີ້	-13900
ເມັນ	-13901
▁14:	-13902
▁518	-13903
▁Are	-13904
▁Cri	-13905
▁Jon	-13906
▁Las	-13907
▁MUM	-13908
▁MYR	-13909
▁Mun	-13910
▁Pil	-13911
▁log	-13912
▁ສອກ	-13913
▁ແຫລ	-13914
▁ໂກນ	-13915
ennis	-13916
etics	-13917
inson	-13918
merce	-13919
ກະດາດ	-13920
ຈະນານ	-13921
ນິວເຄ	-13922
ສະແກນ	-13923
ໃນງານ	-13924
ໃນເກມ	-13925
▁Patt	-13926
▁Sund	-13927
▁ກວາດ	-13928
▁ປຸ້ນ	-13929
▁ມະດາ	-13930
ewater	-13931
loride	-13932
ຍູ້ແຮງ	-13933
ທອງແດງ	-13934
ຜູ້ຮັບ	-13935
ແລະໃຊ້	-13936
ໄຮ້ສາຍ	-13937
ໍານ້ໍາ	-13938
▁drone	-13939
▁ໂມສອນ	-13940
ຄວາມງາມ	-13941
ຜົມແມ່ນ	-13942
ມະຫາກໍາ	-13943
ຮີບດ່ວນ	-13944
ແຈ້ງການ	-13945
▁Canton	-13946
▁George	-13947
▁Martin	-13948
▁Nevada	-13949
▁Pongee	-13950
▁Sheikh	-13951
▁Window	-13952
▁Yellow	-13953
▁ຂັບລົດ	-13954
▁ມານັ້ນ	-13955
▁ຣັດເຊຍ	-13956
▁ວັນຈັນ	-13957
▁ສີມ່ວງ	-13958
▁ຫາດຊາຍ	-13959
▁ອຶດຫິວ	-13960
▁ເມື່ອນ	-13961
▁ແຕ່ການ	-13962
▁ໂດຍໃຊ້	-13963
ນໍ້າຫນັກ	-13964
ຫນ່ຽວນໍາ	-13965
ເຄັ່ງຄັດ	-13966
ເຫຼັກກ້າ	-13967
ແລະຮັກສາ	-13968
ໃນຊຸມຊົນ	-13969
ໃບຄ້າຍຄື	-13970
▁100,000	-13971
▁Olympic	-13972
▁Taffeta	-13973
▁ຕ່າງໆໃນ	-13974
▁ເບິ່ງຄື	-13975
ຈະນານຸກົມ	-13976
ອອກແບບໂດຍ	-13977
▁ຄົ້ນຄວ້າ	-13978
ຊ່ວຍເຫຼືອບ	-13979
ປະຫານຊີວິດ	-13980
ສາມາດຜະລິດ	-13981
ເສັ້ນເລືອດ	-13982
▁ຕື່ນເຕັ້ນ	-13983
ຕະຫຼອດຊີວິດ	-13984
ແຜ່ນດິນໃຫຍ່	-13985
ແລະປະສົບການ	-13986
▁ຄວາມເຂົ້າໃຈ	-13987
▁ທ່ານຕ້ອງການ	-13988
▁ນັ້ນແມ່ນການ	-13989
ການເຮັດວຽກຂອງ	-13990
ຂອງການເຮັດວຽກ	-13991
ຂອງການແຂ່ງຂັນ	-13992
ຫນຶ່ງກິໂລແມັດ	-13993
ແລະການຄຸ້ມຄອງ	-13994
ແລະການປະຕິບັດ	-13995
▁ດັ່ງນັ້ນທ່ານ	-13996
ສໍາລັບເດັກນ້ອຍ	-13997
ທາງດ້ານເສດຖະກິດ	-13998
ທີ່ມີຄຸນະພາບສູງ	-13999
ສ່ວນບຸກຄົນທີ່ມີ	-14000
▁ຍິ່ງໄປກວ່ານັ້ນ	-14001
%)	-14002
08	-14003
3-	-14004
AV	-14005
DH	-14006
bi	-14007
ຮີ	-14008
-06	-14009
.13	-14010
ENS	-14011
mal	-14012
omp	-14013
pez	-14014
uma	-14015
ຊິມ	-14016
ດົງ	-14017
ອໍາ	-14018
ີຊີ	-14019
ໄວກ	-14020
▁Ps	-14021
▁XP	-14022
▁★★	-14023
-800	-14024
.160	-14025
84.2	-14026
ello	-14027
erry	-14028
hand	-14029
html	-14030
icks	-14031
odes	-14032
pens	-14033
ວຍອກ	-14034
ຽນມາ	-14035
ເປີ້	-14036
ເພັງ	-14037
ເສີຍ	-14038
▁21:	-14039
▁CPA	-14040
▁Dut	-14041
▁Job	-14042
▁MOQ	-14043
▁Put	-14044
▁SEA	-14045
▁Yes	-14046
▁cap	-14047
▁new	-14048
▁our	-14049
▁ຖີ່	-14050
▁ປຽກ	-14051
▁ມອດ	-14052
▁ລິມ	-14053
atory	-14054
oress	-14055
ປີກາຍ	-14056
ມັນມີ	-14057
▁Kies	-14058
▁Rose	-14059
▁Snow	-14060
▁Wash	-14061
▁port	-14062
▁ຫຸ້ມ	-14063
ential	-14064
ornier	-14065
posite	-14066
ກໍາກັບ	-14067
ຄົບຮອບ	-14068
ປີເກີດ	-14069
ຝູງຊົນ	-14070
ລ່າສຸດ	-14071
ໄດ້ໂດຍ	-14072
ໍ້າມັນ	-14073
▁Khark	-14074
▁Watch	-14075
▁piano	-14076
▁rugby	-14077
▁ບູຮານ	-14078
ຂອງສະພາ	-14079
ຂັດຂວາງ	-14080
ຄັດຄ້ານ	-14081
ຄໍາປາໄສ	-14082
ນັກກິລາ	-14083
ຜູ້ປ່ວຍ	-14084
ພິທີກໍາ	-14085
ມື້ນັ້ນ	-14086
ຢ່າງດຽວ	-14087
ຫລັກຖານ	-14088
ໃນປີນີ້	-14089
▁Remote	-14090
▁ສະຫລົດ	-14091
▁ສາຍໂສ້	-14092
▁ແບບຟອມ	-14093
ຂອງປະທານ	-14094
ຜູ້ເຂົ້າ	-14095
ມີບົດບາດ	-14096
ສາມາດໃຊ້	-14097
ເຄື່ອນໄຫ	-14098
▁Remover	-14099
▁Venturi	-14100
ຂໍ້ສັງເກດ	-14101
ນັກລົງທຶນ	-14102
ປາເລດສະໄຕ	-14103
ພອນສະຫວັນ	-14104
ອັດສະລິຍະ	-14105
ເພື່ອຄວາມ	-14106
ເພື່ອນມິດ	-14107
▁HackTool	-14108
▁Printing	-14109
▁Virginia	-14110
▁ກ່ຽວຂ້ອງ	-14111
▁ວັນອາທິດ	-14112
ການສົ່ງອອກ	-14113
ກິລາບານເຕະ	-14114
ພວກເຂົາໄດ້	-14115
ພົນລະເຮືອນ	-14116
ສະບາຍສະບາຍ	-14117
ສູນບໍລິການ	-14118
ຫລັງຈາກທີ່	-14119
ເຊື້ອໄວຣັສ	-14120
ໃນການສຶກສາ	-14121
▁jailbreak	-14122
▁ການປະເມີນ	-14123
▁ແລະເຄື່ອງ	-14124
ເດືອນປີເກີດ	-14125
ແລະພະລັງງານ	-14126
ໃນເດືອນຕຸລາ	-14127
▁ສະພາບອາກາດ	-14128
ຄວາມເຄັ່ງຕຶງ	-14129
ຜົນບັງຄັບໃຊ້	-14130
▁ຄວາມພະຍາຍາມ	-14131
▁ປະເພດຂອງການ	-14132
ຂອງການພັດທະນາ	-14133
ຢູ່ໃນສະຖານທີ່	-14134
ໂດຍສະເພາະແມ່ນ	-14135
▁ຂ້າພະເຈົ້າຂໍ	-14136
ສົນທະນາກ່ຽວກັບ	-14137
ໃນການເລືອກຕັ້ງ	-14138
ກໍ່ຕັ້ງຂຶ້ນໃນປີ	-14139
ຕິດຕໍ່ພົວພັນກັບ	-14140
ຂອງພຣະພຸດທະເຈົ້າ	-14141
ທີ່ດີທີ່ສຸດທີ່ຈະ	-14142
fg	-14143
zo	-14144
ົ້	-14145
103	-14146
ALL	-14147
For	-14148
MPa	-14149
OWN	-14150
ela	-14151
ful	-14152
igg	-14153
put	-14154
quo	-14155
ຄັງ	-14156
ຄົດ	-14157
ຢຸງ	-14158
ຣອຍ	-14159
ລິງ	-14160
ສວຍ	-14161
ເຟີ	-14162
ໂຄນ	-14163
ໂຕມ	-14164
ໂຫດ	-14165
ໄລກ	-14166
▁Ja	-14167
▁LF	-14168
▁Ni	-14169
▁ON	-14170
▁my	-14171
arch	-14172
awei	-14173
even	-14174
rene	-14175
untu	-14176
ຖ່ານ	-14177
ເມົາ	-14178
ແຊ້ມ	-14179
▁0.1	-14180
▁1.8	-14181
▁121	-14182
▁139	-14183
▁6.0	-14184
▁BRL	-14185
▁CZK	-14186
▁DIY	-14187
▁DKK	-14188
▁HUF	-14189
▁MXN	-14190
▁Ram	-14191
▁SGD	-14192
▁TWD	-14193
▁all	-14194
▁bro	-14195
▁ຄາຍ	-14196
▁ຮັງ	-14197
▁ເລດ	-14198
▁ແຕນ	-14199
ATION	-14200
egrad	-14201
onder	-14202
ປະຖົມ	-14203
ເພີ້ມ	-14204
ເມດຕາ	-14205
ໃດທີ່	-14206
▁HPLC	-14207
▁matt	-14208
▁mill	-14209
▁ຄລິກ	-14210
▁ຫມອກ	-14211
▁ຫລວດ	-14212
▁ຫຼັບ	-14213
ishing	-14214
ources	-14215
ຂອງທີມ	-14216
ຍົນມິດ	-14217
ລົງຈອດ	-14218
▁2.6.4	-14219
▁2015)	-14220
▁Lunch	-14221
▁USMLE	-14222
▁Wuhan	-14223
▁poker	-14224
▁ກະບົດ	-14225
▁ກົນໄກ	-14226
▁ຄົນໃນ	-14227
▁ຖືວ່າ	-14228
▁ເກັຣກ	-14229
▁ໂຣກມະ	-14230
engzhou	-14231
ຄະລາກອນ	-14232
ຍົກຍ້າຍ	-14233
ຖ່ອມຕົວ	-14234
ເງິນທຶນ	-14235
▁(2014)	-14236
▁String	-14237
▁ທີ່ໃຊ້	-14238
▁ທໍານຽມ	-14239
▁ບັນຍັດ	-14240
▁ຢ່າລືມ	-14241
▁ວັນທີ່	-14242
▁ແຕ່ກໍ່	-14243
.08.2018	-14244
ຄົນທີ່ມີ	-14245
ທາງທະຫານ	-14246
ທີ່ອາດຈະ	-14247
ທ່ອງເວັບ	-14248
ຫລາກຫລາຍ	-14249
ເບົາຫວານ	-14250
▁Channel	-14251
▁ທ່ານຄວນ	-14252
▁ທ່ານບໍ່	-14253
▁ນັກກິລາ	-14254
▁ມືອາຊີບ	-14255
▁ສັ່ງສອນ	-14256
▁ເພິ່ນຈະ	-14257
▁ແບບຢ່າງ	-14258
ຕະຫຼາດນັດ	-14259
ອາລູມິນຽມ	-14260
ແມ່ນມາຈາກ	-14261
▁Coinbase	-14262
▁skeleton	-14263
▁ການລະບາດ	-14264
▁ຫມາກພ້າວ	-14265
▁ໃນຂອບເຂດ	-14266
ຢ່າງຈະແຈ້ງ	-14267
ລະບາຍອາກາດ	-14268
ອອນໄລນ໌ແລະ	-14269
ເພື່ອຊອກຫາ	-14270
ແລະຄວາມຄິດ	-14271
ໃນຕອນເຊົ້າ	-14272
▁ຕາລາງແມັດ	-14273
▁ສາຍການບິນ	-14274
▁ເກັບຮັກສາ	-14275
▁ໂລຫະປະສົມ	-14276
ຕໍ່ກິໂລແມັດ	-14277
ທາງເສດຖະກິດ	-14278
ທີ່ຈະນໍາໃຊ້	-14279
▁SharePoint	-14280
▁ສໍານັກຂ່າວ	-14281
ແນ່ໃຈວ່າທ່ານ	-14282
▁ການທ່ອງທ່ຽວ	-14283
▁ການສະກົດຈິດ	-14284
▁ບໍລິສັດແມ່ນ	-14285
▁ປົກປັກຮັກສາ	-14286
ການປ່ອຍອາຍພິດ	-14287
ຊີ້ໃຫ້ເຫັນວ່າ	-14288
ສັດລ້ຽງຍົນມິດ	-14289
▁ດັ່ງນັ້ນຈຶ່ງ	-14290
ທາງສ່ວນຫນ້າຂອງ	-14291
▁Electrostatic	-14292
▁ພວກເຮົາທຸກຄົນ	-14293
Nm	-14294
bu	-14295
cr	-14296
uj	-14297
vi	-14298
202	-14299
INA	-14300
cow	-14301
ern	-14302
men	-14303
pet	-14304
ທຸງ	-14305
ລົນ	-14306
ໂງ່	-14307
▁79	-14308
▁CT	-14309
▁Ol	-14310
▁ອງ	-14311
▁ໄຍ	-14312
2019	-14313
ague	-14314
anes	-14315
chun	-14316
cted	-14317
ends	-14318
ocol	-14319
osci	-14320
poly	-14321
xing	-14322
ຣາລີ	-14323
ສັ່ນ	-14324
▁530	-14325
▁737	-14326
▁80%	-14327
▁888	-14328
▁Zoo	-14329
▁pop	-14330
▁sec	-14331
▁ມັງ	-14332
aceut	-14333
eware	-14334
trans	-14335
ທັນໃດ	-14336
ປັດໃຈ	-14337
ສົດໃສ	-14338
▁0.15	-14339
▁1400	-14340
▁CCNA	-14341
▁CNTT	-14342
▁Ride	-14343
▁Save	-14344
▁whit	-14345
▁ກ່ວາ	-14346
▁ຖົ່ວ	-14347
▁ພ່ອງ	-14348
▁ເຝິກ	-14349
▁ເມືອ	-14350
ການຈັດ	-14351
ການປູກ	-14352
▁Class	-14353
▁Grade	-14354
▁JBoss	-14355
▁Jinan	-14356
▁Under	-14357
▁ກະຈັດ	-14358
▁ເພີ້ມ	-14359
▁ແຕ່ມີ	-14360
▁ໃນຈີນ	-14361
▁ໃນພາກ	-14362
itecoin	-14363
ຫນື່ງໃນ	-14364
ຫລອກລວງ	-14365
ໃນເຮືອນ	-14366
▁Shovel	-14367
▁Sutter	-14368
▁Taylor	-14369
▁unlock	-14370
▁ຄ່າໄຖ່	-14371
▁ຍົກສູງ	-14372
▁ໂອບາມາ	-14373
ຊິ້ນສ່ວນ	-14374
ຫຼິ້ນເກມ	-14375
ອາທິດນີ້	-14376
ເຍຍລະມັນ	-14377
ເວົ້າກັບ	-14378
ແລະປະເທດ	-14379
ໄດ້ມີການ	-14380
ໄປບໍ່ໄດ້	-14381
▁3.2.160	-14382
▁ທ່ານໄດ້	-14383
aceutical	-14384
egradable	-14385
ການວິເຄາະ	-14386
ຂໍ້ຈໍາກັດ	-14387
ຈໍານວນຂອງ	-14388
ຕອບຄໍາຖາມ	-14389
ໃນບໍລິເວນ	-14390
ໃນແຕ່ລະປີ	-14391
▁Festival	-14392
▁ທີ່ປຶກສາ	-14393
▁ເຈົ້າຈື່	-14394
ຂັ້ນຕອນການ	-14395
ແມງກະເບື້ອ	-14396
ໃນເວັບໄຊທ໌	-14397
▁Tailoress	-14398
▁scaffolds	-14399
▁ຈໍານວນຄົນ	-14400
ທີ່ຫມັ້ນຄົງ	-14401
ເສດຖະກິດໂລກ	-14402
ແຮງບັນດານໃຈ	-14403
ຄວາມປອດໄພຂອງ	-14404
ຖົງຢາງຖົງຢາງ	-14405
ພວກເຂົາສາມາດ	-14406
ລະບົບຕ່ອງໂສ້	-14407
ໃຫ້ທ່ານສາມາດ	-14408
▁ຄວາມແຕກຕ່າງ	-14409
▁ພັນລ້ານໂດລາ	-14410
▁ຫລັງຈາກນັ້ນ	-14411
▁ໄດ້ເສຍຊີວິດ	-14412
▁ໂດຍພື້ນຖານແລ້ວ	-14413
ສ້າງຄວາມເຂັ້ມແຂງ	-14414
,2	-14415
??	-14416
CD	-14417
MK	-14418
▁!	-14419
-85	-14420
.02	-14421
769	-14422
Hub	-14423
KGS	-14424
Ltd	-14425
Pir	-14426
mar	-14427
roy	-14428
viv	-14429
ພົມ	-14430
ຟລີ	-14431
ສາງ	-14432
ແອງ	-14433
ໄຊ້	-14434
▁83	-14435
▁VM	-14436
▁ab	-14437
▁ຟິ	-14438
▁ອູ	-14439
appy	-14440
core	-14441
oles	-14442
ຊີວາ	-14443
ພະຍຸ	-14444
ື້ອກ	-14445
ົາວະ	-14446
ເບີຍ	-14447
ເລັບ	-14448
ໆກັນ	-14449
▁10.	-14450
▁877	-14451
▁Apg	-14452
▁Eff	-14453
▁GSM	-14454
▁HCL	-14455
▁Jay	-14456
▁Kev	-14457
▁Lit	-14458
▁Mem	-14459
▁PPS	-14460
▁Wei	-14461
▁ski	-14462
▁ສະດ	-14463
▁ຫໍ່	-14464
▁ແທງ	-14465
ibrat	-14466
istic	-14467
ruary	-14468
ກູ້ໄພ	-14469
ມືຖືອ	-14470
ໃນພາກ	-14471
▁Vert	-14472
▁WIFI	-14473
▁beta	-14474
▁park	-14475
▁tatt	-14476
▁ກະແສ	-14477
▁ຄວັນ	-14478
▁ຊ້າງ	-14479
▁ເຊີຍ	-14480
▁ເພນີ	-14481
▁ໂງ່ນ	-14482
arinet	-14483
ithium	-14484
ຈົບລົງ	-14485
ຕອບຮັບ	-14486
ທີ່ພົບ	-14487
ປະຫມາດ	-14488
າບັນຫາ	-14489
ເພດຍິງ	-14490
ແບບແຜນ	-14491
▁Great	-14492
▁Shirt	-14493
▁Zhang	-14494
▁ກະຕ່າ	-14495
▁ກໍໄດ້	-14496
▁ຊຽງໄຮ	-14497
▁ບຸລຸດ	-14498
ປ່ອຍໃຫ້	-14499
ົາວະຊົນ	-14500
ໃຫມ່ແລະ	-14501
▁ComPro	-14502
▁Disney	-14503
▁Moscow	-14504
▁Pallet	-14505
▁canvas	-14506
▁equine	-14507
▁motors	-14508
▁ຂອບເຂດ	-14509
▁ຄິດວ່າ	-14510
▁ຍັງຄົງ	-14511
▁ຍາກຈົນ	-14512
▁ຕາມທີ່	-14513
▁ມັນກໍ່	-14514
▁ເອີລົບ	-14515
ຂອງພະຍາດ	-14516
ຕົກຢູ່ໃນ	-14517
ພາກວິຈານ	-14518
ເປັນສ່ວນ	-14519
ໃນທີ່ສຸດ	-14520
ໃນວັນຈັນ	-14521
ໃນໂຮງງານ	-14522
▁altcoin	-14523
▁spindle	-14524
▁ການສົ່ງ	-14525
▁ຈຸດຫມາຍ	-14526
▁ຕ່ໍາສຸດ	-14527
ewatering	-14528
ຜົນສະທ້ອນ	-14529
ວິກິພີເດຍ	-14530
ຫຼາຍທີ່ຈະ	-14531
ເຄື່ອງດຶງ	-14532
ເປັນພິເສດ	-14533
▁ໄດ້ເລີ່ມ	-14534
ຂອງທຸລະກິດ	-14535
ຂຶ້ນຢູ່ກັບ	-14536
ທາງຮ່າງກາຍ	-14537
ຜູ້ບໍລິຫານ	-14538
ເພື່ອຮັກສາ	-14539
▁Bulgarian	-14540
▁cardboard	-14541
▁ກາລະໂອກາດ	-14542
▁ພວກເຂົາຈະ	-14543
▁ເພື່ອຊ່ວຍ	-14544
▁ໃນປະເທດໄທ	-14545
ເຕັມໃຈທີ່ຈະ	-14546
▁blockchain	-14547
▁ການສໍາຫຼວດ	-14548
▁ບໍລິສັດແລະ	-14549
ຖົງຂີ້ເຫຍື້ອ	-14550
▁ຜົນກະທົບຂອງ	-14551
ແລະການປິ່ນປົວ	-14552
▁ສໍາລັບເດັກຍິງ	-14553
▁ແຕ່ຂ້າພະເຈົ້າ	-14554
▁ດໍາເນີນທຸລະກິດ	-14555
▁ບາງສິ່ງບາງຢ່າງ	-14556
ສະຫນອງການບໍລິການ	-14557
/4	-14558
HA	-14559
IB	-14560
LD	-14561
.88	-14562
:05	-14563
AME	-14564
EEL	-14565
SQL	-14566
bot	-14567
gie	-14568
gow	-14569
ira	-14570
joy	-14571
oir	-14572
uum	-14573
wei	-14574
ຟາກ	-14575
ລຽມ	-14576
▁7.	-14577
▁AK	-14578
▁FM	-14579
▁Gi	-14580
▁IM	-14581
▁SO	-14582
▁ft	-14583
aces	-14584
elly	-14585
elop	-14586
ever	-14587
imal	-14588
ract	-14589
roph	-14590
unes	-14591
wind	-14592
ພົ່ນ	-14593
ຫລຽວ	-14594
ເຕັດ	-14595
ໂກແລ	-14596
▁118	-14597
▁175	-14598
▁205	-14599
▁CPU	-14600
▁III	-14601
▁Neo	-14602
▁Raw	-14603
▁Wet	-14604
▁YJD	-14605
▁lin	-14606
▁mil	-14607
▁non	-14608
▁pen	-14609
▁ຣົບ	-14610
▁ເລີ	-14611
▁ເວລ	-14612
▁ແບດ	-14613
ORDER	-14614
ຄ່ອຍໆ	-14615
ບລັອກ	-14616
ມາກັບ	-14617
ສະຫລະ	-14618
▁1996	-14619
▁8000	-14620
▁Disk	-14621
▁Hill	-14622
▁Mech	-14623
▁Past	-14624
▁Prev	-14625
▁This	-14626
▁view	-14627
▁ຈັ່ງ	-14628
▁ຫມົກ	-14629
▁ເອີຍ	-14630
ກັບມັນ	-14631
ຊໍານານ	-14632
ຕາມທີ່	-14633
ລາວກໍ່	-14634
ສີ່ຄົນ	-14635
ອຍະການ	-14636
ແຮ່ທາດ	-14637
ໄດ້ໃຊ້	-14638
ໆນ້ອຍໆ	-14639
▁Hydro	-14640
▁Queen	-14641
▁Tours	-14642
▁smart	-14643
▁ກໍາມະ	-14644
ກັບບ້ານ	-14645
ການດູແລ	-14646
ການເກັບ	-14647
ຄູ່ແຂ່ງ	-14648
ຈັດຂື້ນ	-14649
ຈົນກ່ວາ	-14650
ດາວໂຫຼດ	-14651
ມີໂອກາດ	-14652
ແລະລາຄາ	-14653
ໂຍກຍ້າຍ	-14654
▁BORDER	-14655
▁Marvel	-14656
▁NINGBO	-14657
▁Robert	-14658
▁Safety	-14659
▁Ubuntu	-14660
▁ທີ່ການ	-14661
▁ອໍານວຍ	-14662
ການິສຖານ	-14663
ບັນດາມາດ	-14664
ພວກເຈົ້າ	-14665
ພວກເຮົາມ	-14666
ພັນທຸກໍາ	-14667
ຫັດຖະກໍາ	-14668
▁Gratuit	-14669
▁Pacific	-14670
▁sponges	-14671
▁ພັນລະຍາ	-14672
▁ສົ່ງອອກ	-14673
▁ເຄັດລັບ	-14674
▁ເນື້ອຫາ	-14675
▁ເປັນນັກ	-14676
▁ໄຂ່ຫລັງ	-14677
ຕະເວັນອອກ	-14678
ຕົວຊີ້ວັດ	-14679
ບໍ່ເສຍຄ່າ	-14680
ມຸ່ງຫມັ້ນ	-14681
ອອກແຮງງານ	-14682
ເລື່ອງລາວ	-14683
▁Knitting	-14684
▁Machines	-14685
▁ມິດຕະພາບ	-14686
ຂົ່ມຂືນແລະ	-14687
ຄວາມຊົງຈໍາ	-14688
ວິທີການທີ່	-14689
▁ເດືອນມີນາ	-14690
odegradable	-14691
ທີ່ກ້າວຫນ້າ	-14692
ທີ່ໂດດເດັ່ນ	-14693
ລັດຖະບານກາງ	-14694
▁ບ່ອນຈອດລົດ	-14695
▁ເຄື່ອງລ້າງ	-14696
ລາຍລັກອັກສອນ	-14697
ຮັບຜິດຊອບຕໍ່	-14698
▁3.2.16084.2	-14699
▁ບັນດາຜູ້ແທນ	-14700
▁ແລະນັ້ນແມ່ນ	-14701
ຂອງຄວາມກົດດັນ	-14702
ຂອງບັນດາປະເທດ	-14703
ທີ່ບໍ່ຖືກຕ້ອງ	-14704
ອາຫານແລະອາຫານ	-14705
▁ໃນການແຂ່ງຂັນ	-14706
▁ໃນເວລາດຽວກັນ	-14707
ຂອງສາດສະຫນາຈັກ	-14708
▁polycarbonate	-14709
ທີ່ສົມເຫດສົມຜົນ	-14710
AG	-14711
HD	-14712
JI	-14713
oC	-14714
rk	-14715
-99	-14716
="5	-14717
ART	-14718
Mpa	-14719
bug	-14720
cre	-14721
oga	-14722
oke	-14723
ບຸດ	-14724
ແຄບ	-14725
ໂຟມ	-14726
▁++	-14727
▁HI	-14728
▁me	-14729
Site	-14730
afil	-14731
lear	-14732
mann	-14733
ຂວາຍ	-14734
ດ້າຍ	-14735
ທຸລະ	-14736
▁145	-14737
▁Bob	-14738
▁Nav	-14739
▁OFF	-14740
▁TOP	-14741
▁ຂູ່	-14742
▁ດີໆ	-14743
▁ແຖບ	-14744
hydro	-14745
ຊຽງໄຮ	-14746
ຣາເອນ	-14747
ສາຍໄຟ	-14748
ສິບປີ	-14749
ເຫມັນ	-14750
▁HTML	-14751
▁Maxi	-14752
▁bead	-14753
▁more	-14754
▁sens	-14755
▁ປັ໊ມ	-14756
▁ມືຖື	-14757
▁ຫມຸນ	-14758
elting	-14759
uction	-14760
ຂຶ້ນໃນ	-14761
ບັນຫາກ	-14762
ລໍາເບຍ	-14763
ຫລາຍປີ	-14764
ໂຕຣເຈນ	-14765
ໄດ້ພົບ	-14766
▁2014,	-14767
▁Magic	-14768
▁Mahar	-14769
▁Sound	-14770
▁fluor	-14771
▁servo	-14772
Pirater	-14773
ຂາຍສົ່ງ	-14774
ຄວາມຝັນ	-14775
ຊັ້ນສູງ	-14776
ທີ່ຕ້ອງ	-14777
ບາດກ້າວ	-14778
ຢູ່ດ້ານ	-14779
ສຸພາສິດ	-14780
ັ້ນແມ່ນ	-14781
ເຊື່ອໃນ	-14782
ແຕ້ມຮູບ	-14783
ແຖວຫນ້າ	-14784
ແລ້ວນີ້	-14785
ໂຫດຮ້າຍ	-14786
▁Bungal	-14787
▁Claret	-14788
▁Domain	-14789
▁Huawei	-14790
▁Plasma	-14791
▁Report	-14792
▁Sensor	-14793
▁Teflon	-14794
▁Travel	-14795
▁ຂອງຕົນ	-14796
▁ຊູແອັດ	-14797
▁ຕາແມັດ	-14798
▁ລູກສາວ	-14799
▁ລໍາໂພງ	-14800
▁ໃກ້ຊິດ	-14801
ການສັກຢາ	-14802
ຕໍ່ເດືອນ	-14803
ທຽບເທົ່າ	-14804
ນິລັນດອນ	-14805
ເຈັບປ່ວຍ	-14806
ໃນໂຮງຮຽນ	-14807
▁Acceler	-14808
▁Optical	-14809
▁ຕ້ານທານ	-14810
▁ທີ່ຫນ້າ	-14811
▁ທໍາຮ້າຍ	-14812
▁ເຊິ່ງຈະ	-14813
▁ແທ້ໆທີ່	-14814
▁ໃນຊີວິດ	-14815
ຂອງສະຫມອງ	-14816
ຜູ້ສະຫມັກ	-14817
ວິທີທີ່ຈະ	-14818
ສະກັດກັ້ນ	-14819
ຮັບຮູ້ວ່າ	-14820
ໄດ້ຮັບຮອງ	-14821
▁American	-14822
▁February	-14823
▁Monopoly	-14824
▁ແລະເມື່ອ	-14825
ຂອງວັດສະດຸ	-14826
ນັກສິລະປິນ	-14827
ປະຈໍາເດືອນ	-14828
ສະບຽງອາຫານ	-14829
ຫນ້າເສຍດາຍ	-14830
▁Marketing	-14831
▁Mountains	-14832
▁Transposh	-14833
▁ການຮັບຮອງ	-14834
▁ຂໍ້ສະເຫນີ	-14835
▁ອຸປະຕິເຫດ	-14836
ຂອງກອງປະຊຸມ	-14837
ບົບໄຮໂດຼລິກ	-14838
ແລະເສື້ອຜ້າ	-14839
▁hoverboard	-14840
▁ຂອງພວກເຂົາ	-14841
▁ດໍາເນີນການ	-14842
▁ພາສາອັງກິດ	-14843
▁ຫ້ອງທົດລອງ	-14844
ການຂະຫຍາຍຕົວ	-14845
ທີ່ຕິດພັນກັບ	-14846
▁ບັນຊີລາຍຊື່	-14847
ເງິນຂອງບັນທຶກ	-14848
ໍລິສັດເຮືອບິນ	-14849
▁Instrumental	-14850
▁ທີ່ຢູ່ຕິດຕໍ່	-14851
▁ບໍ່ວ່າຈະເປັນ	-14852
▁ການປົກຫຸ້ມຂອງ	-14853
▁ຖົງການກັ່ນຕອງ	-14854
ທີ່ມີປະສິດທິຜົນ	-14855
ທີ່ໃຫຍ່ທີ່ສຸດໃນ	-14856
▁ຄໍາທີ່ກ່ຽວຂ້ອງ	-14857
AK	-14858
PM	-14859
XD	-14860
ປິ	-14861
/01	-14862
123	-14863
302	-14864
ERY	-14865
GHT	-14866
add	-14867
isk	-14868
mic	-14869
tra	-14870
ຊອງ	-14871
ບ່າ	-14872
ຜານ	-14873
ສຸນ	-14874
ແທງ	-14875
▁("	-14876
▁Mr	-14877
▁OC	-14878
▁SI	-14879
▁SL	-14880
▁di	-14881
ajon	-14882
fect	-14883
olin	-14884
tech	-14885
umbo	-14886
zone	-14887
ຊ໊ອບ	-14888
ອຟແວ	-14889
ແອັບ	-14890
▁(30	-14891
▁1.3	-14892
▁22:	-14893
▁Hai	-14894
▁Tap	-14895
▁Ton	-14896
▁sim	-14897
▁zlp	-14898
▁ທອມ	-14899
▁ພິກ	-14900
▁ຫີບ	-14901
azzle	-14902
retch	-14903
water	-14904
ພາກັນ	-14905
ເຫລັກ	-14906
ໂປແກມ	-14907
▁Acid	-14908
▁Cams	-14909
▁GMOs	-14910
▁film	-14911
▁ສະຖາ	-14912
▁ເມົາ	-14913
ashion	-14914
icator	-14915
ປະຖິ້ມ	-14916
ມົນທົນ	-14917
ຢູ່ລອດ	-14918
ສະຫລາດ	-14919
ຫັກຫັກ	-14920
ະນະນັກ	-14921
ເຮົາຈະ	-14922
ແຊບແຊບ	-14923
ແລະລາວ	-14924
▁2008.	-14925
▁Alpha	-14926
▁Store	-14927
▁prote	-14928
atalyst	-14929
ຖືກສົ່ງ	-14930
ບໍ່ເຫັນ	-14931
ຫຼາຍຂອງ	-14932
ເຂົ້າຫາ	-14933
ເສັ້ນໄຍ	-14934
▁Carton	-14935
▁Columb	-14936
▁Fleece	-14937
▁ດຽວກັນ	-14938
▁ປະເພນີ	-14939
▁ຜູ້ໃຊ້	-14940
▁ສະຫຼອງ	-14941
▁ຮ່ວມມື	-14942
▁ເຮົາກໍ	-14943
▁ໄດ້ຈັດ	-14944
ethylene	-14945
ທາງອີເມວ	-14946
ບ້ານເກີດ	-14947
ມີອໍານາດ	-14948
ລອດຊີວິດ	-14949
ຫຼາຍຂື້ນ	-14950
ອອກອາກາດ	-14951
▁Medical	-14952
▁ຄຸ້ມຄອງ	-14953
▁ບົກພ່ອງ	-14954
▁ວຸ້ນວາຍ	-14955
▁ເສລີພາບ	-14956
ຂອງໂຮງຮຽນ	-14957
ທົ່ວໄປຂອງ	-14958
ສົ່ງອີເມວ	-14959
ອັດຕາສ່ວນ	-14960
ເຮືອນແກ້ວ	-14961
ແມ້ກະທັ້ງ	-14962
▁Shipping	-14963
▁Training	-14964
▁terminal	-14965
▁ປາກິສຖານ	-14966
▁ເສຍຊີວິດ	-14967
ທັງຫມົດແລະ	-14968
ພັດທະນາໂດຍ	-14969
ລະຫວ່າງການ	-14970
ເທດຍີ່ປຸ່ນ	-14971
ໃຊ້ອຸປະກອນ	-14972
ໃນຂະບວນການ	-14973
ໄປຂ້າງຫນ້າ	-14974
▁Enanthate	-14975
▁Separator	-14976
▁ການຮຽນຮູ້	-14977
▁ຂໍ້ກໍານົດ	-14978
▁ຄຣິດສະມັດ	-14979
▁ນະຄອນຫຼວງ	-14980
▁ສະກຸນເງິນ	-14981
▁ແມ່ນຢູ່ໃນ	-14982
ຂອງພະນັກງານ	-14983
ຂ້າງລຸ່ມນີ້	-14984
ຈະເປັນແນວໃດ	-14985
ຈັດຈໍາຫນ່າຍ	-14986
ຫລັງຈາກນັ້ນ	-14987
ເຕົ້າໂຮມກັນ	-14988
ແລະດັ່ງນັ້ນ	-14989
ຂອງການອອກແບບ	-14990
ຂອງພວກເຮົາຈະ	-14991
ດັ່ງກ່າວແມ່ນ	-14992
ຕໍ່ໄປນີ້ແມ່ນ	-14993
ເຮັດວຽກຢູ່ໃນ	-14994
ຕັດສິນໃຈທີ່ຈະ	-14995
ເຮັດຄວາມສະອາດ	-14996
ໃນການຄົ້ນຄວ້າ	-14997
▁ກັບຄືນໄປບ່ອນ	-14998
▁ຈຸດປະສົງແມ່ນ	-14999
▁ຫຼາຍກວ່ານັ້ນ	-15000
▁ເນັ້ນຫນັກວ່າ	-15001
ທີ່ມີຄວາມສາມາດ	-15002
ທີ່ສັ່ນສະເທືອນ	-15003
ເຄື່ອງນຸ່ງຫົ່ມ	-15004
ເຫດການດັ່ງກ່າວ	-15005
▁ໃນເດືອນມິຖຸນາ	-15006
ກ່ຽວກັບເລື່ອງນີ້	-15007
?’	-15008
Su	-15009
cb	-15010
nt	-15011
sd	-15012
165	-15013
40)	-15014
="4	-15015
AND	-15016
eek	-15017
enb	-15018
wen	-15019
yun	-15020
ກ່ວ	-15021
ພອດ	-15022
ຢືດ	-15023
ຫົດ	-15024
ເບກ	-15025
ໂກງ	-15026
ໂອກ	-15027
▁Ah	-15028
▁BC	-15029
▁CY	-15030
▁WE	-15031
▁ໂຫ	-15032
atab	-15033
bles	-15034
cess	-15035
lers	-15036
mesh	-15037
mill	-15038
ying	-15039
່ນີ້	-15040
▁0.3	-15041
▁430	-15042
▁Ali	-15043
▁Fan	-15044
▁Far	-15045
▁LCD	-15046
▁Rok	-15047
▁Wal	-15048
▁ຈິບ	-15049
▁ບີບ	-15050
▁ບຽດ	-15051
▁ລອບ	-15052
▁ຮັດ	-15053
▁ເຄນ	-15054
/2019	-15055
acker	-15056
antic	-15057
ience	-15058
ບານອນ	-15059
ປະການ	-15060
ໄວແລະ	-15061
▁1250	-15062
▁Cass	-15063
▁Dani	-15064
▁Holl	-15065
▁Tren	-15066
▁pack	-15067
▁tent	-15068
▁work	-15069
▁ກ້ຽງ	-15070
▁ວິກິ	-15071
▁ຫມູນ	-15072
▁ຫລອມ	-15073
▁ໄມໂຄ	-15074
ilding	-15075
ຂື້ນມາ	-15076
ຈຸດນີ້	-15077
ດິນແດນ	-15078
ດ້ວຍມື	-15079
ທາງລົບ	-15080
ນັກໂທດ	-15081
ລົດລົງ	-15082
ອັກເສບ	-15083
▁2,000	-15084
▁Covid	-15085
▁Khmer	-15086
▁PROMO	-15087
▁Stone	-15088
▁Young	-15089
▁ບົດທີ	-15090
▁ຫນ່າຍ	-15091
▁ອາຣັບ	-15092
▁ເບີໂທ	-15093
▁ໃນລັດ	-15094
agnetic	-15095
ຈາລະຈອນ	-15096
ທຸກບ່ອນ	-15097
ພວກທ່ານ	-15098
ລອຍນ້ໍາ	-15099
ສັງກະສີ	-15100
ອິດສະລະ	-15101
ເຮລິຄອບ	-15102
ແລະນ້ໍາ	-15103
▁Advent	-15104
▁Boiler	-15105
▁Hadoop	-15106
▁Peters	-15107
▁ນັກຂຽນ	-15108
▁ສະຫນິດ	-15109
▁ອັບອາຍ	-15110
▁ເກມອອນ	-15111
▁ເຂົາຈະ	-15112
▁ແລະລາວ	-15113
ຕໍ່ອາທິດ	-15114
ຢູ່ນະຄອນ	-15115
ສະແດງໃຫ້	-15116
ສິ່ງນັ້ນ	-15117
ຫຼົບຫຼີກ	-15118
ອ້າງເຖິງ	-15119
ເຮືອນຄົວ	-15120
▁Horizon	-15121
▁Wolford	-15122
▁dornier	-15123
▁ກໍາເນີດ	-15124
▁ພັນລະນາ	-15125
▁ເຕັກນິກ	-15126
▁ເປັນນິດ	-15127
ຂ້ອຍສາມາດ	-15128
ຢູ່ໃນຫ້ອງ	-15129
ຮູບແບບຂອງ	-15130
ແລະການຄ້າ	-15131
▁Longgang	-15132
▁ປາດຖະຫນາ	-15133
▁ຫໍສະຫມຸດ	-15134
▁ເຈົ້າຢູ່	-15135
▁ເຖິງຄວາມ	-15136
ຂໍ້ຄວາມທີ່	-15137
ທຸລະກິດທີ່	-15138
ມີອິດທິພົນ	-15139
ວິພາກວິຈານ	-15140
ແລະສິ່ງທີ່	-15141
ໃນວັນອາທິດ	-15142
▁Community	-15143
▁Countdown	-15144
▁corrosion	-15145
▁ການກວດສອບ	-15146
▁ທົນທານຕໍ່	-15147
refinecolor	-15148
ດັ່ງກ່າວນີ້	-15149
ແລະເງື່ອນໄຂ	-15150
ໃນການຮຽນຮູ້	-15151
▁Microfiber	-15152
▁ຜູ້ບໍລິຫານ	-15153
▁ແມ່ນໄດ້ຖືກ	-15154
▁ໄດ້ເຮັດໃຫ້	-15155
ທີ່ສູງທີ່ສຸດ	-15156
ລະເບີດຝັງດິນ	-15157
ສໍາຄັນທີ່ສຸດ	-15158
ເຊື່ອມໂຍງກັບ	-15159
ເພື່ອປົກປ້ອງ	-15160
ໃນການປິ່ນປົວ	-15161
▁ການສະແດງອອກ	-15162
▁ພາສາຫວຽດນາມ	-15163
▁ເປັນຫນຶ່ງໃນ	-15164
ເງື່ອນໄຂສະດວກ	-15165
ເລີ່ມຕົ້ນດ້ວຍ	-15166
ທາງດ້ານກົດຫມາຍ	-15167
ຮຽກຮ້ອງຕ້ອງການ	-15168
▁ຄາສິໂນອອນໄລນ໌	-15169
▁ດ້ວຍຫົວຂໍ້ວ່າ	-15170
▁ນອກເຫນືອໄປຈາກ	-15171
▁ຫນັງສືຜ່ານແດນ	-15172
▁ແຕ່ຫນ້າເສຍດາຍ	-15173
ທີ່ແຕກຕ່າງກັນແລະ	-15174
ເດືອນກ່ອນຫນ້ານີ້	-15175
▁ຖ້າຫາກວ່າທ່ານມີ	-15176
,5	-15177
/7	-15178
09	-15179
DE	-15180
Wh	-15181
fs	-15182
ຖາ	-15183
1.0	-15184
111	-15185
18)	-15186
SON	-15187
orp	-15188
tre	-15189
zen	-15190
ດີນ	-15191
ຕຽມ	-15192
າວາ	-15193
▁DA	-15194
▁GA	-15195
▁HE	-15196
▁LR	-15197
▁ev	-15198
1200	-15199
adel	-15200
onto	-15201
oose	-15202
pple	-15203
ຊ່າງ	-15204
ດຸ່ນ	-15205
ູດານ	-15206
ເບີນ	-15207
ເມືອ	-15208
▁218	-15209
▁4.3	-15210
▁4.5	-15211
▁40,	-15212
▁Aud	-15213
▁Jew	-15214
▁MIU	-15215
▁Moz	-15216
▁Not	-15217
▁Rij	-15218
▁URL	-15219
▁emb	-15220
▁las	-15221
▁ຊົດ	-15222
▁ບຶດ	-15223
▁ຮາດ	-15224
▁ເພຍ	-15225
Quick	-15226
redit	-15227
ປະມົງ	-15228
ສີ່ປີ	-15229
ຫມ້າຍ	-15230
ໄດ້ບໍ	-15231
▁Dark	-15232
▁Eric	-15233
▁MCSE	-15234
▁Peak	-15235
▁Quan	-15236
▁Rest	-15237
▁Tank	-15238
▁Vlad	-15239
▁Xuan	-15240
▁zomb	-15241
▁ເສີຍ	-15242
▁ເສືອ	-15243
atform	-15244
bright	-15245
icheng	-15246
ormone	-15247
ytnice	-15248
ຕາມການ	-15249
ທໍາງານ	-15250
ເທີແລນ	-15251
ເມື່ອຍ	-15252
ເສຍແຕ່	-15253
ເຫລົ່າ	-15254
ແລະສັດ	-15255
▁Medic	-15256
▁Patch	-15257
▁Trust	-15258
▁Ultra	-15259
▁blogs	-15260
▁penny	-15261
▁volts	-15262
▁ພະຍົບ	-15263
▁ຫມິ່ນ	-15264
▁ຫວັ່ນ	-15265
▁ອັຟກາ	-15266
ototype	-15267
ກ່ອນທີ່	-15268
ຢູ່ອາໄສ	-15269
ລີນິຍົມ	-15270
ອມມູນິດ	-15271
ອີກແລ້ວ	-15272
ອຸປະຖໍາ	-15273
▁Cotton	-15274
▁Flying	-15275
▁Letter	-15276
▁Sports	-15277
▁ຄໍາສັບ	-15278
▁ນັກຮົບ	-15279
▁ນິສຖານ	-15280
▁ນ້ໍາຕາ	-15281
▁ຢ່າງໃດ	-15282
▁ລວມຖືງ	-15283
▁ລາວຍັງ	-15284
▁ລຶກລັບ	-15285
▁ວ່າບໍ່	-15286
▁ອັງຄານ	-15287
ທີ່ເມືອງ	-15288
ລົງນາມໃນ	-15289
ສອງເທົ່າ	-15290
ໂປໂມຊັ່ນ	-15291
▁Yinzhou	-15292
▁stretch	-15293
▁ໂດຍຜ່ານ	-15294
umenstock	-15295
ປະເຊີນກັບ	-15296
ຜູ້ທີ່ໄດ້	-15297
ພາກໃຕ້ຂອງ	-15298
ສາຍີ່ປຸ່ນ	-15299
ສູນກາງພັກ	-15300
ຮູບແບບການ	-15301
ເລຂາທິການ	-15302
ແລະຮູບພາບ	-15303
▁Jiaozhou	-15304
▁ຊາວຫນຸ່ມ	-15305
▁ສະແຫວງຫາ	-15306
ການໄກ່ເກ່ຍ	-15307
ຂອງຄົນອື່ນ	-15308
ຂອງທ່ານກັບ	-15309
ທາງກົດຫມາຍ	-15310
ທີ່ແຂງແກ່ນ	-15311
ລາຍງານຂ່າວ	-15312
ວ່າຈະມີການ	-15313
ເຂົ້າໃຈວ່າ	-15314
ເພື່ອບັນລຸ	-15315
ແລະວິຊາຊີບ	-15316
▁Rokytnice	-15317
▁ຜູ້ຕິດຕາມ	-15318
▁ວິທີແກ້ໄຂ	-15319
▁ແຮງດຶງດູດ	-15320
ຕ້ອນຮັບທ່ານ	-15321
ທຸກປະເພດຂອງ	-15322
ປະເພດຂອງການ	-15323
ຢາຕ້ານເຊື້ອ	-15324
ເຮັດໃຫ້ທ່ານ	-15325
▁ຂະຫນາດແມ່ນ	-15326
▁ພວກເຮົາບໍ່	-15327
▁ແຜ່ນດິນໄຫວ	-15328
ຈະເລີນເຕີບໂຕ	-15329
▁ຫົວຫນ້າຄະນະ	-15330
▁ໂທຫາພວກເຮົາ	-15331
ທີ່ມີຄວາມຫມາຍ	-15332
▁ການປະກອບສ່ວນ	-15333
▁ຜູ້ເຂົ້າຮ່ວມ	-15334
▁ສ່ວນໃຫຍ່ແມ່ນ	-15335
▁ສໍາລັບການຂາຍ	-15336
ເຊິ່ງກັນແລະກັນ	-15337
ເປັນຄັ້ງທໍາອິດ	-15338
ໄດ້ຖືກສ້າງຂຶ້ນ	-15339
▁ການດໍາເນີນງານ	-15340
▁ທີ່ແຕກຕ່າງກັນ	-15341
▁ສະເຫຼີມສະຫຼອງ	-15342
ໄດ້ຮັບຄວາມສົນໃຈ	-15343
Fe	-15344
La	-15345
MI	-15346
nm	-15347
ny	-15348
zb	-15349
ົົ	-15350
ໂວ	-15351
-26	-15352
.22	-15353
.60	-15354
30,	-15355
789	-15356
cat	-15357
col	-15358
edi	-15359
fix	-15360
nik	-15361
rik	-15362
ຊີນ	-15363
ຖັກ	-15364
ຜົງ	-15365
ຫາມ	-15366
ຮຽບ	-15367
ົວະ	-15368
ເບນ	-15369
ເຫງ	-15370
▁RI	-15371
▁SJ	-15372
atar	-15373
iger	-15374
ocks	-15375
ules	-15376
ulph	-15377
ກ້ວຍ	-15378
ດ່ຽງ	-15379
ວກກີ	-15380
ຫລົງ	-15381
ເທັດ	-15382
▁31,	-15383
▁5.5	-15384
▁93;	-15385
▁BMP	-15386
▁LAS	-15387
▁Rig	-15388
▁TCP	-15389
▁TUV	-15390
▁org	-15391
▁ກັກ	-15392
▁ພໍ້	-15393
▁ຟອດ	-15394
▁ເອນ	-15395
apost	-15396
inski	-15397
ittle	-15398
oenix	-15399
ກະປົກ	-15400
ຂໍໂທດ	-15401
ຄົນໃນ	-15402
ຈິດຕະ	-15403
ຝລັ່ງ	-15404
ພັນທຸ	-15405
ລັກພາ	-15406
ຫລົ່ມ	-15407
ຫຼ່ຽມ	-15408
ອາຊິດ	-15409
ຸກເກີ	-15410
ໃນບາງ	-15411
▁95%.	-15412
▁Arab	-15413
▁Cons	-15414
▁Corn	-15415
▁Cour	-15416
▁Ford	-15417
▁Gear	-15418
▁Golf	-15419
▁Gree	-15420
▁Make	-15421
▁TGGT	-15422
▁part	-15423
▁post	-15424
▁tank	-15425
▁tape	-15426
▁ຈິ້ງ	-15427
▁ຫຍາບ	-15428
▁ອີ່ມ	-15429
▁ຮັ່ງ	-15430
▁ເບັດ	-15431
▁ເພັດ	-15432
▁ເເລະ	-15433
▁★★★★	-15434
anical	-15435
ission	-15436
istory	-15437
ຂົນຂົນ	-15438
ນີ້ຖືກ	-15439
ພີກເຊລ	-15440
ຢາງຢາງ	-15441
ແລະຄົນ	-15442
ໂອບາມາ	-15443
▁Georg	-15444
▁Multi	-15445
▁sight	-15446
▁ຕໍ່ມາ	-15447
▁ປະການ	-15448
▁ສາຫັດ	-15449
Station	-15450
atabase	-15451
ຂາເປົ່າ	-15452
ສະຖານນີ	-15453
ສົ່ງຜົນ	-15454
ເກີດຈາກ	-15455
ແບບຢ່າງ	-15456
▁(2010)	-15457
▁August	-15458
▁Sludge	-15459
▁ກະດ້າງ	-15460
▁ຕໍາຫນິ	-15461
▁ທົດສອບ	-15462
▁ທຽນຈິນ	-15463
▁ນັບແຕ່	-15464
▁ນັ້ນຈະ	-15465
▁ນໍາທິດ	-15466
▁ນໍ້າໃຈ	-15467
▁ແລະຖ້າ	-15468
▁ໂດຍລວມ	-15469
ຄົນພິການ	-15470
ປະກາດວ່າ	-15471
ລະດັບໂລກ	-15472
ຫຸ້ນສ່ວນ	-15473
ອື່ນໆທີ່	-15474
ີມສະຫລອງ	-15475
ເຊັ່ນນີ້	-15476
ແຂ້ວແຂ້ວ	-15477
ໃນໂຄງການ	-15478
▁Furnace	-15479
▁ການເງິນ	-15480
▁ຕົກແຕ່ງ	-15481
▁ຫຼ້າສຸດ	-15482
▁ເອກະພົບ	-15483
ການສູນເສຍ	-15484
ຂອງອົງກອນ	-15485
ວິທະຍາໄລກ	-15486
ອາເມຣິກັນ	-15487
ໃຫ້ນັກຮຽນ	-15488
▁Internet	-15489
▁interior	-15490
▁ຈັກກະວານ	-15491
▁ໃນວັນສຸກ	-15492
ກັບພວກເຂົາ	-15493
ຕົ້ນຕໍແມ່ນ	-15494
ພາລະບົດບາດ	-15495
ຢ່າງສົມບູນ	-15496
ເພື່ອເບິ່ງ	-15497
▁Packaging	-15498
▁polyester	-15499
▁ການຜ່າຕັດ	-15500
▁ການສູນເສຍ	-15501
▁ຢູ່ທີ່ນີ້	-15502
▁ແບບຈໍາລອງ	-15503
▁ແລະທ່ານຈະ	-15504
ກ່ຽວກັບວິທີ	-15505
ທີ່ມີປະໂຫຍດ	-15506
ສະມາຊິກສະພາ	-15507
▁ໂດຍກ່າວວ່າ	-15508
▁ໄດ້ກາຍເປັນ	-15509
ຂະຫນາດຂະຫນາດ	-15510
ເປັນເຈົ້າພາບ	-15511
ເພື່ອຊ່ວຍໃຫ້	-15512
ເວລາທ້ອງຖິ່ນ	-15513
ເຮັດໃຫ້ປະລາດ	-15514
▁ລະຫັດສິນຄ້າ	-15515
▁ຮູບຊົງກະບອກ	-15516
ການປົກຫຸ້ມຂອງ	-15517
ຂອງຜູ້ບໍລິໂພກ	-15518
ສໍາລັບຜູ້ໃຫຍ່	-15519
▁ປະເພດຖົງປະເພດ	-15520
▁ສ້າງແບບຈໍາລອງ	-15521
ການເຄື່ອນໄຫວຂອງ	-15522
ຂອງມະຫາວິທະຍາໄລ	-15523
ຄ່າໃຊ້ຈ່າຍໃນການ	-15524
▁ເປັນຄັ້ງທໍາອິດ	-15525
▁ທີ່ຢູ່ຕິດຕໍ່ທັງ	-15526
[...]
