<unk>	0
<s>	0
</s>	0
▁ເ	-0
ານ	-1
ອງ	-2
ັນ	-3
▁ແ	-4
ທີ	-5
▁ກ	-6
້າ	-7
ລະ	-8
ທີ່	-9
▁ສ	-10
າມ	-11
ັບ	-12
ໍາ	-13
່າ	-14
▁ຄ	-15
▁ໃ	-16
▁ຂ	-17
▁ຫ	-18
ດ້	-19
ການ	-20
ັດ	-21
▁ໄ	-22
▁ພ	-23
່ງ	-24
ົາ	-25
້ນ	-26
ື່	-27
າຍ	-28
▁ຈ	-29
ິດ	-30
▁ມ	-31
▁ແລະ	-32
▁ນ	-33
▁ທີ່	-34
▁ຕ	-35
ົນ	-36
າດ	-37
ໍ່	-38
▁ບ	-39
ປະ	-40
▁ທ	-41
ົ້າ	-42
▁ອ	-43
ວາມ	-44
ອນ	-45
▁ການ	-46
ັງ	-47
▁ລ	-48
່ນ	-49
ວກ	-50
ປັນ	-51
▁ໄດ້	-52
ຂອງ	-53
ັກ	-54
າກ	-55
▁ຂອງ	-56
ູ້	-57
ວ່າ	-58
▁ຊ	-59
in	-60
▁ເຮ	-61
▁ໃນ	-62
ຫ້	-63
er	-64
▁ຮ	-65
າງ	-66
ສະ	-67
▁2	-68
່ານ	-69
ຫນ	-70
ຈົ້າ	-71
▁ຄວາມ	-72
ັ້ນ	-73
ີ້	-74
▁1	-75
ໃນ	-76
▁ໂ	-77
່ວ	-78
ູ່	-79
ື່ອ	-80
▁ຢ	-81
▁ຜ	-82
▁C	-83
ອກ	-84
an	-85
▁ເປັນ	-86
້ອ	-87
▁ຈະ	-88
ົງ	-89
ົດ	-90
ຸດ	-91
ິນ	-92
▁S	-93
່າງ	-94
ເຮ	-95
▁ມີ	-96
▁ດ	-97
▁ສະ	-98
ິ່ງ	-99
້ອງ	-100
on	-101
▁ຫນ	-102
▁ເຮົາ	-103
ຫຼ	-104
▁ປ	-105
າວ	-106
ມີ	-107
00	-108
ແລະ	-109
ມ່ນ	-110
ິງ	-111
ໄດ້	-112
▁ເຈົ້າ	-113
▁ພວກ	-114
ົວ	-115
▁ເພ	-116
▁ຍ	-117
▁ໃຫ້	-118
▁ເຂ	-119
▁ວ	-120
▁P	-121
▁ປະ	-122
▁ບໍ່	-123
▁ຖ	-124
ະນ	-125
ຄວາມ	-126
່ຽ	-127
ອບ	-128
ar	-129
▁ຄົນ	-130
en	-131
▁(	-132
es	-133
ຫມ	-134
ຕ່	-135
▁M	-136
ະລ	-137
▁ວ່າ	-138
້ອຍ	-139
ໍາລ	-140
at	-141
or	-142
ຫລ	-143
ົບ	-144
ື່ອງ	-145
ຈະ	-146
▁ກັບ	-147
01	-148
▁ຫລ	-149
ົມ	-150
ຶ່ງ	-151
ພາ	-152
ເປັນ	-153
▁A	-154
ພະ	-155
ຸກ	-156
້ງ	-157
▁ຜູ້	-158
▁T	-159
▁B	-160
▁ຂ້າ	-161
▁/	-162
▁-	-163
▁ໄປ	-164
al	-165
▁ເລ	-166
ເຂ	-167
ຊ້	-168
▁ເຂົາ	-169
▁ນີ້	-170
ເຮົາ	-171
ີນ	-172
ພວກ	-173
ດຍ	-174
ເພ	-175
່ມ	-176
ic	-177
..	-178
st	-179
▁D	-180
ືກ	-181
ວນ	-182
ໃຫ້	-183
▁ຫຼ	-184
າມາດ	-185
ແມ່ນ	-186
ຫຍ	-187
ຶກ	-188
▁ຢູ່	-189
ູນ	-190
ີດ	-191
▁L	-192
ກັບ	-193
ໍາລັບ	-194
▁ແຕ່	-195
▁201	-196
▁ນັ້ນ	-197
▁ທ່ານ	-198
ບໍ່	-199
ງານ	-200
▁,	-201
້າງ	-202
ສາ	-203
ເລ	-204
le	-205
ing	-206
▁R	-207
▁ເຮັດ	-208
້ວ	-209
▁F	-210
ົກ	-211
ro	-212
ລິ	-213
▁3	-214
ລາ	-215
▁ເມ	-216
ຢູ່	-217
ໍ້	-218
ຽນ	-219
ທ່ານ	-220
ັ້ງ	-221
▁H	-222
ຖິງ	-223
▁ມັນ	-224
▁ໃຈ	-225
ac	-226
▁ຫມ	-227
ເຈົ້າ	-228
it	-229
ຕະ	-230
▁ກໍ	-231
ຽງ	-232
ະລິດ	-233
ຶ້ນ	-234
▁ເຊ	-235
ບັນ	-236
▁ຈາກ	-237
ວຍ	-238
ຫັນ	-239
▁ຂ້າພະ	-240
▁ເວ	-241
ຈາກ	-242
▁E	-243
▁ແມ່ນ	-244
ພາບ	-245
ຄື່ອງ	-246
ເວ	-247
▁G	-248
ຮັບ	-249
ື່ນ	-250
ຸນ	-251
ol	-252
ັ່ງ	-253
et	-254
ໄປ	-255
▁ພະ	-256
່ອນ	-257
▁ມາ	-258
om	-259
້ານ	-260
ບບ	-261
▁ລະ	-262
ຕິ	-263
ພວກເຮົາ	-264
ເທ	-265
່ວນ	-266
ູກ	-267
ດ້ວຍ	-268
el	-269
ເສ	-270
ed	-271
as	-272
▁ຮູ້	-273
ອດ	-274
▁ເພື່ອ	-275
ເຊ	-276
ົ້ນ	-277
▁c	-278
▁W	-279
ສາມາດ	-280
▁ຄໍາ	-281
ໃຊ້	-282
▁ເກ	-283
ລ້ວ	-284
ou	-285
ຣະ	-286
▁ສໍາ	-287
ມື	-288
▁ສິ່ງ	-289
▁I	-290
ເຮັດ	-291
ຄົນ	-292
ຜະລິດ	-293
ວຽ	-294
▁5	-295
▁ເຖິງ	-296
ົ່ງ	-297
▁ຕໍ່	-298
▁ໃດ	-299
ຸມ	-300
ີກ	-301
ໍລິ	-302
▁N	-303
ໃຈ	-304
re	-305
▁4	-306
ືອນ	-307
ນັ້ນ	-308
ພັນ	-309
▁ກັນ	-310
▁ລາວ	-311
▁ໂດຍ	-312
▁ຢ່າງ	-313
am	-314
ທາງ	-315
▁ຮັບ	-316
ຜູ້	-317
ມາ	-318
ຊີ	-319
ູບ	-320
ນີ້	-321
ຢ່າງ	-322
ຕໍ່	-323
້າຍ	-324
າະ	-325
▁ເສ	-326
່າຍ	-327
ot	-328
ູງ	-329
il	-330
ລກ	-331
ກະ	-332
▁ຫນ້າ	-333
ິ່ນ	-334
▁s	-335
▁ເອ	-336
ວກັບ	-337
▁t	-338
▁p	-339
ເຕ	-340
ຮງ	-341
ສໍາລັບ	-342
ົ່າ	-343
ວິດ	-344
ີ່ມ	-345
ສະຫນ	-346
▁ຫນຶ່ງ	-347
▁ທາງ	-348
ໍານ	-349
້ມ	-350
ສຸດ	-351
່ຽວກັບ	-352
່ຽວ	-353
່າວ	-354
ຖານ	-355
▁ຂຶ້ນ	-356
ຍາ	-357
ືນ	-358
id	-359
ດີ	-360
▁ອາ	-361
ປະກ	-362
▁ເມື່ອ	-363
ຫາ	-364
▁ຫລາຍ	-365
ຂະ	-366
ກິດ	-367
▁ແລ້ວ	-368
ter	-369
▁ຖືກ	-370
is	-371
ວິ	-372
▁ບັນ	-373
▁ວິ	-374
ບິ່ງ	-375
▁ແນ	-376
▁ນໍາ	-377
▁ເດ	-378
ື້ນ	-379
ຕ້ອງ	-380
▁ພຣະ	-381
ທະ	-382
ion	-383
ເຂົາ	-384
່ວຍ	-385
ad	-386
▁ຕົວ	-387
ຫະ	-388
▁V	-389
ຫຍ່	-390
ສຶກ	-391
▁ເຄື່ອງ	-392
່ວມ	-393
▁ຊີ	-394
ົ່ວ	-395
ອາ	-396
ັ່ນ	-397
▁ດ້ວຍ	-398
ນະ	-399
▁ເທ	-400
▁ດີ	-401
ເກ	-402
ດງ	-403
oo	-404
ະນາ	-405
້ໍາ	-406
ຫຼາຍ	-407
ິກ	-408
ບໍລິ	-409
ອອກ	-410
▁ປີ	-411
້ອນ	-412
ເທດ	-413
ແບບ	-414
▁U	-415
ທີ່ມີ	-416
ch	-417
▁ລູກ	-418
ໂດຍ	-419
▁ກະ	-420
ur	-421
▁ຕ້ອງ	-422
▁m	-423
▁6	-424
▁ເຂົ້າ	-425
ຖືກ	-426
▁O	-427
...	-428
ag	-429
ືອ	-430
▁b	-431
▁ໃຊ້	-432
▁ເຫັນ	-433
ະນະ	-434
ວງ	-435
ເມ	-436
ວັນ	-437
ີຍ	-438
ສ້າງ	-439
▁ສໍາລັບ	-440
▁ຕາມ	-441
ວດ	-442
ຕັ້ງ	-443
ເນ	-444
ດາ	-445
ເຂົ້າ	-446
ບັດ	-447
▁ທຸກ	-448
ທໍາ	-449
ຮູ້	-450
▁ຖ້າ	-451
ຂໍ້	-452
ດນ	-453
ຸ່ມ	-454
ອຍ	-455
▁K	-456
ກັນ	-457
ທິ	-458
ສັດ	-459
▁ທໍາ	-460
▁J	-461
ອົງ	-462
he	-463
ພິ	-464
ຫານ	-465
ງິນ	-466
▁ທັງ	-467
ang	-468
▁_	-469
ເພື່ອ	-470
▁“	-471
ຕົວ	-472
ໄດ້ຮັບ	-473
ig	-474
ໄລ	-475
▁8	-476
ສູງ	-477
ຜົນ	-478
ກໍາ	-479
ເຄ	-480
ຕະພັນ	-481
້ອມ	-482
ທີ່ຈະ	-483
ື່ອນ	-484
ມັນ	-485
▁ໄວ	-486
ແດງ	-487
ຍັງ	-488
▁ເຕ	-489
▁ຫາ	-490
▁ສຸດ	-491
ເພດ	-492
mm	-493
ມ່	-494
ອມ	-495
ມູນ	-496
ື້	-497
ຫນ້າ	-498
່ຽນ	-499
ທັງ	-500
▁ນາງ	-501
ຫດ	-502
▁ພາ	-503
ct	-504
▁d	-505
▁ອອກ	-506
ດນາມ	-507
▁ສາມາດ	-508
▁ເລື່ອງ	-509
ຖະ	-510
ວຽດນາມ	-511
and	-512
▁ຫຼາຍ	-513
▁ຫຼື	-514
ສ່ວນ	-515
▁...	-516
ັດທ	-517
ess	-518
ສິ່ງ	-519
ີ່	-520
ກ່ຽວກັບ	-521
us	-522
▁ບາງ	-523
ow	-524
ent	-525
ປີ	-526
▁"	-527
com	-528
ແນ	-529
▁7	-530
ສິດ	-531
ack	-532
ແຕ່	-533
ສ່	-534
▁ເບິ່ງ	-535
ເຫັນ	-536
ຂ້ອຍ	-537
▁ເພາະ	-538
▁ເພິ່ນ	-539
▁ແຜ	-540
ຮ່ວມ	-541
ໃນການ	-542
ແກ	-543
20	-544
▁ອາດ	-545
ຸ່ນ	-546
▁ຄື	-547
▁ສາ	-548
▁ຮັກ	-549
ື່ນໆ	-550
ຫນາດ	-551
ນໍາ	-552
່ອງ	-553
▁ເອົາ	-554
▁ຊີວິດ	-555
un	-556
ir	-557
ເດ	-558
▁10	-559
ເອ	-560
▁ເກີດ	-561
ສໍາ	-562
ຫມ່	-563
ຄ້າ	-564
▁ຫລື	-565
▁f	-566
ືອກ	-567
▁ຂະ	-568
▁$	-569
▁ຟ	-570
ເວລາ	-571
່ອຍ	-572
ປະເທດ	-573
ເຄື່ອງ	-574
ຊົນ	-575
ຕາ	-576
ຊາ	-577
▁9	-578
▁0	-579
ສົມ	-580
000	-581
▁ຂ້າພະເຈົ້າ	-582
▁h	-583
▁20	-584
ຄິດ	-585
ຽວ	-586
▁ດັ່ງ	-587
ີມ	-588
▁ແທ	-589
ໂນ	-590
▁ອີກ	-591
▁ລັບ	-592
ຽມ	-593
ຕ່າງ	-594
ຈັກ	-595
ເຫຼ	-596
ດ້ານ	-597
▁ພວກເຮົາ	-598
um	-599
ຫ່ງ	-600
▁ວັນ	-601
op	-602
▁St	-603
ຮູບ	-604
▁ສ່ວນ	-605
ul	-606
ສົ່ງ	-607
ລົງ	-608
ri	-609
ຕາມ	-610
ສານ	-611
▁ກໍາ	-612
ວ່າງ	-613
ຫວ	-614
▁ຂ້ອຍ	-615
ine	-616
ຈັດ	-617
ທີ່ສຸດ	-618
▁ຈໍາ	-619
▁ອັນ	-620
ຂອງທ່ານ	-621
ຂອງພວກເຮົາ	-622
ap	-623
▁ເຫລ	-624
▁ແກ	-625
ay	-626
ໃຫຍ່	-627
ຽກ	-628
▁ລາ	-629
ຕິບັດ	-630
ຂຶ້ນ	-631
ວຽກ	-632
▁ເວລາ	-633
▁ງ	-634
▁ເວົ້າ	-635
ຄໍາ	-636
lo	-637
▁ແນວ	-638
▁ຝ	-639
▁ໄວ້	-640
ໃດ	-641
ຈໍາ	-642
ແຕ	-643
▁ໂທ	-644
ສາຫະ	-645
▁ໂລກ	-646
ong	-647
ື້ອ	-648
ໄວ	-649
▁ຄິດ	-650
▁ຂໍ້	-651
ສາດ	-652
▁*	-653
ab	-654
▁2018	-655
ຫມາຍ	-656
▁w	-657
▁ແບບ	-658
▁ກ່ຽວ	-659
ວມ	-660
▁ຈິງ	-661
▁ຕອນ	-662
ຊຸມ	-663
of	-664
ut	-665
os	-666
50	-667
ເງິນ	-668
▁ເອງ	-669
ສັບ	-670
▁ແມ່	-671
ອິດ	-672
ເສດ	-673
ືອງ	-674
ຜ່ານ	-675
ຄັນ	-676
ທຸກ	-677
▁&	-678
ຂໍ້ມູນ	-679
▁ຍັງ	-680
ໍາລັງ	-681
▁ເຄ	-682
▁ພິ	-683
▁X	-684
▁ເຫດ	-685
ຫນຶ່ງ	-686
▁–	-687
ຮຽນ	-688
▁Ch	-689
ຂ້າ	-690
ve	-691
ຽບ	-692
ັດທະນາ	-693
ຫວ່າງ	-694
ສິນ	-695
ອບຄ	-696
ຫລາຍ	-697
▁ທີ	-698
ເປ	-699
ຢູ່ໃນ	-700
▁ຮູບ	-701
ຕົ້ນ	-702
ໂຄ	-703
ດິນ	-704
ການປ	-705
ໂລ	-706
▁+	-707
ຄາ	-708
▁ຫວຽດນາມ	-709
▁.	-710
em	-711
ໂລກ	-712
ip	-713
ພວກເຂົາ	-714
ໍານວນ	-715
▁ຮູ້ສຶກ	-716
ປະກອນ	-717
ers	-718
▁Sh	-719
ເຖິງ	-720
ຸປະກອນ	-721
ອື່ນໆ	-722
ຍະ	-723
ຫມົດ	-724
▁ເດືອນ	-725
ລະບ	-726
▁ຈີນ	-727
▁ຫມົດ	-728
▁ງານ	-729
ທະຍາ	-730
ອບຄົວ	-731
ແປ	-732
ກໍ່	-733
th	-734
າກາດ	-735
▁ພໍ່	-736
▁ອົງ	-737
▁In	-738
▁ຫມາຍ	-739
ດັບ	-740
ແຂ	-741
ຕິດ	-742
ໄຟ	-743
ໍາມ	-744
▁ດາວ	-745
ຫລດ	-746
▁ສ້າງ	-747
▁ຊາຍ	-748
▁ແຜ່ນ	-749
ທິດ	-750
ຜະລິດຕະພັນ	-751
ິ້ນ	-752
ຂອງການ	-753
ບັນດາ	-754
▁19	-755
ຽດ	-756
▁g	-757
ຄື	-758
ia	-759
ົ່ານ	-760
ຸງ	-761
ໄຂ	-762
ລະສັບ	-763
ມ້	-764
▁12	-765
▁Co	-766
-1	-767
▁ຊື່	-768
▁ຈຶ່ງ	-769
ຕອນ	-770
qu	-771
ຈຸ	-772
ust	-773
▁ວຽກ	-774
ຕ້ອງການ	-775
▁ຕາ	-776
▁ສາດ	-777
ູດ	-778
ມານ	-779
ຄ່າ	-780
ຄວ	-781
ແທ	-782
▁ວິທີ	-783
ອາດ	-784
▁ລົງ	-785
▁ຄຸນ	-786
ck	-787
ໃສ່	-788
▁ຊຶ່ງ	-789
ra	-790
▁ເຊິ່ງ	-791
im	-792
ຍາຍ	-793
▁ຂໍ	-794
ໂຫລດ	-795
▁ນ້ອຍ	-796
ນາ	-797
▁ອະ	-798
▁>	-799
▁ຕ່າງ	-800
ຄົມ	-801
ບາຍ	-802
ກົດ	-803
▁ກວ່າ	-804
ພື້ນ	-805
▁ສີ	-806
ຊາດ	-807
▁ຕົນ	-808
ລາຍ	-809
▁ເປ	-810
ຊ່ວຍ	-811
igh	-812
▁ແຕ	-813
▁15	-814
ເຮັດໃຫ້	-815
▁l	-816
▁ໄຟ	-817
▁ຕິດ	-818
▁ແທ້	-819
ນໍາໃຊ້	-820
ສະເ	-821
ງການ	-822
ສີ	-823
▁ພັນ	-824
ຟ້າ	-825
▁ຜົນ	-826
▁ໃຫຍ່	-827
est	-828
ນ້ອຍ	-829
ະລັງ	-830
▁Y	-831
one	-832
ສົບ	-833
ທໍາອິດ	-834
▁Z	-835
ມັດ	-836
ຄົ້ນ	-837
.0	-838
▁ລາຍ	-839
ຶນ	-840
ແລະການ	-841
ຄຸນ	-842
▁ບໍ	-843
ສະແດງ	-844
▁11	-845
ric	-846
eb	-847
ລະກິດ	-848
ນ້ໍາ	-849
▁ປະເພດ	-850
▁ເມືອງ	-851
ast	-852
ຸດສາຫະ	-853
ian	-854
▁ມື	-855
ຂ້າພະ	-856
ເຊື່ອ	-857
▁ຜະລິດ	-858
ນ໌	-859
ເຕີ	-860
▁in	-861
ປະຕິບັດ	-862
▁ແຫ່ງ	-863
ກາ	-864
ລັດ	-865
▁ຈັກ	-866
▁ບ່ອນ	-867
▁ນະ	-868
att	-869
ັມ	-870
ບໍລິການ	-871
201	-872
ຫັດ	-873
ທົ່ວ	-874
▁ຕະ	-875
▁ຊາວ	-876
▁ພຽງ	-877
od	-878
ອາກາດ	-879
▁ທະ	-880
▁ອື່ນ	-881
ພັດທະນາ	-882
.1	-883
ຮັກ	-884
▁ເຊື່ອ	-885
art	-886
ທົບ	-887
ພາກ	-888
▁ຂະຫນາດ	-889
ຍາຍາມ	-890
ver	-891
▁ນັກ	-892
▁ຄອບຄົວ	-893
ທຶນ	-894
ເຈ	-895
ຮງງານ	-896
ປະກອບ	-897
pe	-898
ຊີວິດ	-899
ທານ	-900
▁ຊ່ວຍ	-901
ຸລະກິດ	-902
▁ກ່າວ	-903
▁ອີ	-904
ເຮັດວຽກ	-905
▁ຜິດ	-906
ມີຄວາມ	-907
▁ຫົວ	-908
▁ຫຍັງ	-909
ation	-910
ແຜ	-911
ຫຼື	-912
▁ວິນ	-913
ate	-914
ຶດ	-915
ວາງ	-916
if	-917
ຕ້	-918
▁ມາດ	-919
ain	-920
▁ສັນ	-921
▁200	-922
▁ຮຽນ	-923
າລະ	-924
▁ເຈ	-925
ເພີ່ມ	-926
▁ນ້ໍາ	-927
ຸດສາຫະກໍາ	-928
ຈິງ	-929
ກາຍ	-930
ສະຫນາ	-931
ໄຊ	-932
▁'	-933
ທັງຫມົດ	-934
up	-935
ພຽງ	-936
ight	-937
▁2017	-938
▁ຕັ້ງ	-939
▁ສົມ	-940
ark	-941
ຖື	-942
▁ບໍລິ	-943
ສອງ	-944
▁2019	-945
▁ສອງ	-946
▁ເຊັ່ນ	-947
ເອົາ	-948
ພິມ	-949
▁ມື້	-950
ລາວ	-951
▁ເສຍ	-952
▁ຄວນ	-953
▁ມະ	-954
▁ປົກ	-955
ຂ້າພະເຈົ້າ	-956
ຍານ	-957
▁ເນ	-958
▁ບັດ	-959
▁ແຂ	-960
ກໍ	-961
ຍາດ	-962
ib	-963
ie	-964
iz	-965
ard	-966
▁ໂທລະສັບ	-967
co	-968
ະນຸດ	-969
ສະຫນອງ	-970
ub	-971
ວິທີ	-972
▁ໃຫມ່	-973
▁ຈົ່ງ	-974
ເບິ່ງ	-975
▁ລິ	-976
ex	-977
ໃຫມ່	-978
ເຂດ	-979
▁ແກ່	-980
▁Pro	-981
▁ບັງ	-982
ະນໍາ	-983
▁ກ່ອນ	-984
ສໍາລັບການ	-985
▁An	-986
▁ຜະລິດຕະພັນ	-987
າມີ	-988
ທີ່ດີ	-989
ist	-990
ທຸລະກິດ	-991
▁ກ່ຽວກັບ	-992
ສັງ	-993
▁ບ້ານ	-994
ວັດ	-995
ບາງ	-996
▁n	-997
ak	-998
ly	-999
▁ໄລ	-1000
▁Q	-1001
▁ກົດ	-1002
ບໍລິສັດ	-1003
ຸ້ມ	-1004
ັງຈາກ	-1005
ໄດ້ຮັບການ	-1006
ໍາມະ	-1007
▁ສັດ	-1008
ລູກ	-1009
▁ຜ່ານ	-1010
ce	-1011
▁ສອນ	-1012
▁ສະຫ	-1013
ສົນ	-1014
▁ຍານ	-1015
30	-1016
ຫນີ	-1017
▁ຢາກ	-1018
og	-1019
ity	-1020
eng	-1021
▁:	-1022
▁ຊົ່ວ	-1023
ຂີ້	-1024
ຝຸ່ນ	-1025
ຸ້ນ	-1026
▁ນ້ອງ	-1027
▁ຕິ	-1028
ຂະຫນາດ	-1029
▁ແປ	-1030
ຄືນ	-1031
▁US	-1032
ປ່ຽນ	-1033
▁ເທື່ອ	-1034
້າວ	-1035
▁st	-1036
ແປງ	-1037
ີ້ນ	-1038
ress	-1039
ະລັງງານ	-1040
ຕີ	-1041
ສັນ	-1042
▁ປ່ຽນ	-1043
10	-1044
ໂທ	-1045
▁100	-1046
▁ເທົ່າ	-1047
ັບໄຊ	-1048
▁ລັງ	-1049
ລົດ	-1050
.5	-1051
ທົດ	-1052
ພາະ	-1053
ຫຍດ	-1054
▁16	-1055
ຄະ	-1056
ກວ່າ	-1057
ຂາຍ	-1058
lu	-1059
▁30	-1060
▁ພາບ	-1061
▁ເຫຼ	-1062
▁ດຽວ	-1063
▁ຮ່ວມ	-1064
pt	-1065
.2	-1066
ກາງ	-1067
ໄພ	-1068
▁18	-1069
▁ເລີ່ມ	-1070
ເລືອກ	-1071
ແລ້ວ	-1072
ບານ	-1073
ລະບົບ	-1074
ນັກ	-1075
ເກັບ	-1076
▁ກໍາລັງ	-1077
ືອບ	-1078
້ຽງ	-1079
ເກີດ	-1080
▁ອິດ	-1081
ບໍ່ມີ	-1082
▁ເຫດການ	-1083
▁v	-1084
ກ່າວ	-1085
▁ຕາຍ	-1086
ry	-1087
▁ຈົນ	-1088
ເນີນ	-1089
າຍຸ	-1090
ໄສ	-1091
ເມື	-1092
ໍາເນີນ	-1093
ຕັດ	-1094
ສະນະ	-1095
ສງ	-1096
ຄອນ	-1097
▁ຫວ	-1098
ພຣະ	-1099
▁ພະອົງ	-1100
td	-1101
ຊື່	-1102
▁ສູງ	-1103
oft	-1104
ກອງ	-1105
▁ຕັດ	-1106
▁ເລືອກ	-1107
ສິ່ງທີ່	-1108
ສຶກສາ	-1109
▁ຈັດ	-1110
▁ທີ່ຢູ່	-1111
▁ຕ່າງໆ	-1112
▁ສໍາຄັນ	-1113
ໄລຍະ	-1114
ຊາຊົນ	-1115
ຊາຍ	-1116
ຍິງ	-1117
ເມືອງ	-1118
▁ຂ່າວ	-1119
▁ສະແດງ	-1120
▁ແຜ່ນດິນ	-1121
່ຽງ	-1122
ເອງ	-1123
▁ຄືນ	-1124
XL	-1125
▁ນິ	-1126
▁ສົ່ງ	-1127
▁ປະເທດ	-1128
ort	-1129
ຄອງ	-1130
▁ນອກ	-1131
▁ເງິນ	-1132
se	-1133
ຂະສິດ	-1134
ູມ	-1135
ind	-1136
ັ້ມ	-1137
່ວງ	-1138
ປະເພດ	-1139
▁ເດັກ	-1140
▁ນັບ	-1141
attoo	-1142
▁ພຣະອົງ	-1143
86	-1144
av	-1145
ide	-1146
.”	-1147
ກຕ່າງ	-1148
▁24	-1149
ສິດທິ	-1150
▁ນາ	-1151
ກ້	-1152
ິບ	-1153
▁ສາຍ	-1154
ies	-1155
).	-1156
▁ບົດ	-1157
ant	-1158
ຖາມ	-1159
ເບ	-1160
ill	-1161
ປົກ	-1162
▁ປະກ	-1163
ພາຍ	-1164
▁ເສັ້ນ	-1165
▁ພາກ	-1166
ເຂົາເຈົ້າ	-1167
▁ຖະ	-1168
▁ຮ້າຍ	-1169
▁ໂຄ	-1170
ລ໌	-1171
ໂຫຍດ	-1172
▁ໃສ່	-1173
ປະຊຸມ	-1174
ຕົນ	-1175
ອຽດ	-1176
ບຄ	-1177
ຈຸບັນ	-1178
▁ຫ້ອງ	-1179
ແຮງ	-1180
▁25	-1181
ອກາດ	-1182
▁ເພີ່ມ	-1183
ື້ອຍ	-1184
ໂຍ	-1185
ໂນໂລ	-1186
▁ວິດ	-1187
▁ລົດ	-1188
ຖະກິດ	-1189
all	-1190
ຄາດ	-1191
ຍາກ	-1192
▁Ltd	-1193
zh	-1194
ສາຍ	-1195
▁ກອງ	-1196
ment	-1197
▁ຫນ້າທໍາອິດ	-1198
ື່ມ	-1199
▁13	-1200
ດັ່ງ	-1201
ອາຫານ	-1202
ນະພາບ	-1203
▁ຕົ້ນ	-1204
▁ບັນດາ	-1205
▁ຊ່ອຍ	-1206
ຫນັກ	-1207
ັກໂນໂລ	-1208
ົ່ານີ້	-1209
ຜ່ານມາ	-1210
▁ເຮືອນ	-1211
້ໄຂ	-1212
ຮ້ອງ	-1213
ອອກແບບ	-1214
າບ	-1215
ສະຖານ	-1216
ໂຄງການ	-1217
),	-1218
-2	-1219
ໂມ	-1220
ເສຍ	-1221
▁ເຄີຍ	-1222
ຜິດ	-1223
sh	-1224
rin	-1225
▁[	-1226
te	-1227
▁ບອກ	-1228
▁ຫາກ	-1229
▁ຫນຸ່ມ	-1230
ສອບ	-1231
ສູນ	-1232
ລະຫວ່າງ	-1233
ີບ	-1234
ອັນ	-1235
້ຽມ	-1236
▁ດັ່ງນັ້ນ	-1237
ເລີ່ມ	-1238
ພຽງແຕ່	-1239
ສໍາຄັນ	-1240
ອີ	-1241
ເລັດ	-1242
ສື	-1243
ຫົວ	-1244
ຫວຽດນາມ	-1245
ob	-1246
ເວົ້າ	-1247
ະນຸ	-1248
່ວາ	-1249
▁ເພື່ອນ	-1250
▁14	-1251
▁ຈໍານວນ	-1252
ອຸປະກອນ	-1253
80	-1254
11	-1255
▁ພ້ອມ	-1256
ມະ	-1257
ອັດ	-1258
ບຄຸມ	-1259
▁ກາຍ	-1260
ັບສະຫນ	-1261
age	-1262
▁ຕອບ	-1263
ຈໍານວນ	-1264
ນີ	-1265
▁#	-1266
▁and	-1267
▁50	-1268
ເຊັ່ນ	-1269
ຈ້ງ	-1270
ຊິກ	-1271
ຫຍັງ	-1272
▁17	-1273
▁ຈຸດ	-1274
ໂຕ	-1275
ຫຼາດ	-1276
are	-1277
▁ດົນ	-1278
ທະຍາໄລ	-1279
ລີ	-1280
ລະດັບ	-1281
lect	-1282
60	-1283
ສຽງ	-1284
ລະອຽດ	-1285
ຣີ	-1286
ຫຍາຍ	-1287
act	-1288
ສຸກ	-1289
ແຫ່ງ	-1290
ບົດ	-1291
ເຊື່ອມ	-1292
▁ອຸປະກອນ	-1293
▁r	-1294
ັບສະຫນູນ	-1295
ຕອບ	-1296
ອກະ	-1297
▁ຍິນ	-1298
ຕ່າງໆ	-1299
▁ຊອບ	-1300
▁ສຶກ	-1301
▁ພະຍາຍາມ	-1302
ຫນາ	-1303
▁ສັງ	-1304
▁Re	-1305
▁ລະບ	-1306
▁ທັນ	-1307
ຢືນ	-1308
ລອງ	-1309
ແນວ	-1310
▁ອີເມ	-1311
ອົບ	-1312
ັບປ	-1313
▁ຍາ	-1314
▁ຄ່າ	-1315
ກໍາລັງ	-1316
▁ຍົກ	-1317
▁ຟັງ	-1318
▁ສົນ	-1319
ai	-1320
▁ຫນາ	-1321
ach	-1322
99	-1323
bo	-1324
▁ແຮງ	-1325
iv	-1326
ພົບ	-1327
ຫ້ອງ	-1328
ິວ	-1329
ell	-1330
ກັດ	-1331
ລົງທຶນ	-1332
ຕະລ	-1333
່າມ	-1334
ຫມາະ	-1335
ນ໌ໂຫລດ	-1336
▁ລັດ	-1337
ທີ່ທ່ານ	-1338
ໂອ	-1339
ສະດ	-1340
ລັດຖະ	-1341
ຈີນ	-1342
▁No	-1343
▁ພົບ	-1344
ຮັກສາ	-1345
▁2016	-1346
ຂື້ນ	-1347
▁ສາດສະຫນາ	-1348
per	-1349
▁ພາຍ	-1350
ແມ່	-1351
="	-1352
ກະຕິ	-1353
ເສດຖະກິດ	-1354
ຫາກ	-1355
12	-1356
ish	-1357
ບັບ	-1358
▁En	-1359
▁ກໍ່	-1360
▁ສາມ	-1361
ແຕກຕ່າງ	-1362
ລວມ	-1363
ສາມ	-1364
uro	-1365
ຸນາ	-1366
ກ່ຽວ	-1367
ive	-1368
ຄວ້າ	-1369
ord	-1370
ບ່ງ	-1371
ຶງ	-1372
▁ເລີຍ	-1373
40	-1374
ຢາ	-1375
ເຮົ	-1376
ໍ້າ	-1377
▁ສິດ	-1378
▁ສິນ	-1379
▁ໄມ້	-1380
ສົງ	-1381
ມາຊິກ	-1382
▁ດາວນ໌ໂຫລດ	-1383
ຈຸດ	-1384
▁ກິດ	-1385
▁ທົ່ວ	-1386
▁£	-1387
ຖ້າ	-1388
▁ແຕ່ງ	-1389
ປະສົບ	-1390
ສິ	-1391
▁Al	-1392
▁Cas	-1393
ວກັນ	-1394
ດໍາເນີນ	-1395
ເຫດ	-1396
▁ເປີດ	-1397
ຖົງ	-1398
ອີກ	-1399
45	-1400
ຽວກັນ	-1401
ຄຸນນະພາບ	-1402
ສາກ	-1403
ອຸດສາຫະກໍາ	-1404
ເມື່ອ	-1405
▁ສະພາບ	-1406
ຈ່າຍ	-1407
▁ມະນຸດ	-1408
pl	-1409
▁ແລ	-1410
່ນອນ	-1411
ແຫນ	-1412
ແກ້ໄຂ	-1413
ເປີດ	-1414
ຄວບຄຸມ	-1415
▁ອາທິດ	-1416
ຮງງານຜະລິດ	-1417
old	-1418
ກ່ອນ	-1419
oh	-1420
ວາ	-1421
▁ນີ	-1422
1,	-1423
ກ່ວາ	-1424
ບູນ	-1425
▁ສະຫນ	-1426
ຄົ້ນຄວ້າ	-1427
ປະຊາຊົນ	-1428
ທ໌	-1429
ສະຫ	-1430
ຄວນ	-1431
ສະຫມ	-1432
ເວັນ	-1433
ຕອງ	-1434
▁ສຽງ	-1435
▁ຫລັງ	-1436
▁ໂຕ	-1437
▁ສຸກ	-1438
ທີ່ບໍ່	-1439
ເວັບໄຊ	-1440
ino	-1441
ດັນ	-1442
▁ມັກ	-1443
▁ລະຫັດ	-1444
ກວ	-1445
ໄຟຟ້າ	-1446
້ອງກັນ	-1447
▁ຄັ້ງ	-1448
ເຄື່ອນ	-1449
ook	-1450
▁Pl	-1451
ົ່ານັ້ນ	-1452
ບ່ອນ	-1453
ໄດ້ຖືກ	-1454
her	-1455
ວິທີການ	-1456
ປົວ	-1457
ຕູ	-1458
ລັກ	-1459
▁ລາຄາ	-1460
ass	-1461
ລູກຄ້າ	-1462
▁ປະຕິບັດ	-1463
ເຂົ້າຮ່ວມ	-1464
ey	-1465
oun	-1466
35	-1467
oc	-1468
ນາງ	-1469
່າງກາຍ	-1470
▁ອີເມລ໌	-1471
ຮູ້ສຶກ	-1472
▁ຖື	-1473
ທະຍາສາດ	-1474
ຄັ້ງ	-1475
SO	-1476
let	-1477
ຸ່ງ	-1478
ໃຕ້	-1479
▁ຄູ່	-1480
▁ເບ	-1481
▁ອື່ນໆ	-1482
▁ເຫລົ່າ	-1483
ຸກຄົນ	-1484
▁re	-1485
▁USD	-1486
▁ຍິງ	-1487
▁ລໍາ	-1488
ເຜ	-1489
ຂີ້ຝຸ່ນ	-1490
ash	-1491
▁ຊອກ	-1492
ໍານາດ	-1493
ການຄ້າ	-1494
ຂະຫຍາຍ	-1495
ແທນ	-1496
▁ຫມູ່	-1497
▁ສະນັ້ນ	-1498
▁k	-1499
ທຶກ	-1500
15	-1501
ew	-1502
ຫມີ	-1503
ຮ້ອນ	-1504
ພະລັງງານ	-1505
▁ຖານ	-1506
▁Prin	-1507
▁ເຕັມ	-1508
▁ຍອມ	-1509
ິ່ນປົວ	-1510
▁ຂຽນ	-1511
▁ໂຮງ	-1512
ction	-1513
ເວລາທີ່	-1514
ug	-1515
ບິນ	-1516
ອດໄພ	-1517
▁Col	-1518
▁22	-1519
ລາຄາ	-1520
ະນຸຍາດ	-1521
ຈັດຕັ້ງ	-1522
ເລກ	-1523
ໄມ້	-1524
ຂ່າວ	-1525
▁ລວມ	-1526
▁ສານ	-1527
ພື້ນຖານ	-1528
▁e	-1529
ແພ	-1530
▁ຕົກ	-1531
▁ອະທິ	-1532
▁ເກມ	-1533
ັບປຸງ	-1534
ຊອບ	-1535
ran	-1536
ສູ່	-1537
▁ປະສົບ	-1538
▁ຜູ້ຄົນ	-1539
ຂ້ອງ	-1540
ກະທົບ	-1541
ສອນ	-1542
້ຍ	-1543
ail	-1544
ແທ້	-1545
▁ຕົວຢ່າງ	-1546
ile	-1547
ະນາຄ	-1548
ອາດຈະ	-1549
ເລື່ອງ	-1550
ເດັກ	-1551
▁Mark	-1552
ຸ້ງ	-1553
ຊອກ	-1554
ໄວ້	-1555
▁ປະກາດ	-1556
ວະ	-1557
▁©	-1558
ົ່ມ	-1559
▁ໂສ	-1560
ສົ່ງອອກ	-1561
ຊື້	-1562
ເຫລ	-1563
ik	-1564
▁40	-1565
▁ວັດ	-1566
-5	-1567
ສາຫະກິດ	-1568
▁ກຸ່ມ	-1569
yl	-1570
▁ໂລ	-1571
,000	-1572
ອນໄລ	-1573
ເດືອນ	-1574
▁ລະບົບ	-1575
ການຜະລິດ	-1576
IN	-1577
▁j	-1578
ite	-1579
ກອນ	-1580
ທັບ	-1581
ງ່າຍ	-1582
▁ລ້ານ	-1583
▁ລິຂະສິດ	-1584
ຊີບ	-1585
ມົນ	-1586
ແຂງ	-1587
▁Sp	-1588
▁ເຈັບ	-1589
▁ເຫລືອ	-1590
▁ບໍລິສັດ	-1591
ອະ	-1592
dro	-1593
ກວດ	-1594
ພູມ	-1595
ຕະຫຼາດ	-1596
ເຮົາມີ	-1597
ud	-1598
ເງ	-1599
ະລັດ	-1600
ັກງານ	-1601
▁ຫວັງ	-1602
ei	-1603
ina	-1604
ost	-1605
▁ໂມ	-1606
▁Ser	-1607
▁ສະເ	-1608
▁ງ່າຍ	-1609
ບໍ່ໄດ້	-1610
ຮ່	-1611
25	-1612
ນິ	-1613
ເມລິ	-1614
▁ພື້ນ	-1615
19	-1616
▁»	-1617
ີນທາງ	-1618
▁ຍາກ	-1619
ຕະຖານ	-1620
ສາກົນ	-1621
▁ຕັດສິນ	-1622
ສະເຫນີ	-1623
ສະພາ	-1624
ແນະນໍາ	-1625
ຝຶກ	-1626
▁ຜ້າ	-1627
ເຕັກໂນໂລ	-1628
ເຫຼົ່ານີ້	-1629
▁Ar	-1630
▁Un	-1631
end	-1632
▁of	-1633
າງວັນ	-1634
ທັນ	-1635
▁Man	-1636
.3	-1637
▁y	-1638
ຢັນ	-1639
ພາຍໃນ	-1640
▁ຍິ່ງ	-1641
ປະໂຫຍດ	-1642
ff	-1643
ຄະເນ	-1644
▁ແດງ	-1645
ໂດ	-1646
່າມັນ	-1647
ິລາ	-1648
▁Fl	-1649
▁by	-1650
ເຕີມ	-1651
▁ອ່ານ	-1652
▁Dust	-1653
ອນໄລນ໌	-1654
▁ຫນັງ	-1655
ໂຍບາຍ	-1656
▁ລ້ຽງ	-1657
cm	-1658
ປັດ	-1659
▁ປະຊຸມ	-1660
▁ສະຖານ	-1661
ກ່ຽວຂ້ອງ	-1662
▁ປາ	-1663
▁ສົງ	-1664
ແຕກຕ່າງກັນ	-1665
ທີ່ເປັນ	-1666
ps	-1667
ແລ	-1668
....	-1669
▁ຍີ່	-1670
▁ແຜນ	-1671
ມີການ	-1672
ເສັ້ນ	-1673
▁Euro	-1674
ດຽວກັນ	-1675
ມື້ນ	-1676
ຫວັດ	-1677
▁Hack	-1678
ລຸ	-1679
ຊານ	-1680
ເຫຼືອ	-1681
▁ຢ້ານ	-1682
▁ແລະອື່ນໆ	-1683
ຕົວຢ່າງ	-1684
75	-1685
16	-1686
ລົມ	-1687
▁ສັນຍາ	-1688
▁ອັດ	-1689
▁Con	-1690
ສະພາບ	-1691
able	-1692
▁ຂະນະ	-1693
ແຕ່ງ	-1694
ປະກັນ	-1695
ຈາລະ	-1696
▁ສູນ	-1697
ັ່ນຕອງ	-1698
ສິດທິພາບ	-1699
ne	-1700
ick	-1701
ວັນທີ	-1702
▁ອຸ	-1703
ປອດໄພ	-1704
ກ່ຽວກັບການ	-1705
▁Te	-1706
▁ໄພ	-1707
▁ບັນຫາ	-1708
ows	-1709
ຍົກ	-1710
▁ພອນ	-1711
▁ຫລວງ	-1712
▁Cl	-1713
ator	-1714
▁ຍ້ອນ	-1715
▁ພວກເຂົາ	-1716
ະນິດ	-1717
▁ຖາມ	-1718
▁ແທນ	-1719
attoos	-1720
ແລະຄວາມ	-1721
ຮມ	-1722
ຕົກ	-1723
▁ທິ	-1724
▁ແຍ	-1725
ຄະນະ	-1726
ັ້ງຢືນ	-1727
ເມລິກາ	-1728
13	-1729
ແກ່	-1730
▁ຫນັກ	-1731
ທົ່ວໄປ	-1732
ຫນົນ	-1733
ຄາດຄະເນ	-1734
▁ຄັນ	-1735
ຕ້ານ	-1736
▁ເສົ້າ	-1737
▁ຕ້ອງການ	-1738
▁ພີ	-1739
ຮົມ	-1740
ໍານົດ	-1741
ຂໍ	-1742
ດານ	-1743
ເກດ	-1744
▁Com	-1745
▁Europe	-1746
▁ຂຶ້ນຄື	-1747
iang	-1748
ສະເພາະ	-1749
▁i	-1750
ຄູ່	-1751
ເສີມ	-1752
▁ຊຸດ	-1753
ຮ່ວມມື	-1754
າວິ	-1755
່ອງທ	-1756
ໂອກາດ	-1757
ph	-1758
ໂປ	-1759
▁<	-1760
▁ຈິດ	-1761
ແສງ	-1762
▁60	-1763
ຮູບແບບ	-1764
ກອງປະຊຸມ	-1765
▁ນີ້ແມ່ນ	-1766
ທີ່ມີຄວາມ	-1767
ຢາກ	-1768
ກັ່ນຕອງ	-1769
▁ຂອບ	-1770
ໄຫວ	-1771
ຂ້າງ	-1772
.6	-1773
ure	-1774
ຢາມ	-1775
ets	-1776
ທົນ	-1777
ຮອງ	-1778
ss	-1779
ືດ	-1780
our	-1781
▁Ph	-1782
ຫນືອ	-1783
ສັງຄົມ	-1784
▁ISO	-1785
ຕໍ່ໄປ	-1786
້ຽມຢາມ	-1787
ram	-1788
ໃຊ້ເວລາ	-1789
່ໍາ	-1790
▁sp	-1791
ພາສາ	-1792
ບັນຫາ	-1793
▁Wind	-1794
ຕິດຕໍ່	-1795
ທົດລອງ	-1796
ວ່າທ່ານ	-1797
ີໂອ	-1798
▁ໃບ	-1799
▁ຖົງ	-1800
ປະມານ	-1801
▁2020	-1802
ພະນ	-1803
▁ກິນ	-1804
▁ວາງ	-1805
-0	-1806
▁•	-1807
ອື່ນ	-1808
▁00	-1809
ER	-1810
ມາດ	-1811
▁2015	-1812
ert	-1813
ົ້ມ	-1814
ao	-1815
ູ້ນ	-1816
ຫລອດ	-1817
▁ໃກ້	-1818
▁ຮ້ອງ	-1819
ທີ່ດີທີ່ສຸດ	-1820
ກໍານົດ	-1821
ັດທະນະ	-1822
▁Ex	-1823
ໍາມະຊາດ	-1824
ັງຈາກນັ້ນ	-1825
ສໍາເລັດ	-1826
▁ທີ່ຜ່ານມາ	-1827
ov	-1828
ພັກ	-1829
▁The	-1830
▁ລົມ	-1831
▁ເຂດ	-1832
ຈາລະນາ	-1833
ຢັ້ງຢືນ	-1834
ww	-1835
▁ເພາະວ່າ	-1836
ens	-1837
ຂອບ	-1838
▁Printer	-1839
▁a	-1840
່ອງທ່ຽວ	-1841
▁ອໍານາດ	-1842
▁ຮູບພາບ	-1843
ຂຽນ	-1844
ຍາວ	-1845
້ອງຖ	-1846
▁ຫນ້ອຍ	-1847
ອົບຮົມ	-1848
ຮູບພາບ	-1849
ໃຫ້ເຫັນ	-1850
▁ວິທີການ	-1851
ເລີ່ມຕົ້ນ	-1852
ຈັນ	-1853
ໂຮງ	-1854
ຫລາດ	-1855
▁ສິງ	-1856
ຂົນ	-1857
▁''	-1858
▁ມູນ	-1859
ກວ້າງ	-1860
ge	-1861
ld	-1862
ຂາວ	-1863
▁ສູ່	-1864
ມື້ນີ້	-1865
▁ຕໍ່ໄປ	-1866
pp	-1867
ຊວງ	-1868
ປາ	-1869
▁Ste	-1870
▁ສາວ	-1871
▁ແທ້ໆ	-1872
▁ຫມັ້ນ	-1873
ສະຖານທີ່	-1874
▁to	-1875
olog	-1876
▁ດາວໂຫລດ	-1877
▁ອຸດສາຫະກໍາ	-1878
ree	-1879
ຜ່ອນ	-1880
▁ເທິງ	-1881
ຄວາມຄິດ	-1882
-8	-1883
ting	-1884
▁ລັກ	-1885
▁ອາຍຸ	-1886
ການປ່ຽນ	-1887
ປະສົບການ	-1888
ໃບ	-1889
ານາ	-1890
▁23	-1891
ເຫຼັກ	-1892
▁ຝ່າຍ	-1893
▁ເຊີນ	-1894
ວ່າມັນ	-1895
ຝຶກອົບຮົມ	-1896
70	-1897
ED	-1898
lector	-1899
ial	-1900
ແຜນ	-1901
▁86	-1902
▁ອ້າຍ	-1903
▁ໄລຍະ	-1904
ຫໍ້	-1905
▁ແຂງ	-1906
ພິເສດ	-1907
ແຍ	-1908
▁ຄາດ	-1909
ພະຍາຍາມ	-1910
ກົງ	-1911
ຊາວ	-1912
ຕໍ	-1913
ເຟ	-1914
ຫຸ້ມ	-1915
▁Se	-1916
ຂັ້ນ	-1917
ລ້ອມ	-1918
▁ອາຫານ	-1919
▁°	-1920
▁21	-1921
ສະຫນັບສະຫນູນ	-1922
Ch	-1923
ax	-1924
ສັກ	-1925
▁ຢືນ	-1926
-3	-1927
ix	-1928
ງາມ	-1929
▁ຊາດ	-1930
ໂນມັດ	-1931
ox	-1932
uang	-1933
ເພີ່ມເຕີມ	-1934
ock	-1935
▁ຢາ	-1936
▁Min	-1937
90	-1938
▁ຮັກສາ	-1939
ດັ່ງກ່າວ	-1940
▁ອິນ	-1941
▁ປ້ອງ	-1942
ເຄື່ອນໄຫວ	-1943
▁De	-1944
▁ຂ້າງ	-1945
ຂອງຕົນ	-1946
▁ສະມາຊິກ	-1947
ຂອງພວກເຂົາ	-1948
ໄຫມ	-1949
▁ບາບ	-1950
▁Vess	-1951
ສະຫມັກ	-1952
ປົກກະຕິ	-1953
▁ຖະຫນົນ	-1954
▁ໄດ້ຮັບ	-1955
▁Vessoft	-1956
ວິທະຍາສາດ	-1957
ໍລະ	-1958
lock	-1959
ມືຖື	-1960
▁ດິນ	-1961
▁x	-1962
ອະນຸຍາດ	-1963
.4	-1964
▁ງາມ	-1965
▁ຂັ້ນ	-1966
ru	-1967
ງົບ	-1968
▁ພາສາ	-1969
▁ເສດ	-1970
ສົມບູນ	-1971
▁~	-1972
ເຄາະ	-1973
ຕະໂນມັດ	-1974
▁ເນື່ອງ	-1975
ຸຂະ	-1976
▁ແຫນ	-1977
ເຊື່ອມຕໍ່	-1978
de	-1979
ໂລຫະ	-1980
▁ກາງ	-1981
▁ອົດ	-1982
▁ເພດ	-1983
ກໍ່ສ້າງ	-1984
ore	-1985
ແວດ	-1986
▁ດູ	-1987
▁ເຍ	-1988
▁Sup	-1989
▁the	-1990
ຫະພູມ	-1991
ເວັບໄຊທ໌	-1992
ower	-1993
ທ້າຍ	-1994
▁ຢ່າ	-1995
▁ຄະນະ	-1996
uf	-1997
ບວນ	-1998
▁qu	-1999
ຫນັງ	-2000
ທ່ອງທ່ຽວ	-2001
24	-2002
ຫາຍ	-2003
▁ແປງ	-2004
່ຽວຊານ	-2005
ແວດລ້ອມ	-2006
ຜົນກະທົບ	-2007
▁ໂຮງງານຜະລິດ	-2008
ຄືກ	-2009
ພາດ	-2010
ical	-2011
ແຜ່ນ	-2012
ປະທານ	-2013
ຸນຫະພູມ	-2014
▁ຮູ້ຈັກ	-2015
ັດທະນະທໍາ	-2016
▁ນ້ໍາຫນັກ	-2017
900	-2018
rad	-2019
▁ch	-2020
ສັນຍາ	-2021
▁(1	-2022
ອົງການ	-2023
▁ເຫຼົ່າ	-2024
▁Windows	-2025
AN	-2026
200	-2027
iss	-2028
ະລຸນາ	-2029
ຂອງຂ້ອຍ	-2030
ພິວ	-2031
ທີ່ຖືກ	-2032
▁ທ່ານສາມາດ	-2033
ເທິງ	-2034
▁ໂສກ	-2035
ຊອກຫາ	-2036
ຫມັ້ນ	-2037
ຂັນ	-2038
ແຈ້ງ	-2039
▁ແສງ	-2040
ໍາລາຍ	-2041
ື່ອນໄຂ	-2042
ທົ່ວໂລກ	-2043
▁Collector	-2044
▁ຕີ	-2045
▁ຄົ້ນ	-2046
ໄກ	-2047
icro	-2048
ເອກະ	-2049
ວ່າຈະ	-2050
ber	-2051
▁de	-2052
ກັບການ	-2053
▁ແນ່ນອນ	-2054
ທີ່ກ່ຽວຂ້ອງ	-2055
▁ຊົມ	-2056
ເຮືອນ	-2057
▁2014	-2058
ຜິດຊອບ	-2059
▁ປະທານ	-2060
▁ຂໍ້ມູນ	-2061
▁ແນະນໍາ	-2062
ຫມາະສົມ	-2063
ຄວາມເປັນ	-2064
▁ຄວາມຄິດ	-2065
້ວນ	-2066
▁ປວດ	-2067
▁ການປ	-2068
du	-2069
ice	-2070
ire	-2071
▁ອ່ອນ	-2072
▁ເອື້ອຍ	-2073
ທີ່ແຕກຕ່າງກັນ	-2074
23	-2075
ດູ	-2076
ືອດ	-2077
▁ຄາ	-2078
aser	-2079
ໃນປີ	-2080
▁Bon	-2081
ສົນໃຈ	-2082
ຈາກການ	-2083
ທາງການ	-2084
ບຸກຄົນ	-2085
ໃຊ້ຈ່າຍ	-2086
ats	-2087
▁Casino	-2088
ນິກ	-2089
▁35	-2090
ທາງດ້ານ	-2091
UR	-2092
ມັກ	-2093
▁ໄສ	-2094
▁ເອີ້ນ	-2095
ປັດຈຸບັນ	-2096
88	-2097
zhou	-2098
ເລັກ	-2099
▁Wor	-2100
ອມພິວ	-2101
ທີ່ຢູ່	-2102
▁ສະຫວັນ	-2103
ການປ່ຽນແປງ	-2104
▁ພໍ	-2105
ອາຍຸ	-2106
droid	-2107
້ອນຮັບ	-2108
ທໍ່	-2109
▁Le	-2110
ມະນຸດ	-2111
ົວພັນ	-2112
້ານີ້	-2113
ຸຂະພາບ	-2114
ນ້	-2115
ບໍ	-2116
▁ດ້ານ	-2117
ຕາເວັນ	-2118
tt	-2119
▁Ad	-2120
ເຂັ້ມ	-2121
▁ຊັ້ນ	-2122
▁ປ່ອຍ	-2123
ທີ່ພວກເຮົາ	-2124
ີດໍາ	-2125
▁ພີ່	-2126
▁ສໍາລັບການ	-2127
.9	-2128
ພໍ	-2129
AC	-2130
oly	-2131
ອິນ	-2132
▁Mc	-2133
▁Koh	-2134
ຫນຸ່ມ	-2135
ແນວໃດ	-2136
uan	-2137
own	-2138
ສະດຸ	-2139
ບັນຊີ	-2140
່ງຂັນ	-2141
ເຊຍ	-2142
▁ຫມາກ	-2143
▁ເຜ	-2144
▁ແພ	-2145
▁ທົດ	-2146
▁ຫຍ	-2147
ood	-2148
▁ຕິດຕໍ່	-2149
ຢາງ	-2150
2018	-2151
ຫຼຸດ	-2152
▁Rong	-2153
ຂະນະ	-2154
▁Val	-2155
ຸ້ມຄອງ	-2156
ໃນໄລຍະ	-2157
ເດີນທາງ	-2158
ແວ	-2159
▁ເຂົາເຈົ້າ	-2160
.00	-2161
ບາດ	-2162
ພົວພັນ	-2163
▁ພະລັງງານ	-2164
▁ລາຍລະອຽດ	-2165
ok	-2166
ຫ້ງ	-2167
▁500	-2168
▁Blu	-2169
▁ສິບ	-2170
▁ນໍ້າ	-2171
ໂທລະສັບ	-2172
▁Android	-2173
28	-2174
kg	-2175
▁ro	-2176
▁ໂອ	-2177
▁Dist	-2178
ຮູ້ວ່າ	-2179
ຊ່ຽວຊານ	-2180
ຊະ	-2181
ich	-2182
ຄົງ	-2183
▁ຄູ	-2184
▁Fil	-2185
▁ສັ່ງ	-2186
ເຂົ້າໃຈ	-2187
ດ່	-2188
ary	-2189
ຫຼັກ	-2190
night	-2191
ufact	-2192
ໂມງ	-2193
line	-2194
ືມ	-2195
ຊັບ	-2196
ກຸ່ມ	-2197
ລະນີ	-2198
▁ຊື້	-2199
▁ກະລຸນາ	-2200
ON	-2201
min	-2202
ອ່ານ	-2203
ປະສົງ	-2204
ສ້າງຕັ້ງ	-2205
ທຽບ	-2206
rict	-2207
ທະນາ	-2208
▁ພັກ	-2209
ອາຊີບ	-2210
▁ແບ່ງ	-2211
ານາຈັກ	-2212
ufactur	-2213
chn	-2214
ເລດ	-2215
ເຄີຍ	-2216
▁ຄອບ	-2217
ຂົນສົ່ງ	-2218
ຜ້າ	-2219
ຂ່າຍ	-2220
▁ນອນ	-2221
ຊຽນ	-2222
ater	-2223
▁ຕະຫລອດ	-2224
▁ວິທະຍາໄລ	-2225
ue	-2226
gle	-2227
ອາຍ	-2228
ຕ່ໍາ	-2229
▁Sol	-2230
▁ຊົນ	-2231
▁ພຶດ	-2232
▁ເຫດຜົນ	-2233
▁ມັນເປັນ	-2234
ປະສິດທິພາບ	-2235
ont	-2236
ized	-2237
▁ນາຍ	-2238
ology	-2239
▁ໃນການ	-2240
ຈໍາເປັນ	-2241
AS	-2242
EC	-2243
ຈິດ	-2244
ອອນໄລນ໌	-2245
ລັດຖະມົນ	-2246
iber	-2247
ຮ້າຍ	-2248
ສິນຄ້າ	-2249
▁ເຂັ້ມ	-2250
ດອນ	-2251
▁ແອ	-2252
▁ພະຍານ	-2253
້ອງຖິ່ນ	-2254
ເຫມາະສົມ	-2255
17	-2256
▁Bl	-2257
ໄປໃນ	-2258
▁ປະຈໍາ	-2259
▁ຜູ້ຜະລິດ	-2260
▁ໃຜ	-2261
▁for	-2262
▁ມອບ	-2263
ແຕ່ລະ	-2264
ແທ້ຈິງ	-2265
ace	-2266
▁Tag	-2267
▁ກະຕ	-2268
▁ຂັດ	-2269
ufacturer	-2270
▁ເດັກນ້ອຍ	-2271
ah	-2272
ບ້ານ	-2273
ເຕັມ	-2274
▁ກະສັດ	-2275
.8	-2276
ບອກ	-2277
ມື້	-2278
▁ເດີນ	-2279
▁ລະຫວ່າງ	-2280
ຫໍ່	-2281
ບັນລຸ	-2282
ເພື່ອໃຫ້	-2283
ium	-2284
▁ດາ	-2285
ated	-2286
▁ບໍ່ມີ	-2287
mer	-2288
ຂວາງ	-2289
▁ຫນູນ	-2290
▁ເກີນ	-2291
ຫນ້ານີ້	-2292
ແມ່ນການ	-2293
ຊຸດ	-2294
ວິຊາ	-2295
ຕະລາງ	-2296
ປະຈໍາ	-2297
▁ແຈ້ງ	-2298
▁Car	-2299
▁ໂຍ	-2300
▁(201	-2301
▁ສະບັບ	-2302
▁ຫລັກ	-2303
▁ຫນ່ວຍ	-2304
14	-2305
18	-2306
▁28	-2307
▁ທົນ	-2308
ັງກອນ	-2309
ຄຸ້ມຄອງ	-2310
▁ຮ່າງກາຍ	-2311
">	-2312
▁For	-2313
▁ສັກ	-2314
▁City	-2315
▁Ning	-2316
ລັກສະນະ	-2317
ບໍ່ສາມາດ	-2318
▁ຊາ	-2319
▁ມິ	-2320
coin	-2321
ຫວັງ	-2322
▁ເທດ	-2323
▁ຄົງ	-2324
▁start	-2325
-6	-2326
33	-2327
▁×	-2328
ube	-2329
▁26	-2330
▁ກາ	-2331
ພ້ອມ	-2332
ສັ່ງ	-2333
ຄອບຄົວ	-2334
▁Che	-2335
▁Bonus	-2336
▁ເຮັດໃຫ້	-2337
ເກມ	-2338
ສະຫຼ	-2339
▁ແຕກ	-2340
.7	-2341
ໃສ	-2342
▁ເກັບ	-2343
ຫວັດສາດ	-2344
ຕ່າງປະເທດ	-2345
▁District	-2346
rom	-2347
າທີ	-2348
▁McK	-2349
▁dur	-2350
ົງເຂດ	-2351
▁Manufacturer	-2352
ຈິ	-2353
▁ຕຸ	-2354
ເຊິ່ງ	-2355
ux	-2356
ຊົມ	-2357
ສະຖ	-2358
ຫຼອດ	-2359
ester	-2360
ຫນ້ອຍ	-2361
ສົມບັດ	-2362
▁ຈໍາເປັນ	-2363
▁ຄວາມຄິດເຫັນ	-2364
ດາຍ	-2365
ສະນາ	-2366
▁ຄົວ	-2367
ຊີ້	-2368
ພົນ	-2369
▁Gr	-2370
ຈໍາກັດ	-2371
ລກປ່ຽນ	-2372
ome	-2373
ິ້ມ	-2374
▁ໂບ	-2375
▁Steel	-2376
▁ຫຼິ້ນ	-2377
ປ່ຽນແປງ	-2378
▁McKnight	-2379
ແຫຼ	-2380
▁Ro	-2381
ຊັ້ນ	-2382
ສ່ຽງ	-2383
ນີ້ແມ່ນ	-2384
ປ້ອງກັນ	-2385
ຂອງເຂົາເຈົ້າ	-2386
rypt	-2387
▁ຈື່	-2388
ຕະລາຍ	-2389
▁ຍ່າງ	-2390
▁ເຊື້ອ	-2391
ບໍ່ແມ່ນ	-2392
rus	-2393
ດຽວ	-2394
ວິນ	-2395
່ອມ	-2396
press	-2397
▁2013	-2398
▁ໂອກາດ	-2399
ແຂ່ງຂັນ	-2400
ຂະຫນາດໃຫຍ່	-2401
arn	-2402
ລັນ	-2403
▁ຈັບ	-2404
ສະບັບ	-2405
▁ທ້າຍ	-2406
▁ເອກະ	-2407
ບວນການ	-2408
ຮຽນຮູ້	-2409
af	-2410
ank	-2411
ລະປະ	-2412
ເຕີບ	-2413
▁Equ	-2414
▁ແດ່	-2415
▁ເວັບໄຊ	-2416
az	-2417
lot	-2418
ວຽນ	-2419
ເວລ	-2420
ັງກິດ	-2421
ເພື່ອນ	-2422
▁ຖ້າຫາກ	-2423
io	-2424
ບຽນ	-2425
▁Be	-2426
ທາລະ	-2427
▁ກົງ	-2428
ບັນທຶກ	-2429
ຜູ້ຜະລິດ	-2430
ອາເມລິກາ	-2431
ວີ	-2432
der	-2433
ນາຍ	-2434
ຣົບ	-2435
ບຕໍ່	-2436
ື້ອງ	-2437
ກໍາມະ	-2438
ການສຶກສາ	-2439
▁al	-2440
▁sh	-2441
▁th	-2442
ນເລດ	-2443
ອີເມ	-2444
▁Ningbo	-2445
▁ພັດທະນາ	-2446
ສູດ	-2447
▁un	-2448
▁ຄວ	-2449
ປະຕິ	-2450
▁300	-2451
▁ຕຽມ	-2452
ເທື່ອ	-2453
ຕ້ອນຮັບ	-2454
ຂາ	-2455
ຣິດ	-2456
ໃກ້	-2457
▁You	-2458
ກາຍເປັນ	-2459
▁ໂຄງການ	-2460
ຄວາມສາມາດ	-2461
ຂາດ	-2462
ຫລື	-2463
▁Mach	-2464
ທຸກຄົນ	-2465
ແມ່ນວ່າ	-2466
▁ຄໍາຖາມ	-2467
▁ທໍາລາຍ	-2468
22	-2469
RE	-2470
ign	-2471
▁ໄຂ	-2472
▁ທິດ	-2473
▁ລະດັບ	-2474
▁ພິຈາລະນາ	-2475
ພຶດ	-2476
▁ເງ	-2477
ູ້ນໍາ	-2478
ະນາຄົດ	-2479
ຮັບປະກັນ	-2480
▁ໍາ	-2481
ebei	-2482
ລ້ຽງ	-2483
oogle	-2484
▁ເລັດ	-2485
ກົດດັນ	-2486
ທົດສອບ	-2487
ສູງສຸດ	-2488
▁ພວກເຮົາມີ	-2489
ເມີ	-2490
ຈະກໍາ	-2491
▁ຄວາມສຸກ	-2492
ມິດ	-2493
▁ໄກ	-2494
ສິໂນ	-2495
▁Sam	-2496
ຕັດສິນ	-2497
▁ຍີ່ຫໍ້	-2498
ual	-2499
ວົງ	-2500
▁70	-2501
ແບ່ງ	-2502
▁ລໍ້	-2503
ເຊື້ອ	-2504
▁hack	-2505
▁ຫຼັງ	-2506
ຂົງເຂດ	-2507
▁ສີດໍາ	-2508
▁ດໍາ	-2509
▁ນວນ	-2510
ຸ້ງຍາກ	-2511
ຫຸ້ມຫໍ່	-2512
ons	-2513
ສິກ	-2514
ການພັດທະນາ	-2515
cl	-2516
ທັດ	-2517
ນະຄອນ	-2518
ໃຫ້ທ່ານ	-2519
:/	-2520
ລະຫັດ	-2521
ຕິດຕັ້ງ	-2522
ພື້ນທີ່	-2523
ລິຂະສິດ	-2524
▁ທັງຫມົດ	-2525
enc	-2526
load	-2527
ຂີ້ເ	-2528
▁Top	-2529
▁ກະທໍາ	-2530
ວິສາຫະກິດ	-2531
ຄວາມຕ້ອງການ	-2532
ລັງ	-2533
ຕົ້ນຕໍ	-2534
ລັດຖະບານ	-2535
ຊ່ວຍເຫຼືອ	-2536
ດິດ	-2537
ອີງ	-2538
ຶ້ມ	-2539
ຫຼວງ	-2540
▁Micro	-2541
▁Filter	-2542
ເຂັ້ມແຂງ	-2543
man	-2544
ຍູ້	-2545
▁ຊີ້	-2546
▁ຟຣີ	-2547
ໍາລົງ	-2548
ໃຫ້ແກ່	-2549
ee	-2550
://	-2551
ຈິກ	-2552
ring	-2553
ກິລາ	-2554
ະການ	-2555
▁ທໍ່	-2556
▁East	-2557
ນະໂຍບາຍ	-2558
▁ປົກຄອງ	-2559
▁ຂອງທ່ານ	-2560
ເຕັກໂນໂລຊີ	-2561
▁=	-2562
ຈຶ່ງ	-2563
ເອີ້ນ	-2564
ຊຸມຊົນ	-2565
ຕອນນີ້	-2566
ຂະນະທີ່	-2567
ລັດຖະມົນຕີ	-2568
ລັ	-2569
ໍາລະ	-2570
▁ຊື່ນ	-2571
ລັນດອນ	-2572
▁World	-2573
ບໍລິຫານ	-2574
▁ສະຫນັບສະຫນູນ	-2575
ຣກ	-2576
▁ຍຸ	-2577
▁ຂາຍ	-2578
▁ຈ່າຍ	-2579
▁ສິ້ນ	-2580
ຂອງຜູ້	-2581
▁ທີ່ມີ	-2582
ແລກປ່ຽນ	-2583
▁ປະໂຫຍດ	-2584
ST	-2585
ຍົມ	-2586
▁27	-2587
▁PC	-2588
▁ຍາມ	-2589
▁ວັນທີ	-2590
ເດັກນ້ອຍ	-2591
ດົນ	-2592
ື້ມ	-2593
ແພດ	-2594
▁1,	-2595
ຸດທະ	-2596
▁Mar	-2597
▁New	-2598
▁Main	-2599
▁ສິງຫາ	-2600
ົ້າຫມາຍ	-2601
ຂອງຂ້າພະເຈົ້າ	-2602
amp	-2603
ຂັບ	-2604
ຄານ	-2605
ຈອນ	-2606
ີຣົບ	-2607
ື້ອຍໆ	-2608
2)	-2609
ໂພ	-2610
▁Air	-2611
▁ຂັບ	-2612
▁ເພງ	-2613
▁ມັງກອນ	-2614
-4	-2615
ble	-2616
ດູດ	-2617
ທວນ	-2618
ນອກ	-2619
▁Th	-2620
▁ຫຼັກ	-2621
ທີ່ນີ້	-2622
ລາງວັນ	-2623
ທີ່ສໍາຄັນ	-2624
aw	-2625
log	-2626
ປຸ່ນ	-2627
▁ກ້າ	-2628
ອມພິວເຕີ	-2629
ເອກ	-2630
▁Hol	-2631
▁ຕໍາ	-2632
▁ສູ້	-2633
▁ຫ້າ	-2634
ມາຈາກ	-2635
▁Blue	-2636
▁ຕ້ານ	-2637
ຫຼາຍກວ່າ	-2638
sp	-2639
ຸບ	-2640
▁€	-2641
▁on	-2642
ເພາະ	-2643
▁ມີຄວາມ	-2644
ກ່ອນຫນ້ານີ້	-2645
ool	-2646
ອະທິ	-2647
ເງົາ	-2648
ປະສົມ	-2649
ສະອາດ	-2650
ຕິດຕາມ	-2651
ທາລະນະ	-2652
ການປິ່ນປົວ	-2653
▁)	-2654
ron	-2655
ຍົນ	-2656
▁45	-2657
▁AP	-2658
ຍິ່ງ	-2659
▁htt	-2660
▁ເຕີ	-2661
ໂກ	-2662
▁ກຸມ	-2663
ແຕນເລດ	-2664
ເກີດຂື້ນ	-2665
74	-2666
▁Bag	-2667
▁ມານ	-2668
ທະບຽນ	-2669
ໂດຍການ	-2670
▁ແລະການ	-2671
ET	-2672
ຂ້າມ	-2673
▁ສັບ	-2674
▁ພິເສດ	-2675
ຫນຶ່ງໃນ	-2676
▁ທໍາອິດ	-2677
ຊູ	-2678
▁2,	-2679
▁EUR	-2680
▁Ind	-2681
ເຕັ້ນ	-2682
ຽກຮ້ອງ	-2683
chnology	-2684
EM	-2685
▁pro	-2686
▁2011	-2687
ມາດຕະຖານ	-2688
▁ການຄາດຄະເນ	-2689
2,	-2690
ໂຄງ	-2691
▁Sc	-2692
▁ແຈ	-2693
ຄິດວ່າ	-2694
ສັງເກດ	-2695
▁ກົດຫມາຍ	-2696
ຢີ	-2697
▁Bot	-2698
▁ປາດ	-2699
ປັນຍາ	-2700
▁ຫນາດ	-2701
ipment	-2702
ືອຂ່າຍ	-2703
▁ເກົ່າ	-2704
ສະຫະລັດ	-2705
▁ວິນາທີ	-2706
▁ຖືກຕ້ອງ	-2707
▁໌	-2708
ຟຣີ	-2709
China	-2710
ເທົ່າ	-2711
ສູນກາງ	-2712
ທ້ອງຖິ່ນ	-2713
OS	-2714
ເນັດ	-2715
ໂນ້ຍ	-2716
ຫຍື້ອ	-2717
່າໂນ້ຍ	-2718
▁ເຈົ້າຈະ	-2719
ອັດຕະໂນມັດ	-2720
▁Hy	-2721
▁XL	-2722
ຫມືອນ	-2723
▁ປະກອບ	-2724
▁ແຫນ້ນ	-2725
ອາກາດໃນ	-2726
ອານາຈັກ	-2727
AR	-2728
ult	-2729
▁ກຽດ	-2730
▁ລູກໆ	-2731
ຜູ້ທີ່	-2732
fo	-2733
irt	-2734
org	-2735
▁ແຄ	-2736
▁ໃຕ້	-2737
▁quot	-2738
▁ຫນັບ	-2739
ຈະເປັນ	-2740
ທົບທວນ	-2741
ໂຄສະນາ	-2742
ເອກະສານ	-2743
ແຫ່ງຊາດ	-2744
AT	-2745
ແອ	-2746
han	-2747
uit	-2748
▁et	-2749
ເຊີນ	-2750
▁ຝູງ	-2751
ລາຍງານ	-2752
▁Prote	-2753
▁Valve	-2754
ຢ້ຽມຢາມ	-2755
ຟ້າອາກາດ	-2756
int	-2757
ith	-2758
ກ້າວ	-2759
▁ສີ່	-2760
▁ກ້າວ	-2761
ຕັ້ງແຕ່	-2762
ຄວາມຮ້ອນ	-2763
21	-2764
ork	-2765
ຄາມ	-2766
▁CN	-2767
▁ໂຈ	-2768
less	-2769
ຊະນະ	-2770
ຖຸນາ	-2771
▁ອໍາ	-2772
ບາງຢ່າງ	-2773
▁GB	-2774
itcoin	-2775
ຈັດການ	-2776
▁ສໍາເລັດ	-2777
▁ປະເພດທຸລະກິດ	-2778
36	-2779
ສູ້	-2780
ເດຍ	-2781
▁ສື	-2782
ware	-2783
ຊໍາລະ	-2784
ບັນຈຸ	-2785
▁ຕື່ມ	-2786
▁ສັງຄົມ	-2787
▁ອະທິຖານ	-2788
▁Equipment	-2789
ດິນຟ້າອາກາດ	-2790
▁ຜູ້ສົ່ງອອກ	-2791
77	-2792
AL	-2793
AM	-2794
▁ຣ	-2795
ins	-2796
ງວນ	-2797
ດາວ	-2798
▁Bo	-2799
▁ໃສ	-2800
ຶກສາ	-2801
▁ແກ້	-2802
arter	-2803
▁ເຮືອ	-2804
▁ສີຂາວ	-2805
ຮ່າງກາຍ	-2806
ັສ	-2807
ase	-2808
ູ່ນ	-2809
▁29	-2810
▁ອາຊຽນ	-2811
▁ເກືອບ	-2812
ຖືກຕ້ອງ	-2813
cc	-2814
ຊກ	-2815
ຫລັງ	-2816
▁Pre	-2817
jiang	-2818
ແມ່ຍິງ	-2819
▁Power	-2820
ເຕີເນັດ	-2821
oll	-2822
ທາດ	-2823
▁ad	-2824
ount	-2825
▁ຫນັງສື	-2826
ວາງສະແດງ	-2827
55	-2828
▁Wh	-2829
ຫາວິ	-2830
▁ພິມ	-2831
ື່ສານ	-2832
▁1000	-2833
▁ບັນທຶກ	-2834
ene	-2835
ລົບ	-2836
abric	-2837
▁ແຕ່ລະ	-2838
▁CO	-2839
ໃຈໃສ່	-2840
▁Free	-2841
ງ່	-2842
wit	-2843
ິຈິ	-2844
▁mm	-2845
▁sc	-2846
ຫຼວດ	-2847
▁ສຶກສາ	-2848
DF	-2849
▁90	-2850
▁ໂດ	-2851
ລິມານ	-2852
▁ກັນຍາ	-2853
▁ເຫມາະ	-2854
▁ເສັ້ນທາງ	-2855
26	-2856
ຄ້າຍ	-2857
ບັນດ	-2858
້ວາງ	-2859
▁ປັດ	-2860
▁ອ້ອມ	-2861
▁ບັນຊີ	-2862
▁ເຕັ້ນ	-2863
▁ພຶດສະພາ	-2864
ຈານ	-2865
ຍິນ	-2866
ຜ່າ	-2867
▁1.	-2868
▁150	-2869
ລະກົດ	-2870
ເນື່ອງ	-2871
ສຸຂະພາບ	-2872
ເຂົ້າໄປໃນ	-2873
IC	-2874
VC	-2875
tern	-2876
▁ຊັບ	-2877
▁ຊຸມ	-2878
ສະດວກ	-2879
ະນາຄານ	-2880
▁ພະລັງ	-2881
ງ່າຍດາຍ	-2882
29	-2883
pli	-2884
ype	-2885
ສະຕ	-2886
otor	-2887
ເຜີຍ	-2888
▁ທ້າ	-2889
ເນື້ອ	-2890
ວັດທະນະທໍາ	-2891
port	-2892
ຜູ້ຊາຍ	-2893
▁ທະຫານ	-2894
ຫຼາຍກ່ວາ	-2895
ເຄື່ອງມື	-2896
ຍອມ	-2897
ຮອດ	-2898
ແຂວງ	-2899
▁ທາຍ	-2900
▁ຮອດ	-2901
ລາຍການ	-2902
ຮັບຜິດຊອບ	-2903
ake	-2904
ifi	-2905
ເລີດ	-2906
▁ແນ່	-2907
▁ພັນທະ	-2908
▁ເຫມືອນ	-2909
ous	-2910
ທາຍ	-2911
atch	-2912
iron	-2913
▁ກົວ	-2914
▁ຫນີ	-2915
▁ໂຍນ	-2916
▁ນັ່ງ	-2917
▁ໃນປີ	-2918
ເຕີບໂຕ	-2919
▁ຍິນດີ	-2920
ຄ່າໃຊ້ຈ່າຍ	-2921
ປັບ	-2922
▁LT	-2923
ຖ່າຍ	-2924
▁Env	-2925
▁ຂີ້	-2926
▁ທັບ	-2927
ຂອງພຣະ	-2928
▁Black	-2929
ຸດທະສາດ	-2930
▁Series	-2931
▁ຖ້າທ່ານ	-2932
ຄວາມປອດໄພ	-2933
GH	-2934
ulse	-2935
▁ຫວ່າງ	-2936
ຂ່າວສານ	-2937
ມືອາຊີບ	-2938
▁ລວມທັງ	-2939
ກວ້າງຂວາງ	-2940
▁ອຸປະກອນການ	-2941
ສະແດງໃຫ້ເຫັນ	-2942
gl	-2943
ພີ	-2944
▁80	-2945
▁As	-2946
▁pl	-2947
▁ຊະ	-2948
ປະຕູ	-2949
▁ມືດ	-2950
ພະຍາດ	-2951
▁ປຶ້ມ	-2952
ຂີ້ເຫຍື້ອ	-2953
ipp	-2954
ຄັບ	-2955
ສຸມ	-2956
▁ex	-2957
▁ຂາດ	-2958
▁ບາດ	-2959
▁ລັດຖະ	-2960
ສົນທະນາ	-2961
ທາງເລືອກ	-2962
▁ຊົ່ວໂມງ	-2963
ຊໍາລະເງິນ	-2964
▁ນິລັນດອນ	-2965
ຕິກ	-2966
ອັບ	-2967
ເຈນ	-2968
ເຫນືອ	-2969
▁Inst	-2970
ປະຈຸບັນ	-2971
ພະນັກງານ	-2972
▁ລັກສະນະ	-2973
app	-2974
▁Shen	-2975
▁ພິທີ	-2976
mental	-2977
ແນ່ນອນ	-2978
▁ສໍາພັນ	-2979
ການເຄື່ອນໄຫວ	-2980
ero	-2981
▁ຄະ	-2982
▁LED	-2983
▁Lin	-2984
ຂອງລາວ	-2985
▁ປະຊາຊົນ	-2986
▁ທໍາມະຊາດ	-2987
▁Em	-2988
▁IT	-2989
▁pm	-2990
▁ໄຊ	-2991
ames	-2992
ຸກຍູ້	-2993
▁ທຸກໆ	-2994
ທີ່ໄດ້	-2995
ໍລະມານ	-2996
▁ຊະນິດ	-2997
▁Suppli	-2998
▁ຫລວງຫລາຍ	-2999
ການເຮັດວຽກ	-3000
▁Protection	-3001
ົກລັດຖະມົນຕີ	-3002
uk	-3003
ດີກ	-3004
▁ມັດ	-3005
ໍາມັນ	-3006
ິຈິຕອນ	-3007
▁ເຫນືອ	-3008
ເຂົ້າເຖິງ	-3009
ເຄື່ອງຈັກ	-3010
ໄຮ	-3011
ery	-3012
ກະຕ	-3013
▁ຕື້	-3014
▁ນາທີ	-3015
▁ຄວາມໄວ	-3016
ຊະອານາຈັກ	-3017
ລິກ	-3018
▁Ap	-3019
▁ໂປ	-3020
wide	-3021
ເຈັບ	-3022
▁you	-3023
▁ພັດ	-3024
▁ລອດ	-3025
ສະມາຊິກ	-3026
ສ່ວນຕົວ	-3027
ຂະບວນການ	-3028
▁ເຕັກໂນໂລ	-3029
▁ສະພາບອາກາດໃນ	-3030
76	-3031
ans	-3032
hai	-3033
▁Sm	-3034
▁ເຖ	-3035
ທຸກໆ	-3036
▁ນະຄອນ	-3037
▁ເຕືອນ	-3038
▁ຮັບໃຊ້	-3039
aph	-3040
oth	-3041
ນັບ	-3042
ພໍ່	-3043
ທ້ອນ	-3044
▁ໄຫມ	-3045
ອາທິດ	-3046
ປັບປຸງ	-3047
▁ທ່ານຈະ	-3048
ເງື່ອນໄຂ	-3049
ແຄ	-3050
ame	-3051
ics	-3052
ລິດ	-3053
▁ເຢ	-3054
ວນີ້	-3055
obile	-3056
▁Slot	-3057
▁ເລັກ	-3058
ສາທາລະນະ	-3059
ການນໍາໃຊ້	-3060
▁ເຄື່ອງພິມ	-3061
by	-3062
ຈໍ	-3063
500	-3064
ຈາຍ	-3065
▁(3	-3066
▁ມມ	-3067
▁ຫານ	-3068
▁ຕື່ນ	-3069
ຕົນເອງ	-3070
▁ສະຫງົບ	-3071
▁Environ	-3072
ທີ່ແທ້ຈິງ	-3073
▁ເຄື່ອງມື	-3074
▁Worldwide	-3075
be	-3076
cs	-3077
air	-3078
▁On	-3079
aric	-3080
zhen	-3081
ating	-3082
▁Cert	-3083
ສືບຕໍ່	-3084
ສະຫວ່າງ	-3085
ເວົ້າວ່າ	-3086
▁ມາດຕະຖານ	-3087
ການບໍລິການ	-3088
ຫຼັງຈາກນັ້ນ	-3089
ll	-3090
ung	-3091
ຈົນ	-3092
▁Or	-3093
ions	-3094
▁ລອງ	-3095
▁ຂ້າມ	-3096
ທົບທວນຄືນ	-3097
ຂະຫນາດນ້ອຍ	-3098
ໂຮງງານຜະລິດ	-3099
IL	-3100
iew	-3101
ແຜ່	-3102
າບັນ	-3103
▁ຍາວ	-3104
ໄປໄດ້	-3105
▁ມີນາ	-3106
▁Google	-3107
▁ດໍາເນີນ	-3108
▁ວັດສະດຸ	-3109
ໃນເວລາທີ່	-3110
ການຝຶກອົບຮົມ	-3111
ຫີນ	-3112
▁ເຟ	-3113
ອາໄສ	-3114
ອີເມວ	-3115
ຮູ້ຈັກ	-3116
▁Botou	-3117
▁ພຽງແຕ່	-3118
▁ແຕ່ງງານ	-3119
ສົດ	-3120
▁ທັດ	-3121
▁ປັບ	-3122
ສະການ	-3123
ກົດຫມາຍ	-3124
ເພີ່ມຂຶ້ນ	-3125
ຮ້ອງສະຫມັກ	-3126
▁Environmental	-3127
ລັບ	-3128
▁Sk	-3129
ື້ອມ	-3130
▁ທາດ	-3131
▁ປະຕູ	-3132
▁tattoos	-3133
ໃຫ້ພວກເຮົາ	-3134
ໃຍ	-3135
out	-3136
▁ພູ	-3137
▁Res	-3138
▁XXL	-3139
▁ໄລ່	-3140
ລະບຽບ	-3141
▁ຕຸລາ	-3142
▁ນັບຖື	-3143
▁ປະມານ	-3144
▁ແລະຂ້ອຍ	-3145
ຍ້າຍ	-3146
ສະວະ	-3147
ຮ້ານ	-3148
ເຢັນ	-3149
ມາຄົມ	-3150
▁Park	-3151
▁Tags	-3152
▁ຮ້ອນ	-3153
ສະຫນາມ	-3154
ແຮງງານ	-3155
ທໍາມະຊາດ	-3156
▁ການນໍາໃຊ້	-3157
▁ພວກເຮົາໄດ້	-3158
39	-3159
fl	-3160
lex	-3161
▁ສຸ	-3162
ປ້ອງ	-3163
▁Met	-3164
▁ຍາດ	-3165
▁ຂ້ອງ	-3166
▁ເຜີຍ	-3167
▁Technology	-3168
ຮ່າງ	-3169
ຸດົມ	-3170
▁ກັດ	-3171
▁ນານ	-3172
▁ແຍກ	-3173
້ອື່ນ	-3174
ອອກຈາກ	-3175
▁ຄວາມຄິດເຫັນທີ່	-3176
ອຸ	-3177
▁32	-3178
land	-3179
▁ຮອບ	-3180
ustom	-3181
ວຽກງານ	-3182
ໂຮງຮຽນ	-3183
ຂັ້ນຕອນ	-3184
▁ກອງທັບ	-3185
▁ປົກກະຕິ	-3186
ຜົນປະໂຫຍດ	-3187
me	-3188
ys	-3189
▁ໂນ	-3190
ຖະຫນາ	-3191
▁ກິລາ	-3192
ຊື່ສຽງ	-3193
▁ສາດສະ	-3194
ທີ່ຂ້ອຍ	-3195
ຕອບສະຫນອງ	-3196
ພວກເຮົາມີ	-3197
85	-3198
PS	-3199
les	-3200
ode	-3201
ຕໍາ	-3202
▁36	-3203
▁75	-3204
ະພາບ	-3205
▁Des	-3206
▁ນຶກ	-3207
ining	-3208
ຄືກັນ	-3209
ລະພາບ	-3210
▁ເນື້ອ	-3211
▁ອົງການ	-3212
ຕັດສິນໃຈ	-3213
່ຍ	-3214
acc	-3215
ump	-3216
ກິນ	-3217
ເພງ	-3218
▁AC	-3219
▁fl	-3220
▁ແກະ	-3221
ຍາກອນ	-3222
ໃນໂລກ	-3223
▁ສະຕິ	-3224
▁ເມສາ	-3225
▁ແຂວງ	-3226
▁ທັນວາ	-3227
ການເງິນ	-3228
ມື້ອື່ນ	-3229
▁ມັນແມ່ນ	-3230
▁ຫຼັງຈາກນັ້ນ	-3231
FC	-3232
ໂສ	-3233
▁XX	-3234
▁Zh	-3235
▁ໂກ	-3236
atic	-3237
▁ດຶງ	-3238
▁ບານ	-3239
ພະນັນ	-3240
▁ຄ້າຍ	-3241
▁ສະເຫນີ	-3242
ຄຸນນະພາບສູງ	-3243
▁ເຫລົ່ານັ້ນ	-3244
ນາຍົກລັດຖະມົນຕີ	-3245
MP	-3246
sm	-3247
ວັງ	-3248
▁ຣະ	-3249
ilic	-3250
ingd	-3251
ືກັບ	-3252
▁ກວດ	-3253
Hebei	-3254
chain	-3255
ສະຈັນ	-3256
່ນ້ອງ	-3257
▁Comp	-3258
▁ນິ້ວ	-3259
ສະເຫມີ	-3260
ຫົວຂໍ້	-3261
ຮ່ຈ	-3262
▁ດວງ	-3263
້າສຸດ	-3264
ຍິ່ງໃຫຍ່	-3265
ແລະອື່ນໆ	-3266
▁ອະທິບາຍ	-3267
ຈໍານວນຫຼາຍ	-3268
▁ຂອງພວກເຮົາ	-3269
AD	-3270
▁IP	-3271
▁ກິ	-3272
ຫມູ່	-3273
ແຫນ່ງ	-3274
ດິຈິຕອນ	-3275
ເປັນການ	-3276
▁ຕາຕະລາງ	-3277
▁ໃນເວລາທີ່	-3278
▁ໂບດ	-3279
ວິຫານ	-3280
ອັງກິດ	-3281
▁Fiber	-3282
▁ພະຈິກ	-3283
▁ເສື້ອ	-3284
ຂອງຄວາມ	-3285
ໃນປະເທດ	-3286
ສໍາລັບມື້ນີ້	-3287
ຮອບ	-3288
▁ປິດ	-3289
utter	-3290
ໍາລຸງ	-3291
▁ກ່ອງ	-3292
▁ລາຊະອານາຈັກ	-3293
ລື	-3294
orn	-3295
rop	-3296
ບຸນ	-3297
ແຮມ	-3298
duct	-3299
▁LTD	-3300
▁0086	-3301
▁XXXL	-3302
ພາກສ່ວນ	-3303
ົ້ວ	-3304
▁iP	-3305
.000	-3306
ເກີນ	-3307
▁App	-3308
▁100%	-3309
witter	-3310
ກວດສອບ	-3311
້ານ້ອຍ	-3312
ຮ່ວມງານ	-3313
ອຸນຫະພູມ	-3314
▁ຢ້ຽມຢາມ	-3315
ເທົ່ານັ້ນ	-3316
▁Shenzhen	-3317
▁ກອງປະຊຸມ	-3318
ດໍາເນີນການ	-3319
we	-3320
ຫມໍ	-3321
▁ເຫ	-3322
ຍ້ອນ	-3323
ອ່ອນ	-3324
▁ຈົດ	-3325
▁ຕູ້	-3326
▁ສອບ	-3327
▁ແຫ້ງ	-3328
▁ໂລຫະ	-3329
ສູນເສຍ	-3330
▁Block	-3331
▁Markets	-3332
▁ພະເຈົ້າ	-3333
ID	-3334
ml	-3335
ຖຸ	-3336
und	-3337
urn	-3338
ເທີ	-3339
▁--	-3340
▁Ne	-3341
idth	-3342
ໃນຕອນ	-3343
▁ກໍານ	-3344
ກໍລະນີ	-3345
ວິຊາການ	-3346
▁ດໍາລົງ	-3347
▁ນອກຈາກ	-3348
ການກັ່ນຕອງ	-3349
100	-3350
▁ph	-3351
▁ລີ	-3352
ີມິນ	-3353
▁Cam	-3354
▁ຢຸດ	-3355
▁ໂມງ	-3356
astic	-3357
▁Poly	-3358
▁ເຕີບ	-3359
ຄໍາຖາມ	-3360
ສິລະປະ	-3361
78	-3362
ແຈ	-3363
ແຍກ	-3364
ency	-3365
ປ່ອຍ	-3366
▁ພະນ	-3367
ໃດກໍ່	-3368
ພາກພື້ນ	-3369
ຮ່ຈີມິນ	-3370
▁ຫຼັງຈາກ	-3371
IT	-3372
vel	-3373
ຄ້ວ	-3374
ລໍາ	-3375
▁ວົງ	-3376
▁Post	-3377
ຄວາມໄວ	-3378
ວິດີໂອ	-3379
▁tattoo	-3380
▁ກໍານົດ	-3381
▁ປະເພດຜະລິດຕະພັນ	-3382
5)	-3383
US	-3384
gen	-3385
orm	-3386
ບັງ	-3387
ຝາກ	-3388
ອດຄ	-3389
ther	-3390
▁ປາກ	-3391
▁Live	-3392
▁ຖິ້ມ	-3393
▁Chang	-3394
▁ສົມບູນ	-3395
ars	-3396
ຕິງ	-3397
▁CH	-3398
▁MH	-3399
ຫລັບ	-3400
▁ຫມໍ	-3401
▁ຫີນ	-3402
▁ເມຍ	-3403
▁Holm	-3404
▁Port	-3405
▁Soft	-3406
▁ເລືອດ	-3407
▁ໄຟຟ້າ	-3408
▁ຈໍາກັດ	-3409
ສົ່ງເສີມ	-3410
4,	-3411
▁າ	-3412
▁31	-3413
ວ່ານ	-3414
ແກັສ	-3415
▁Gre	-3416
ຂອບໃຈ	-3417
ອດຕິງ	-3418
ການປົກ	-3419
▁Guang	-3420
▁Laser	-3421
▁ກຸມພາ	-3422
▁ສິ່ງທີ່	-3423
ເປົ້າຫມາຍ	-3424
38	-3425
ວ່	-3426
ກຽມ	-3427
ປະຊາ	-3428
ແກ້ວ	-3429
▁ຢາງ	-3430
ໄປສູ່	-3431
▁ຫລານ	-3432
▁ເຫນີ	-3433
ownload	-3434
ເຕັກໂນໂລຢີ	-3435
):	-3436
ale	-3437
ape	-3438
ສະຫະ	-3439
ສິ້ນ	-3440
▁ສວນ	-3441
▁ວິດີໂອ	-3442
ທີ່ບໍ່ມີ	-3443
CS	-3444
arm	-3445
oid	-3446
ມອບ	-3447
ເກືອບ	-3448
ຂອງມັນ	-3449
ລັອດຕິງ	-3450
ຫຼັງຈາກ	-3451
▁ເລື້ອຍໆ	-3452
▁ສະຖານທີ່	-3453
ຍຸ	-3454
ົ໋	-3455
REE	-3456
ify	-3457
ott	-3458
ຄັດ	-3459
ບຸກ	-3460
▁be	-3461
ຄຣິດ	-3462
▁Pin	-3463
▁ສົບ	-3464
▁Home	-3465
▁ສະລະ	-3466
ດີທີ່ສຸດ	-3467
ທີ່ສາມາດ	-3468
▁ກໍລະກົດ	-3469
ຍີ່	-3470
ເດດ	-3471
▁UV	-3472
▁Dav	-3473
▁Dis	-3474
▁Nor	-3475
▁ແພງ	-3476
ເລກທີ	-3477
▁ປະຕິ	-3478
▁ເລິກ	-3479
▁ອັນຕະລາຍ	-3480
In	-3481
-20	-3482
▁Mid	-3483
▁ຫາຍ	-3484
▁ໂຄງ	-3485
ເບື້ອງ	-3486
▁ຫລິ້ນ	-3487
ກໍາມະການ	-3488
ຕາເວັນອອກ	-3489
ພວກເຮົາຈະ	-3490
▁ອຸນຫະພູມ	-3491
44	-3492
OR	-3493
ລິນ	-3494
ໍ່າ	-3495
▁PR	-3496
▁min	-3497
▁ຝຶກ	-3498
ເກົ່າ	-3499
▁ຟື້ນ	-3500
ຄົນອື່ນ	-3501
▁ຄວາມຫນາ	-3502
▁ປະສົບການ	-3503
▁ການຫຸ້ມຫໍ່	-3504
▁ໂທລະສັບມືຖື	-3505
2.	-3506
ES	-3507
IS	-3508
nes	-3509
osh	-3510
ຈົດ	-3511
ຊິດ	-3512
▁ແຫ	-3513
ille	-3514
over	-3515
▁ບຸກ	-3516
ouble	-3517
ວ່າການ	-3518
hejiang	-3519
ອະທິບາຍ	-3520
▁ສົງຄາມ	-3521
ຍຸດທະສາດ	-3522
ຫຼຸດຜ່ອນ	-3523
ໃນປັດຈຸບັນ	-3524
?—	-3525
EN	-3526
yst	-3527
ທູດ	-3528
ປິດ	-3529
read	-3530
▁ແນະ	-3531
ustri	-3532
▁info	-3533
▁ຄລິດ	-3534
▁ເນີນ	-3535
ກັບຄືນ	-3536
ອັນດັບ	-3537
ເຫດການ	-3538
▁Press	-3539
ational	-3540
ທີ່ຫນ້າ	-3541
ສຸດທ້າຍ	-3542
▁ຄາສິໂນ	-3543
▁ບຸກຄົນ	-3544
▁Suppliers	-3545
95	-3546
ise	-3547
ply	-3548
ແພງ	-3549
ພິທີ	-3550
▁FREE	-3551
▁ຍ້າຍ	-3552
▁ຫ່ວງ	-3553
ເອີຣົບ	-3554
▁ເປົ້າ	-3555
▁ສະຫນອງ	-3556
▁ສະຫະລັດ	-3557
▁ສາສະຫນາ	-3558
ຄອມພິວເຕີ	-3559
ປະຫວັດສາດ	-3560
ຫຼດ	-3561
ound	-3562
ປື້ມ	-3563
ຕິທໍາ	-3564
▁ຊະນະ	-3565
▁ເຫມີ	-3566
ເຫດຜົນ	-3567
ເປັນຜູ້	-3568
▁ມິຖຸນາ	-3569
▁ລາງວັນ	-3570
▁ການບໍລິການ	-3571
ຣາ	-3572
ath	-3573
ota	-3574
ມງານ	-3575
▁ລວງ	-3576
▁ແປກ	-3577
ຊື້ຂາຍ	-3578
ສໍາຫຼວດ	-3579
ອະນາຄົດ	-3580
▁ຄຸນຄ່າ	-3581
ຈຸດປະສົງ	-3582
ຊາວຫນຸ່ມ	-3583
ເກີດຂຶ້ນ	-3584
▁ສະຫວ່າງ	-3585
ທີ່ຜ່ານມາ	-3586
CL	-3587
ພູ	-3588
ເຢ	-3589
▁z	-3590
enn	-3591
ແດນ	-3592
▁Hu	-3593
▁cl	-3594
▁Rou	-3595
▁Web	-3596
ສິກໍາ	-3597
ຫຼິ້ນ	-3598
ເວັ້ນ	-3599
ເລັກໂຕ	-3600
▁ອາກາດ	-3601
▁ຮູບແບບ	-3602
27	-3603
CH	-3604
ger	-3605
van	-3606
ພັດ	-3607
ເດີ	-3608
hone	-3609
soft	-3610
ຕາລີ	-3611
ທະເລ	-3612
ຄືກັບ	-3613
ແຫຼ່ງ	-3614
▁Dong	-3615
ສື່ສານ	-3616
ຫນັງສື	-3617
▁ວິຫານ	-3618
▁Zhejiang	-3619
ຫາວິທະຍາໄລ	-3620
ອິນເຕີເນັດ	-3621
ນອນ	-3622
▁HD	-3623
▁Up	-3624
▁ກວ	-3625
ເຄມີ	-3626
ເມີນ	-3627
▁PVC	-3628
▁com	-3629
▁ກາດ	-3630
▁ມົນ	-3631
lette	-3632
ປະກາດ	-3633
▁ເສີມ	-3634
▁crypt	-3635
ຮຽກຮ້ອງ	-3636
ການປັບປຸງ	-3637
▁ພະນັກງານ	-3638
ສິ່ງແວດລ້ອມ	-3639
ond	-3640
rid	-3641
ຍັດ	-3642
▁ລໍ	-3643
▁ໄຮ	-3644
ited	-3645
▁Fit	-3646
ໍານວຍ	-3647
▁West	-3648
▁ຖິ່ນ	-3649
▁ສໍານ	-3650
▁ຕິດຕາມ	-3651
ສະແຕນເລດ	-3652
ຫຼາຍທີ່ສຸດ	-3653
ຂໍ້ມູນຂ່າວສານ	-3654
ຢ່າງກວ້າງຂວາງ	-3655
▁≤	-3656
ແນກ	-3657
ຄ້ວາ	-3658
agram	-3659
▁ເຊົາ	-3660
ordpress	-3661
▁ບໍລິການ	-3662
▁ລັດຖະບານ	-3663
ann	-3664
uck	-3665
ອັກ	-3666
▁05	-3667
▁lo	-3668
ີນີ້	-3669
▁All	-3670
▁ປອດ	-3671
▁ສວຍ	-3672
▁ປ່ວຍ	-3673
▁ຝຸ່ນ	-3674
ຄົນທີ່	-3675
ດີກວ່າ	-3676
▁ເຊື່ອມ	-3677
▁ທັງຫລາຍ	-3678
ຄູ	-3679
ຟູ	-3680
”.	-3681
▁ໆ	-3682
eld	-3683
ຟັງ	-3684
▁Tr	-3685
ates	-3686
fish	-3687
ງວຽນ	-3688
ເວທີ	-3689
▁ບຸນ	-3690
▁ຮອງ	-3691
▁ໂທດ	-3692
ເດັ່ນ	-3693
▁ຮ້ານ	-3694
▁David	-3695
▁ຢູ່ໃນ	-3696
▁ເກົ້າ	-3697
ດັ່ງນັ້ນ	-3698
▁ຂ້ານ້ອຍ	-3699
▁ຍີ່ປຸ່ນ	-3700
▁ພາກສ່ວນ	-3701
ການປະຕິບັດ	-3702
oz	-3703
ກ້າ	-3704
ເຊີ	-3705
▁01	-3706
▁Am	-3707
▁QR	-3708
ales	-3709
▁120	-3710
▁800	-3711
▁ບິນ	-3712
▁ປານ	-3713
▁ພວມ	-3714
▁ອອນ	-3715
ສ້າງສັນ	-3716
▁ສັກສິດ	-3717
▁ໃນໄລຍະ	-3718
........	-3719
ເຄືອຂ່າຍ	-3720
▁Tattoos	-3721
ຄໍາແນະນໍາ	-3722
ຂອງບໍລິສັດ	-3723
▁ເຂົ້າຮ່ວມ	-3724
!!	-3725
ຈັບ	-3726
ວົນ	-3727
▁Art	-3728
ປະດິດ	-3729
ຽບທຽບ	-3730
▁1500	-3731
▁Pulse	-3732
▁Shang	-3733
▁ສິດທິ	-3734
ມັດສະການ	-3735
ການລົງທຶນ	-3736
erv	-3737
ory	-3738
ກົນ	-3739
ຍົງ	-3740
ແນ່	-3741
▁le	-3742
▁ຈຸ	-3743
ຊົ່ວ	-3744
▁Ide	-3745
▁ພາດ	-3746
▁ເມດ	-3747
ການບິນ	-3748
ທັງສອງ	-3749
▁North	-3750
▁Intern	-3751
▁Mobile	-3752
▁ຕາເວັນ	-3753
▁ຜູ້ນໍາ	-3754
▁ຫົວຂໍ້	-3755
ສ່ວນໃຫຍ່	-3756
▁ພີ່ນ້ອງ	-3757
ເກັບຮັກສາ	-3758
ຂອງພວກເຮົາແມ່ນ	-3759
▁ກ່ຽວກັບພວກເຮົາ	-3760
96	-3761
ec	-3762
ຖວ	-3763
ຂຽວ	-3764
▁ເດີ	-3765
ໍາມະດາ	-3766
ເອີ້ນວ່າ	-3767
98	-3768
ime	-3769
ຍືນ	-3770
▁he	-3771
▁ວາ	-3772
ຣນິກ	-3773
ເຮືອ	-3774
ປະທັບ	-3775
ຫຼີ້ນ	-3776
ອັດຕາ	-3777
ເຊົ້າ	-3778
ໂດຍຜ່ານ	-3779
▁ຕະຫຼອດ	-3780
▁ລາຍການ	-3781
ຂອງມະນຸດ	-3782
▁ຫົວຫນ້າ	-3783
ສົມບູນແບບ	-3784
▁ການອອກແບບ	-3785
▁ຂ້າພະເຈົ້າໄດ້	-3786
3,	-3787
OT	-3788
els	-3789
net	-3790
ute	-3791
ຣິກ	-3792
ສີ່	-3793
▁Cy	-3794
▁ຜະ	-3795
▁ອົບ	-3796
ໂຮງງານ	-3797
▁ເນັ້ນ	-3798
▁ພຣະກິດ	-3799
ປະກອບສ່ວນ	-3800
▁ພວກເຮົາຈະ	-3801
94	-3802
uy	-3803
urr	-3804
ຫລັກ	-3805
ເປົ໋	-3806
ໃດກໍ	-3807
▁CNC	-3808
▁Par	-3809
▁ກອນ	-3810
ເອກະລ	-3811
▁ກ້ອນ	-3812
▁ຖ້ອຍ	-3813
ອດຄ່ອງ	-3814
ຮັບຮອງ	-3815
▁fabric	-3816
▁ສັງເກດ	-3817
ວິທະຍາໄລ	-3818
ໃຫຍ່ທີ່ສຸດ	-3819
ໃຫ້ບໍລິການ	-3820
▁Microsoft	-3821
St	-3822
ເວນ	-3823
jian	-3824
ຟື້ນ	-3825
ແລະມີ	-3826
▁ແມັດ	-3827
▁ແລ່ນ	-3828
ຂອບເຂດ	-3829
ໂດຍກົງ	-3830
▁ທີ່ຈະ	-3831
▁ອາຄານ	-3832
ແບ່ງປັນ	-3833
▁ເປັນຫຍັງ	-3834
ຈໍາເປັນຕ້ອງ	-3835
31	-3836
▁@	-3837
any	-3838
ດຶງ	-3839
ບາກ	-3840
ຕະນາ	-3841
▁+86	-3842
▁Cop	-3843
▁PDF	-3844
▁ລົບ	-3845
▁Long	-3846
▁Online	-3847
ໃດກໍ່ຕາມ	-3848
▁ທັດສະນະ	-3849
ປະກອບດ້ວຍ	-3850
▁ພວກເຂົາເຈົ້າ	-3851
je	-3852
mp	-3853
▁1:	-3854
▁CS	-3855
▁ແວ	-3856
▁ເມີ	-3857
ebook	-3858
ເຄືອບ	-3859
▁ເວັບ	-3860
ເປັນເຈົ້າ	-3861
▁ອາເມລິກາ	-3862
▁ເງື່ອນໄຂ	-3863
▁ເຈົ້າບໍ່	-3864
▁ໃນຂະນະທີ່	-3865
ທີ່ເຫມາະສົມ	-3866
ຕູ້	-3867
ທ້າ	-3868
ປານ	-3869
ພິດ	-3870
ສວຍ	-3871
ຕື່ນ	-3872
ທະວີ	-3873
ນັ່ງ	-3874
▁250	-3875
▁ຜົວ	-3876
▁ຫັນ	-3877
meric	-3878
▁Gold	-3879
▁ລຸ້ນ	-3880
▁ບັນລຸ	-3881
▁ເວັ້ນ	-3882
32	-3883
34	-3884
ote	-3885
ຢຸດ	-3886
ຖານະ	-3887
▁600	-3888
▁Pet	-3889
▁www	-3890
ຽວນີ້	-3891
▁ແບ່ງປັນ	-3892
CC	-3893
rag	-3894
ania	-3895
ສັ້ນ	-3896
▁Net	-3897
▁ສະຖ	-3898
ນິຍົມ	-3899
▁ນຸ່ງ	-3900
▁Elect	-3901
▁ຖະຫນາ	-3902
ustrial	-3903
ຊ່ວຍໃຫ້	-3904
▁ສະເຫມີ	-3905
▁ທໍລະມານ	-3906
▁ນະໂຍບາຍ	-3907
ສິ່ງບາງຢ່າງ	-3908
▁Blockchain	-3909
OM	-3910
lim	-3911
ury	-3912
ຫວາ	-3913
▁FX	-3914
ener	-3915
ະຄອນ	-3916
▁ຄ້າ	-3917
▁ດອກ	-3918
▁ລິດ	-3919
ປຶກສາ	-3920
ວ່າມີ	-3921
ສະຕຽນ	-3922
ເລກຸນ	-3923
ແຫນ້ນ	-3924
▁ຫລຽວ	-3925
ບັນດານ	-3926
▁ສະໄຫມ	-3927
ພະຍາກອນ	-3928
ຖືກນໍາໃຊ້	-3929
▁ນັ້ນແມ່ນ	-3930
ໃຊ	-3931
den	-3932
ນັດ	-3933
ໂຣກ	-3934
▁Ac	-3935
▁ຈາ	-3936
loem	-3937
ົ້ານ	-3938
▁ຊັງ	-3939
▁ລືມ	-3940
ກວດກາ	-3941
▁ສະພາ	-3942
ທ້າທາຍ	-3943
▁Forex	-3944
▁Samloem	-3945
ການອອກແບບ	-3946
ull	-3947
▁3,	-3948
ຍ່ອຍ	-3949
▁ຊິກ	-3950
▁ອີງ	-3951
board	-3952
ກະຊວງ	-3953
ແນ່ໃຈ	-3954
▁Asia	-3955
▁ຮຸ່ນ	-3956
ອໍານວຍ	-3957
ຄົ້ນຄ້ວາ	-3958
▁Machine	-3959
▁ເຄື່ອງຈັກ	-3960
▁ການທົບທວນຄືນ	-3961
9)	-3962
ສາວ	-3963
ິຕິ	-3964
ໂຍງ	-3965
ouse	-3966
ຫຼັງ	-3967
ເລິກ	-3968
ແຫ້ງ	-3969
▁ດັດ	-3970
▁ດັບ	-3971
▁ບິດ	-3972
▁ລຶກ	-3973
ວນຊົນ	-3974
▁ທ້າວ	-3975
▁ເມັດ	-3976
ເຮັດໄດ້	-3977
ໃດຫນຶ່ງ	-3978
ບັນດາປະເທດ	-3979
▁ການກັ່ນຕອງ	-3980
go	-3981
-10	-3982
ແປກ	-3983
ໄຫຼ	-3984
▁Af	-3985
ຊ້ອນ	-3986
ູມິນ	-3987
▁ພົນ	-3988
▁ສູດ	-3989
▁ຮົບ	-3990
ຫນ່ວຍ	-3991
ຸນແຮງ	-3992
ຂອງນາງ	-3993
ວິເຄາະ	-3994
▁ປະຈັກ	-3995
▁Americ	-3996
▁Minnes	-3997
▁ໂຮງຮຽນ	-3998
68	-3999
ໂຊ	-4000
ກາກ	-4001
ປັກ	-4002
ສູບ	-4003
ແລນ	-4004
ໂພກ	-4005
▁cr	-4006
ange	-4007
ider	-4008
ຮ້ອຍ	-4009
ໂຫວາ	-4010
▁ແຫຼ	-4011
▁Stre	-4012
▁ລ່ວງ	-4013
ພວກມັນ	-4014
ສຸມໃສ່	-4015
▁ກະຊວງ	-4016
▁ຫງວຽນ	-4017
▁ຫົວໃຈ	-4018
▁ອອນໄລນ໌	-4019
▁ເດີນທາງ	-4020
ສ້າງຕັ້ງຂຶ້ນ	-4021
TA	-4022
ໂບ	-4023
ole	-4024
ຍລະ	-4025
ທ່າ	-4026
▁ແມ	-4027
ript	-4028
▁Jet	-4029
▁Off	-4030
▁ນິດ	-4031
▁ມິດ	-4032
ຊະນິດ	-4033
ສະໄຫມ	-4034
ັງວົນ	-4035
ເວລາດ	-4036
ingdao	-4037
ພາຍໃຕ້	-4038
▁ທັນທີ	-4039
▁ສີແດງ	-4040
ຫນ້າທີ່	-4041
ສິດທິຜົນ	-4042
ຂະຫຍາຍຕົວ	-4043
▁ເປັນຄວາມ	-4044
xy	-4045
ley	-4046
pro	-4047
ຊາກ	-4048
ຜິວ	-4049
ence	-4050
vent	-4051
ໄປຫາ	-4052
▁Oce	-4053
▁Heng	-4054
ອີງໃສ່	-4055
ກັນຂ້າມ	-4056
▁ວິນຍານ	-4057
ທີ່ຍິ່ງໃຫຍ່	-4058
▁ນະມັດສະການ	-4059
ໃຜ	-4060
ປິນ	-4061
▁ne	-4062
ຫ່າງ	-4063
▁400	-4064
▁OEM	-4065
▁ທ່າ	-4066
▁ດື່ມ	-4067
ຕໍ່ຕ້ານ	-4068
ປະເພດຂອງ	-4069
▁ເວັບໄຊທ໌	-4070
ງວນລິຂະສິດ	-4071
ສ່ວນບຸກຄົນ	-4072
▁ວິທະຍາສາດ	-4073
▁ເຖິງແມ່ນວ່າ	-4074
-7	-4075
8,	-4076
ໄມ	-4077
vey	-4078
ຈະລ	-4079
ຕາຍ	-4080
ລຶກ	-4081
ແຮ່	-4082
▁ໂຊ	-4083
▁20%	-4084
▁che	-4085
▁ຍຶດ	-4086
▁ນົກ	-4087
▁ໂຮມ	-4088
▁Line	-4089
▁ສັ້ນ	-4090
▁ເວັນ	-4091
ຢູ່ທີ່	-4092
ຄໍາສັ່ງ	-4093
ຄໍາເຫັນ	-4094
▁ກໍລະນີ	-4095
▁ຊື່ສັດ	-4096
ຫຍຸ້ງຍາກ	-4097
▁Qingdao	-4098
ການຮ່ວມມື	-4099
ພວກເຂົາເຈົ້າ	-4100
ສະພາບແວດລ້ອມ	-4101
ໃຫ	-4102
ella	-4103
rist	-4104
ອ້າງ	-4105
▁ນົດ	-4106
▁ວາວ	-4107
ຈະບໍ່	-4108
ທັນທີ	-4109
▁Play	-4110
▁ຖ່ອມ	-4111
▁ແກ້ວ	-4112
ຍືນຍົງ	-4113
ຮັບຮູ້	-4114
ຸດຄົ້ນ	-4115
▁ສະບາຍ	-4116
▁ສະເພາະ	-4117
ື່ມວນຊົນ	-4118
ເສັ້ນທາງ	-4119
▁Charter	-4120
ເກັບຂີ້ຝຸ່ນ	-4121
ຕ້ອງການທີ່ຈະ	-4122
:00	-4123
dle	-4124
row	-4125
ມວນ	-4126
ເຕະ	-4127
ເສບ	-4128
▁55	-4129
▁He	-4130
▁Pe	-4131
▁Qu	-4132
ital	-4133
ຢ້ຽມ	-4134
ແມັດ	-4135
▁Mac	-4136
▁Win	-4137
▁ອາຍ	-4138
ກະຈາຍ	-4139
▁Road	-4140
▁http	-4141
ູມິນຽມ	-4142
ication	-4143
ຂອງເຮົາ	-4144
ຮູບເງົາ	-4145
ໃດກໍຕາມ	-4146
▁Plastic	-4147
▁ຂໍ້ຄວາມ	-4148
ຂອງລູກຄ້າ	-4149
ເຄື່ອງພິມ	-4150
ຄັ້ງທໍາອິດ	-4151
▁Minnesota	-4152
hu	-4153
lt	-4154
pcs	-4155
ton	-4156
ກຸນ	-4157
ສວນ	-4158
ຫ້າ	-4159
▁Dri	-4160
ducts	-4161
▁2000	-4162
ຍອມຮັບ	-4163
ທະນາຄານ	-4164
▁ແລະມັນ	-4165
▁ຈັດຕັ້ງ	-4166
▁ອະນຸຍາດ	-4167
▁ເນື່ອງຈາກ	-4168
.,	-4169
ng	-4170
ts	-4171
ຍູ	-4172
lin	-4173
lug	-4174
ບອນ	-4175
ິ້ງ	-4176
ົາມ	-4177
▁Gl	-4178
vers	-4179
ເທີງ	-4180
▁ພືດ	-4181
▁ຫມາ	-4182
▁ກໍາມ	-4183
ລາຍຊື່	-4184
▁reply	-4185
ເກັບກໍາ	-4186
ພິຈາລະນາ	-4187
▁ເຮັດວຽກ	-4188
▁wordpress	-4189
▁ເຕັກໂນໂລຊີ	-4190
nc	-4191
umb	-4192
ກະດ	-4193
ດອກ	-4194
ຕູນ	-4195
▁en	-4196
▁ບາ	-4197
shop	-4198
ular	-4199
ຊີ້ນ	-4200
ຣັ່ງ	-4201
▁con	-4202
ຕະຫຼອດ	-4203
ສວຍງາມ	-4204
▁ເຕົ້າ	-4205
ປະກອບມີ	-4206
ວ່າເປັນ	-4207
▁ທົດລອງ	-4208
ດຽວກັນກັບ	-4209
▁ພຣະວິຫານ	-4210
▁ຫຍຸ້ງຍາກ	-4211
▁ຖ້າຫາກວ່າທ່ານ	-4212
4)	-4213
47	-4214
ke	-4215
ຊົງ	-4216
ອາຊີ	-4217
ເຕົາ	-4218
ເສັງ	-4219
ແຫນງ	-4220
▁She	-4221
ສັກຢາ	-4222
▁Star	-4223
▁Wall	-4224
▁ລົ້ມ	-4225
▁ຫ່າງ	-4226
▁Certs	-4227
▁ສະອາດ	-4228
▁ເຫຼັກ	-4229
ວັດສະດຸ	-4230
▁ຜູ້ຍິງ	-4231
ທີ່ໃຊ້ເວລາ	-4232
▁ໃບຢັ້ງຢືນ	-4233
GS	-4234
sc	-4235
ເຍ	-4236
ແຊ	-4237
rew	-4238
ັກຊ	-4239
shan	-4240
ັນຍູ	-4241
▁Pay	-4242
▁ທານ	-4243
▁ແຜ່	-4244
ເຕືອນ	-4245
▁Word	-4246
▁ຕ່ໍາ	-4247
▁ປ່ອງ	-4248
ຫຼຸດລົງ	-4249
▁ລູກຄ້າ	-4250
ບໍ່ມີການ	-4251
ລາຍລະອຽດ	-4252
▁Download	-4253
▁Shanghai	-4254
ຜົນສໍາເລັດ	-4255
ເລັກໂຕຣນິກ	-4256
▁ຄລິດສະຕຽນ	-4257
▁ການພັດທະນາ	-4258
▁ປະສິດທິພາບ	-4259
",	-4260
eth	-4261
ພືດ	-4262
▁2.	-4263
▁AS	-4264
ັກສະ	-4265
▁Med	-4266
▁ແຂນ	-4267
ເປົ໋າ	-4268
▁ອາໄສ	-4269
ແລະຜູ້	-4270
▁ແກ້ໄຂ	-4271
ບໍລິໂພກ	-4272
ສະຖາບັນ	-4273
ຮ່ວມກັນ	-4274
▁ລໍາບາກ	-4275
▁ສາດສະດາ	-4276
▁ຕ່າງໆທີ່	-4277
▁ປະຕິບັດຕາມ	-4278
65	-4279
Sh	-4280
▁້	-4281
ave	-4282
ນາມ	-4283
▁Bi	-4284
ctor	-4285
ລຸ້ນ	-4286
ເທົາ	-4287
▁70%	-4288
▁des	-4289
▁ທຽບ	-4290
▁Shop	-4291
▁ຂົ່ມ	-4292
▁ຮ່າງ	-4293
ຍລະມັນ	-4294
ຕົວຈິງ	-4295
າລະສານ	-4296
▁Dress	-4297
▁admin	-4298
ຂໍ້ຄວາມ	-4299
▁Twitter	-4300
▁ປ້ອງກັນ	-4301
ທີ່ດີເລີດ	-4302
ບາງສິ່ງບາງຢ່າງ	-4303
67	-4304
oud	-4305
urg	-4306
ປາກ	-4307
▁cm	-4308
▁ຍະ	-4309
▁ແບ	-4310
ຍ່າງ	-4311
ຢູ່ນ	-4312
ແທ້ໆ	-4313
▁HGH	-4314
▁Red	-4315
▁ຜົງ	-4316
ingle	-4317
ຖ້າຫາກ	-4318
▁ນ້ອຍໆ	-4319
▁ເຊົ້າ	-4320
▁ເຖົ້າ	-4321
ອຸປະກອນການ	-4322
▁ການລົງທຶນ	-4323
ຄວາມເປັນຈິງ	-4324
3)	-4325
ma	-4326
bal	-4327
ໃດໆ	-4328
▁am	-4329
ນິທິ	-4330
▁Cor	-4331
▁ຄົບ	-4332
9001,	-4333
ative	-4334
ຂອງໂລກ	-4335
ສໍາພັນ	-4336
▁motor	-4337
▁ເປົ່າ	-4338
urrency	-4339
ກິດຈະກໍາ	-4340
▁Bitcoin	-4341
▁ພື້ນຖານ	-4342
ເຊື່ອມໂຍງ	-4343
▁ການຜະລິດ	-4344
▁International	-4345
9,	-4346
EL	-4347
IF	-4348
www	-4349
▁Cr	-4350
▁PP	-4351
ຄ່ໍາ	-4352
ປາໄສ	-4353
▁Mod	-4354
▁ບາຍ	-4355
ified	-4356
▁2010	-4357
▁ເຢັນ	-4358
irtual	-4359
ຊຸກຍູ້	-4360
ວິນຍານ	-4361
▁ຄັ້ງທີ	-4362
▁ເອກະຊົນ	-4363
ທ່ານສາມາດ	-4364
▁ກິດຈະກໍາ	-4365
▁ປະຫວັດສາດ	-4366
ແສ	-4367
ING	-4368
rol	-4369
ທະນ	-4370
ລຸດ	-4371
▁DC	-4372
▁Me	-4373
▁ຫໍ	-4374
▁ແສ	-4375
-201	-4376
umin	-4377
▁Rel	-4378
▁ຫັດ	-4379
▁ໃດໆ	-4380
ivers	-4381
ັດເຈນ	-4382
▁ສະຫມ	-4383
ຕົວແທນ	-4384
ສະຫຼອງ	-4385
▁laser	-4386
▁ຂະຫຍາຍ	-4387
▁ໂດຍການ	-4388
ເອົາໃຈໃສ່	-4389
▁ຈຸດປະສົງ	-4390
▁ຍິນດີຕ້ອນຮັບ	-4391
MC	-4392
cel	-4393
ips	-4394
ວາຍ	-4395
olor	-4396
ນຸ່ງ	-4397
▁ຈົບ	-4398
▁ດູດ	-4399
▁ຟ້າ	-4400
ປະສານ	-4401
ມືກັບ	-4402
ສະບາຍ	-4403
▁Cont	-4404
▁ຫນອງ	-4405
▁ຮ້ອຍ	-4406
▁ແລ້ງ	-4407
ookies	-4408
ຂອງນັກ	-4409
ບັນຍັດ	-4410
ປະເມີນ	-4411
▁ກວ້າງ	-4412
ກັບຄວາມ	-4413
▁ໃນນັ້ນ	-4414
▁ຄວາມສູງ	-4415
▁ຄຸນນະພາບ	-4416
ຄໍາຮ້ອງສະຫມັກ	-4417
1%	-4418
37	-4419
6)	-4420
BS	-4421
TF	-4422
ແຫ	-4423
ໄທ	-4424
300	-4425
iao	-4426
ohn	-4427
ors	-4428
▁37	-4429
▁Ed	-4430
▁ແຊ	-4431
ings	-4432
ຂວັນ	-4433
ຈະມີ	-4434
ໂດລາ	-4435
▁USB	-4436
▁ຍົນ	-4437
▁ດອງ	-4438
elash	-4439
ຫ້ອງການ	-4440
▁ໄດ້ຮັບການ	-4441
ປູ	-4442
key	-4443
▁at	-4444
▁is	-4445
▁wh	-4446
▁ຊູ	-4447
▁ໂພ	-4448
oooo	-4449
ເບີດ	-4450
▁Ant	-4451
irect	-4452
ສະຕິກ	-4453
▁Zone	-4454
ມູນຄ່າ	-4455
ລວມທັງ	-4456
▁ດົນຕີ	-4457
▁ມີການ	-4458
ລະເມືອງ	-4459
▁ການຄ້າ	-4460
▁ຕໍ່ສູ້	-4461
▁ເຢໂຫວາ	-4462
ປະສິດທິຜົນ	-4463
▁ເຄື່ອງຕັດ	-4464
▁ອັດຕະໂນມັດ	-4465
5,	-4466
AP	-4467
LC	-4468
top	-4469
ແນນ	-4470
/201	-4471
ເຊີຍ	-4472
▁Spe	-4473
▁res	-4474
▁ແອວ	-4475
ສະມາຄົມ	-4476
ສັງເຄາະ	-4477
ຕັ້ງຂຶ້ນ	-4478
▁ຮ່າໂນ້ຍ	-4479
ocurrency	-4480
▁ຫນ້າທາງການ	-4481
ີງ	-4482
▁{	-4483
ids	-4484
lic	-4485
vin	-4486
ຍອດ	-4487
▁We	-4488
coot	-4489
ibbe	-4490
ideo	-4491
ສະຫລ	-4492
▁17,	-4493
▁Hot	-4494
▁Rik	-4495
▁ດັງ	-4496
ເລືອດ	-4497
▁Miss	-4498
▁Pack	-4499
ແຜນການ	-4500
ຄວາມຈິງ	-4501
ປົກປ້ອງ	-4502
▁Street	-4503
ສາດສະຫນາ	-4504
▁ບໍ່ແມ່ນ	-4505
ຄວາມສະອາດ	-4506
▁Industrial	-4507
ຂອງຜະລິດຕະພັນ	-4508
▁ພວກເຮົາສາມາດ	-4509
ຣດ	-4510
ush	-4511
ຂັດ	-4512
ຕີນ	-4513
▁Ge	-4514
▁Sch	-4515
▁Squ	-4516
▁ປັນ	-4517
ຊອບແວ	-4518
ຫນ່າຍ	-4519
ທີ່ໃຊ້	-4520
ທ່ານຈະ	-4521
ຸງແຕ່ງ	-4522
ກະສິກໍາ	-4523
ຮ່າໂນ້ຍ	-4524
ຕໍາແຫນ່ງ	-4525
▁ເວົ້າວ່າ	-4526
▁ສະບັບເລກທີ	-4527
ການຊໍາລະເງິນ	-4528
ext	-4529
lor	-4530
ນານ	-4531
ເນຍ	-4532
▁ac	-4533
▁ໄທ	-4534
ຫມາກ	-4535
▁Gro	-4536
▁ທອງ	-4537
▁ຜູກ	-4538
.2018	-4539
enoid	-4540
▁Tian	-4541
▁ອ້າງ	-4542
ຜູ້ນໍາ	-4543
້ວາງໃຈ	-4544
▁ພະຍາດ	-4545
ອາຍແກັສ	-4546
▁ບໍລິສຸດ	-4547
ການຄວບຄຸມ	-4548
ສື່ມວນຊົນ	-4549
າວິສາຫະກິດ	-4550
▁ການປ່ຽນແປງ	-4551
▁ວັດທະນະທໍາ	-4552
6,	-4553
▁(5	-4554
▁38	-4555
▁cs	-4556
ford	-4557
ກາເຟ	-4558
▁Bel	-4559
▁ຄຸມ	-4560
asino	-4561
ເຜົ່າ	-4562
▁Copy	-4563
▁ທ້ອງ	-4564
▁ມ່ວນ	-4565
▁ອາຊີ	-4566
ຄົ້ນຫາ	-4567
ຕົກລົງ	-4568
ພຣະອົງ	-4569
ໃນເວລາ	-4570
▁ປັນຍາ	-4571
ທຸກຢ່າງ	-4572
▁ສຸຂະພາບ	-4573
ໃນທົ່ວໂລກ	-4574
▁ເລີ່ມຕົ້ນ	-4575
▁ໂດຍສະເພາະ	-4576
▁ການເດີນທາງ	-4577
▁ຕິດຕໍ່ຕອນນີ້	-4578
1)	-4579
ໄອ	-4580
ier	-4581
ປ່າ	-4582
ຜົມ	-4583
ໄກ່	-4584
ໄລ່	-4585
▁CE	-4586
work	-4587
ເນີດ	-4588
▁ຕຶກ	-4589
ຈິດໃຈ	-4590
ຈຸລັງ	-4591
ຍັງມີ	-4592
▁ແຈ່ມ	-4593
ຊີ້ຂາດ	-4594
ສົມທົບ	-4595
▁ຂອບໃຈ	-4596
▁ມີຄ່າ	-4597
acebook	-4598
ສິ້ນສຸດ	-4599
▁ໃນຖານະ	-4600
▁ຂັ້ນຕອນ	-4601
▁ເຈົ້າກໍ	-4602
ຂ້າພະເຈົ້າໄດ້	-4603
TC	-4604
▁ະ	-4605
App	-4606
esh	-4607
▁CP	-4608
amic	-4609
ສບຸກ	-4610
ຫຍັດ	-4611
ຫນູນ	-4612
ition	-4613
ພຽງພໍ	-4614
▁Vacc	-4615
▁poly	-4616
▁ໂຫລດ	-4617
ທົນທານ	-4618
▁Light	-4619
ຕາຕະລາງ	-4620
ອາດສາມາດ	-4621
ML	-4622
pos	-4623
ven	-4624
ກູ້	-4625
ຈິນ	-4626
ເຈຍ	-4627
Tube	-4628
▁ກຽມ	-4629
ມີແສງ	-4630
ເຫຼີມ	-4631
່ານຫີນ	-4632
▁https	-4633
▁ແຫຼ່ງ	-4634
▁ການສຶກສາ	-4635
ຊັບພະຍາກອນ	-4636
ພວກເຮົາໄດ້	-4637
ຶມ	-4638
▁Uk	-4639
▁ນ້	-4640
ພາສີ	-4641
າວຸດ	-4642
ໂຫຼດ	-4643
ເວລານ	-4644
ເຫລືອ	-4645
▁Mini	-4646
▁ຫມອງ	-4647
ທາງເພດ	-4648
ວມເອົາ	-4649
▁width	-4650
▁ຄໍາຕອບ	-4651
▁ແຮງດັນ	-4652
▁ປະລິມານ	-4653
▁ປິ່ນປົວ	-4654
ຄວາມກົດດັນ	-4655
▁Instagram	-4656
▁ເພີ່ມຂຶ້ນ	-4657
ອົງການຈັດຕັ້ງ	-4658
ກິ	-4659
ade	-4660
ຜັນ	-4661
▁4,	-4662
rica	-4663
ຝ່າຍ	-4664
ະຊວງ	-4665
ເຊັນ	-4666
ເຜົາ	-4667
▁Gal	-4668
▁gal	-4669
▁ຄອມ	-4670
▁ຮາກ	-4671
ເພິ່ນ	-4672
▁Flat	-4673
▁Mold	-4674
ຍີ່ຫໍ້	-4675
ຜິດພາດ	-4676
ອໍານາດ	-4677
▁ການສະ	-4678
▁ແມ່ຍິງ	-4679
▁ແຕ່ລະຄົນ	-4680
▁ຜູ້ສະຫນອງ	-4681
:0	-4682
Hz	-4683
yn	-4684
ເຣ	-4685
ett	-4686
ມາກ	-4687
▁33	-4688
▁as	-4689
▁tr	-4690
▁ແຮ	-4691
ປ່ຽງ	-4692
ເລີຍ	-4693
ແຕ້ມ	-4694
▁ບົບ	-4695
▁ອົກ	-4696
ville	-4697
▁ຊ່ອງ	-4698
ibbean	-4699
ເສບຕິດ	-4700
▁Super	-4701
▁Whats	-4702
ເຊື່ອຖື	-4703
▁Middle	-4704
▁ຜູ້ທີ່	-4705
ຕໍ່ເນື່ອງ	-4706
▁Roulette	-4707
▁Caribbean	-4708
ການຄົ້ນຄວ້າ	-4709
."	-4710
oy	-4711
ava	-4712
isc	-4713
uts	-4714
ບົນ	-4715
ແຂນ	-4716
▁>>	-4717
▁Gu	-4718
▁ຖາ	-4719
ະນຸມ	-4720
ໃຫ້ນ	-4721
▁ຖຽງ	-4722
ລະວັງ	-4723
ເຄິ່ງ	-4724
ເຊົ່າ	-4725
່ອງໄວ	-4726
▁ຢ້ຽມ	-4727
▁ຫລີກ	-4728
▁ເຕົາ	-4729
ບັງຄັບ	-4730
ອັບເດດ	-4731
ປະລິມານ	-4732
▁ໄດ້ຖືກ	-4733
ອັນຕະລາຍ	-4734
▁ເສັ້ນໃຍ	-4735
ຄວາມຮູ້ສຶກ	-4736
ດໍາເນີນງານ	-4737
ທີ່ພວກເຂົາ	-4738
ເຫຼີມສະຫຼອງ	-4739
▁ການປະຕິບັດ	-4740
▁ໃນປັດຈຸບັນ	-4741
48	-4742
OP	-4743
▁6,	-4744
▁7,	-4745
▁Su	-4746
aper	-4747
atal	-4748
ylon	-4749
ຣິກາ	-4750
▁Mon	-4751
▁jet	-4752
▁pre	-4753
▁ຫົກ	-4754
▁ເຕກ	-4755
enter	-4756
ainless	-4757
ໄດ້ຢ່າງ	-4758
▁Africa	-4759
ຫນຶ່ງຂອງ	-4760
▁ບົດຄວາມ	-4761
▁ພື້ນທີ່	-4762
ອໍານວຍການ	-4763
▁ເພື່ອໃຫ້	-4764
▁ຮັບຜິດຊອບ	-4765
ທີ່ມີຊື່ສຽງ	-4766
ໂທລະສັບມືຖື	-4767
ຄະນະກໍາມະການ	-4768
ທີ່ໃຫຍ່ທີ່ສຸດ	-4769
3.	-4770
kw	-4771
.”—	-4772
rip	-4773
ພອນ	-4774
້ວງ	-4775
ຊື່ນ	-4776
ເວັບ	-4777
▁19,	-4778
▁RFC	-4779
▁ຍຸດ	-4780
▁ທູດ	-4781
▁ປ່າ	-4782
▁ສືບ	-4783
clone	-4784
ຕົວເອງ	-4785
ຜູ້ໃຊ້	-4786
▁Other	-4787
▁ອັດຕາ	-4788
▁ອາລົມ	-4789
ນະສົມບັດ	-4790
▁Vaccine	-4791
▁ອະນາຄົດ	-4792
▁ເຫລື້ອມ	-4793
▁Software	-4794
▁ເສດຖະກິດ	-4795
IP	-4796
ບຸ	-4797
ໄຈ	-4798
iam	-4799
iet	-4800
isa	-4801
ປາຍ	-4802
acks	-4803
izer	-4804
ຢ້ານ	-4805
ລຸ່ມ	-4806
ໄຟລ໌	-4807
▁Ext	-4808
▁Tra	-4809
▁ຝັນ	-4810
▁ຢາມ	-4811
ກວ່ານ	-4812
ເປົ່າ	-4813
▁Cast	-4814
cooter	-4815
ທີມງານ	-4816
ໄປບ່ອນ	-4817
▁Email	-4818
ພົບເຫັນ	-4819
ຫຼ້າສຸດ	-4820
ໂຄງສ້າງ	-4821
▁Dining	-4822
▁ທີ່ບໍ່	-4823
ລົງທະບຽນ	-4824
:5	-4825
BA	-4826
ຕຸ	-4827
▁\	-4828
sul	-4829
ສິບ	-4830
າດາ	-4831
perb	-4832
ຫມຶກ	-4833
▁220	-4834
▁cor	-4835
▁ຄຽດ	-4836
▁ທົບ	-4837
▁ປົດ	-4838
▁ສື່	-4839
-2018	-4840
ກະກຽມ	-4841
ຈະຖືກ	-4842
ຍາບັນ	-4843
ລິນຍາ	-4844
ືອບິນ	-4845
ແນໃສ່	-4846
▁ເຂັມ	-4847
andong	-4848
ຄຸນຄ່າ	-4849
ທົດແທນ	-4850
▁Green	-4851
▁ຊອບແວ	-4852
▁Double	-4853
▁Single	-4854
▁ບໍາລຸງ	-4855
ຫມາຍຄວາມ	-4856
▁ກະຕັນຍູ	-4857
▁Americas	-4858
▁ມັນສາມາດ	-4859
ໃນການຜະລິດ	-4860
▁ທີ່ດີທີ່ສຸດ	-4861
▁ຢ່າງໃດກໍຕາມ	-4862
46	-4863
7,	-4864
MS	-4865
PC	-4866
ຕານ	-4867
ຖີ່	-4868
້ຽວ	-4869
▁ທາ	-4870
oint	-4871
rade	-4872
▁Bas	-4873
▁iOS	-4874
▁ຂີ່	-4875
▁ຄອງ	-4876
▁ຊົງ	-4877
▁ດາບ	-4878
▁ຜິວ	-4879
▁2012	-4880
▁Ukra	-4881
▁yarn	-4882
ຕໍ່ການ	-4883
ບານເຕະ	-4884
ປະຫຍັດ	-4885
▁ກະທົບ	-4886
▁ເລົ່າ	-4887
ກຸນເງິນ	-4888
ຂ້າງເທິງ	-4889
ຫມັ້ນຄົງ	-4890
ໃນຂົງເຂດ	-4891
▁Oceania	-4892
ໂດຍສະເພາະ	-4893
▁Products	-4894
ດ້ານວິຊາການ	-4895
8)	-4896
ຈີ	-4897
fly	-4898
its	-4899
oto	-4900
ວາວ	-4901
ໂອນ	-4902
▁Br	-4903
here	-4904
ling	-4905
ster	-4906
ຊີວະ	-4907
ຕື່ມ	-4908
▁ລຸກ	-4909
▁ເລກ	-4910
▁Best	-4911
▁Fran	-4912
▁ຫລອດ	-4913
▁ເລີ່	-4914
ກະຕຸ້ນ	-4915
ແປພາສາ	-4916
ເອກະລັກ	-4917
▁Square	-4918
▁ກະຕຸ້ນ	-4919
perbaric	-4920
ການເມືອງ	-4921
ນ້ໍາຫນັກ	-4922
▁Rikoooo	-4923
ສະຖານະການ	-4924
emb	-4925
ize	-4926
ລໍ້	-4927
▁Kh	-4928
▁sk	-4929
dong	-4930
gden	-4931
ລ້າງ	-4932
▁ຂົນ	-4933
▁ຕີນ	-4934
▁ພິວ	-4935
ransp	-4936
ຕະພາບ	-4937
ຕະຫລາດ	-4938
ໂຮງແຮມ	-4939
▁China	-4940
▁ນໍາພາ	-4941
▁ແລະໃນ	-4942
ມັນເປັນ	-4943
ອົງປະກອບ	-4944
▁Shopify	-4945
▁YouTube	-4946
▁ຄ່າໃຊ້ຈ່າຍ	-4947
ແມ	-4948
-15	-4949
cer	-4950
▁ໄມ	-4951
.0.2	-4952
▁ດັນ	-4953
▁ແຍງ	-4954
ດົນຕີ	-4955
ຕິກໍາ	-4956
ັກນິກ	-4957
▁86-5	-4958
▁Serv	-4959
▁Tube	-4960
▁ປະຊາ	-4961
bygden	-4962
ຄາສິໂນ	-4963
ມາເຖິງ	-4964
ວິສະວະ	-4965
ະນຸມັດ	-4966
▁Video	-4967
▁ຄູ່ມື	-4968
ສອດຄ່ອງ	-4969
▁ເຈົ້າມີ	-4970
▁ປັດຈຸບັນ	-4971
ຂອງປະຊາຊົນ	-4972
ພວກເຮົາສາມາດ	-4973
.’	-4974
OW	-4975
ແບ	-4976
ays	-4977
raw	-4978
ຄຽງ	-4979
ຜັງ	-4980
▁kr	-4981
ance	-4982
ateg	-4983
▁1.5	-4984
▁John	-4985
▁ຖານະ	-4986
▁ປ້າຍ	-4987
▁ຫວັນ	-4988
terest	-4989
▁ເຫຼືອ	-4990
vanized	-4991
ຕະນາການ	-4992
▁Server	-4993
▁spring	-4994
▁ກັນດານ	-4995
▁ສູງສຸດ	-4996
ດ້ວຍຄວາມ	-4997
ສະພາບການ	-4998
▁Ukraine	-4999
▁bitcoin	-5000
▁ທໍາມະດາ	-5001
▁ຫນ້າທີ່	-5002
ຂອງຕົນເອງ	-5003
ຜົນໄດ້ຮັບ	-5004
ໃນປະຈຸບັນ	-5005
ການຄຸ້ມຄອງ	-5006
ປະຕິບັດຕາມ	-5007
▁ເອົາໃຈໃສ່	-5008
▁ຄວາມກົດດັນ	-5009
92	-5010
aud	-5011
ຈີ່	-5012
ອີ້	-5013
▁34	-5014
▁48	-5015
▁Sw	-5016
arin	-5017
ສະນີ	-5018
ຫຍໍ້	-5019
ໍເຕີ	-5020
▁110	-5021
▁Opt	-5022
▁Pan	-5023
▁ຈັນ	-5024
▁ດອນ	-5025
▁ຊ່ວງ	-5026
▁ຍື່ນ	-5027
▁ເຈັດ	-5028
▁ເລີດ	-5029
ບົດບາດ	-5030
▁iPhone	-5031
▁ອິນເດຍ	-5032
ຂອງປະເທດ	-5033
ທາງອາກາດ	-5034
ເສຍຊີວິດ	-5035
▁ທ່ານຮອງ	-5036
▁ພິທີການ	-5037
▁ນັບຕັ້ງແຕ່	-5038
ທີ່ມີປະສິດທິພາບ	-5039
".	-5040
7)	-5041
SS	-5042
rum	-5043
ຝັງ	-5044
ຟອມ	-5045
ອົດ	-5046
ຶ້ງ	-5047
ໂດດ	-5048
່ຽມ	-5049
ຫນົດ	-5050
▁ກົນ	-5051
edust	-5052
▁ມື້ນ	-5053
▁ໂຫຍດ	-5054
ຟື້ນຟູ	-5055
າງຫນ້າ	-5056
▁Solut	-5057
▁sales	-5058
▁ເຄືອບ	-5059
utterfly	-5060
ສ່ວນຮ່ວມ	-5061
▁ເອກະສານ	-5062
ຜ່າສູນກາງ	-5063
ໄປຢ້ຽມຢາມ	-5064
▁ດັ່ງກ່າວ	-5065
ພົນລະເມືອງ	-5066
ທີ່ສົມບູນແບບ	-5067
5%	-5068
ft	-5069
ວບ	-5070
AMI	-5071
ສີດ	-5072
ົາມີ	-5073
▁mod	-5074
▁ກະທ	-5075
oster	-5076
ຍາກາດ	-5077
▁ສະຫະ	-5078
▁ໂທລະ	-5079
ຮັບໃຊ້	-5080
ແຮງດັນ	-5081
ເຂົ້າໃນ	-5082
ແຫນງການ	-5083
▁ຄວບຄຸມ	-5084
ປັກຮັກສາ	-5085
ເລັກນ້ອຍ	-5086
ການພົວພັນ	-5087
ນໍາສະເຫນີ	-5088
ປະດິດສ້າງ	-5089
ຸດົມສົມບູນ	-5090
▁Holmbygden	-5091
66	-5092
72	-5093
MM	-5094
aj	-5095
345	-5096
iff	-5097
ros	-5098
rui	-5099
ຕັນ	-5100
ຢັດ	-5101
ລາມ	-5102
ຫົ່ມ	-5103
ເດີມ	-5104
ເຕີ້	-5105
ເປົາ	-5106
▁ກີດ	-5107
▁ຄາວ	-5108
▁ແງ່	-5109
▁ໄຫລ	-5110
Press	-5111
veyor	-5112
ຕະວັດ	-5113
ລົດໄຟ	-5114
▁ຄວ້າ	-5115
▁ທໍານ	-5116
▁ຮ້າງ	-5117
ມວນຜົນ	-5118
ຄົ້ນພົບ	-5119
ຫົວຫນ້າ	-5120
▁ສະທ້ອນ	-5121
ຕົວເມືອງ	-5122
▁Youjian	-5123
▁cookies	-5124
▁ທຸລະກິດ	-5125
ເຫລົ່ານີ້	-5126
▁ປະເທດຈີນ	-5127
▁Stainless	-5128
ຄວາມເປັນສ່ວນຕົວ	-5129
QS	-5130
SD	-5131
ij	-5132
ຊິ	-5133
ane	-5134
bon	-5135
box	-5136
inj	-5137
ink	-5138
ner	-5139
▁OD	-5140
▁SK	-5141
▁hy	-5142
9002	-5143
▁ກອບ	-5144
ສີຂາວ	-5145
▁Blog	-5146
▁Cage	-5147
▁ຜ່ອນ	-5148
▁ເຍີ້	-5149
ຂອງລັດ	-5150
▁ສັນຕິ	-5151
▁ພຣະຄໍາ	-5152
ຄັດເລືອກ	-5153
ຕັ້ງຢູ່ໃນ	-5154
ທີ່ຖືກຕ້ອງ	-5155
▁Polyester	-5156
▁ເຫຼົ່ານີ້	-5157
▁cryptocurrency	-5158
1-	-5159
?”	-5160
ມິ	-5161
ລໍ	-5162
ສຸ	-5163
▁·	-5164
ati	-5165
ose	-5166
ແກນ	-5167
▁9:	-5168
rick	-5169
ຕ່ອງ	-5170
▁11%	-5171
▁ຈອງ	-5172
▁ນາດ	-5173
▁ສົດ	-5174
ທິພົນ	-5175
▁2006	-5176
▁FAMI	-5177
▁ເຍາະ	-5178
▁Ideas	-5179
▁Smart	-5180
▁ສັດຕູ	-5181
ໂມເລກຸນ	-5182
▁ກ້າຫານ	-5183
▁ປະຫລາດ	-5184
ກວ່ານັ້ນ	-5185
▁Fitting	-5186
▁ແຕກຕ່າງ	-5187
ຂອງໂຄງການ	-5188
▁Shandong	-5189
ອະນຸຍາດໃຫ້	-5190
▁	-5191
aff	-5192
oph	-5193
uff	-5194
ພີມ	-5195
ແທກ	-5196
ໂຮມ	-5197
▁06	-5198
▁3.	-5199
▁FS	-5200
▁or	-5201
iver	-5202
rush	-5203
ລົ້ມ	-5204
▁Tur	-5205
▁ຄຸກ	-5206
▁ມົມ	-5207
▁ອັກ	-5208
uxury	-5209
ystem	-5210
▁ຫວອດ	-5211
▁ຫຼວດ	-5212
ຫນ້າຈໍ	-5213
ນ້ໍາມັນ	-5214
▁Machin	-5215
ທີ່ມີການ	-5216
ທີ່ມີຢູ່	-5217
ສ້າງຄວາມ	-5218
ຕື່ນເຕັ້ນ	-5219
▁ແມ່ນຫຍັງ	-5220
ປະຕິບັດການ	-5221
ແກ້ໄຂບັນຫາ	-5222
▁Pinterest	-5223
,,	-5224
84	-5225
ຖ່	-5226
ຢູ	-5227
▁ໍ	-5228
.10	-5229
uss	-5230
ດັດ	-5231
ໂສ້	-5232
iant	-5233
reak	-5234
ກ່ອງ	-5235
ຊ່ອງ	-5236
▁ລັນ	-5237
▁ອັບ	-5238
allet	-5239
ights	-5240
ລະປິນ	-5241
▁Arch	-5242
▁Page	-5243
▁ຊິ້ນ	-5244
▁ຫຼີກ	-5245
▁ເກີບ	-5246
eramic	-5247
ຜູ້ແທນ	-5248
▁ມາສູ່	-5249
▁ວັດຖຸ	-5250
▁ເພິ່ງ	-5251
limited	-5252
ຄຸນະພາບ	-5253
ຕາງຫນ້າ	-5254
ບໍ່ເຄີຍ	-5255
ປະຊາຄົມ	-5256
ແຕ່ລະຄົນ	-5257
ທີ່ສວຍງາມ	-5258
ຫາພວກເຮົາ	-5259
ແນວຄວາມຄິດ	-5260
ແສງສະຫວ່າງ	-5261
ເພື່ອເຮັດໃຫ້	-5262
KW	-5263
OL	-5264
PP	-5265
ym	-5266
alt	-5267
ild	-5268
olt	-5269
raz	-5270
ມິນ	-5271
ລາສ	-5272
ອອນ	-5273
ໄຫລ	-5274
▁5:	-5275
▁Is	-5276
▁PM	-5277
ຊຶ່ງ	-5278
ມະຫາ	-5279
ລົ້ນ	-5280
ອ້ອມ	-5281
▁(1)	-5282
▁20,	-5283
▁4.0	-5284
▁ຜ່າ	-5285
▁ພູມ	-5286
▁ໂຕ້	-5287
ກ້ວາງ	-5288
▁ສາມີ	-5289
▁ເຈ້ຍ	-5290
igital	-5291
ການຂາຍ	-5292
ຄັ້ງທີ	-5293
ນັກຮຽນ	-5294
ີ້ແມ່ນ	-5295
▁Games	-5296
ຂ້ອຍໄດ້	-5297
ຕ່ອງໂສ້	-5298
ທັດສະນະ	-5299
ບໍລິສຸດ	-5300
▁Design	-5301
▁ມົນທົນ	-5302
▁ສະຫລາດ	-5303
▁ອອກແບບ	-5304
▁ໃຫ້ການ	-5305
ກ້າວຫນ້າ	-5306
ທັນສະໄຫມ	-5307
ໂຮ່ຈີມິນ	-5308
▁ຂ່າວສານ	-5309
▁ບ່ອນທີ່	-5310
ໃນຂະນະທີ່	-5311
▁ຜົນກະທົບ	-5312
▁ອັດສະຈັນ	-5313
ທີ່ບໍ່ແມ່ນ	-5314
ຜູ້ຊ່ຽວຊານ	-5315
ຕິດຕໍ່ຕອນນີ້	-5316
▁‘	-5317
oss	-5318
ຈົບ	-5319
ຊວນ	-5320
ດົກ	-5321
ປີກ	-5322
▁FA	-5323
▁ບຸ	-5324
ness	-5325
ooth	-5326
ທ້າວ	-5327
ລ້ານ	-5328
ຫລ່ງ	-5329
ອຸ່ນ	-5330
ື້ອນ	-5331
▁Ben	-5332
▁Cap	-5333
▁Key	-5334
▁sup	-5335
▁ວາດ	-5336
ທະຫານ	-5337
▁ກ້ອງ	-5338
▁ມະຕະ	-5339
▁ຫມວດ	-5340
ວ່ອງໄວ	-5341
ໍລະດົກ	-5342
▁ເຄິ່ງ	-5343
ເບິ່ງຄື	-5344
ເພາະວ່າ	-5345
▁Univers	-5346
▁ຍຸຕິທໍາ	-5347
▁ຮູບເງົາ	-5348
ທົ່ວປະເທດ	-5349
ຢູ່ທີ່ນີ້	-5350
▁ສະພາບການ	-5351
ສາມາດໄດ້ຮັບການ	-5352
ຂໍ້ມູນເພີ່ມເຕີມ	-5353
pr	-5354
uc	-5355
itt	-5356
led	-5357
off	-5358
ຍົບ	-5359
ືລື	-5360
ໂຕ້	-5361
▁(2	-5362
▁1/	-5363
▁2:	-5364
▁AU	-5365
▁Fe	-5366
▁Sn	-5367
▁ກູ	-5368
ນໍ້າ	-5369
ເສີນ	-5370
▁0.1	-5371
▁61%	-5372
▁Jin	-5373
▁ປຸກ	-5374
ature	-5375
glass	-5376
ຄວນຈະ	-5377
▁Case	-5378
ຂັບລົດ	-5379
ສະທ້ອນ	-5380
ອິນເດຍ	-5381
ເກີນໄປ	-5382
▁2018,	-5383
▁Cheat	-5384
▁ຫລາຍໆ	-5385
ປະທັບໃຈ	-5386
▁Custom	-5387
▁ແຕ່ວ່າ	-5388
ຄວາມສ່ຽງ	-5389
ປະມວນຜົນ	-5390
ຫຼວງຫຼາຍ	-5391
▁Hengrui	-5392
▁ຂໍຂອບໃຈ	-5393
▁ຕໍ່ຫນ້າ	-5394
ຄຸນສົມບັດ	-5395
▁ການກໍ່ສ້າງ	-5396
An	-5397
sk	-5398
="1	-5399
alk	-5400
ປາດ	-5401
▁65	-5402
▁9,	-5403
▁Fo	-5404
▁an	-5405
▁ປິ	-5406
▁ໂຢ	-5407
▁ຄັດ	-5408
▁ຄົມ	-5409
▁ຕັນ	-5410
eless	-5411
ທັກສະ	-5412
ພີມມາ	-5413
ilicon	-5414
ຊັບສິນ	-5415
່າຍຮູບ	-5416
▁Group	-5417
ກັບທ່ານ	-5418
ສິ່ງນີ້	-5419
▁Provin	-5420
▁ບັງຄັບ	-5421
ການພະນັນ	-5422
ຈໍາຫນ່າຍ	-5423
▁ຂ້ອຍໄດ້	-5424
ຄ້າຍຄືກັນ	-5425
ທີ່ໄດ້ຮັບ	-5426
▁ກໍາມະການ	-5427
▁ການຄວບຄຸມ	-5428
97	-5429
OC	-5430
▁?	-5431
ກອບ	-5432
ລວງ	-5433
ົວກ	-5434
ເຈີ	-5435
▁DN	-5436
▁PL	-5437
ible	-5438
ives	-5439
onic	-5440
ລະດູ	-5441
▁10%	-5442
▁Aut	-5443
▁Box	-5444
▁Xin	-5445
▁ຝັງ	-5446
▁ໂຊກ	-5447
ັ່ງມີ	-5448
▁Hang	-5449
▁ສາຂາ	-5450
▁ເກາະ	-5451
▁ແຄ້ນ	-5452
ກັງວົນ	-5453
ທີ່ສູງ	-5454
▁ພາຍໃນ	-5455
ຫນູນຊ່ວຍ	-5456
ໃບອະນຸຍາດ	-5457
▁ສະລັອດຕິງ	-5458
▁ໂດຍທົ່ວໄປ	-5459
▁ແລະຫຼັງຈາກນັ້ນ	-5460
.)	-5461
ເຫ	-5462
▁—	-5463
TFE	-5464
ari	-5465
ກົມ	-5466
ລິບ	-5467
ແອວ	-5468
▁($	-5469
▁8:	-5470
▁AM	-5471
▁ບູ	-5472
rans	-5473
ລະບຸ	-5474
ເລ່ຍ	-5475
▁ປູກ	-5476
▁ແປດ	-5477
▁ໄຕ່	-5478
aster	-5479
ement	-5480
ປູເຈຍ	-5481
ລະບາດ	-5482
▁ເຕີມ	-5483
▁ເວທີ	-5484
▁ເສີນ	-5485
ບໍ່ແຮ່	-5486
ສະຕາລີ	-5487
ສະຫມອງ	-5488
▁ບາງທີ	-5489
ກໍາຫນົດ	-5490
▁ດຽວນີ້	-5491
▁ນາງໄດ້	-5492
▁ລາວໄດ້	-5493
▁ສໍານຶກ	-5494
▁ເອີຣົບ	-5495
ຕໍ່ໄປນີ້	-5496
ມັດລະວັງ	-5497
ຫຼາຍຢ່າງ	-5498
ເຮັດແນວໃດ	-5499
▁Province	-5500
▁ເກົ້າອີ້	-5501
ປະຕິບັດງານ	-5502
▁WordPress	-5503
▁ຄວາມສາມາດ	-5504
▁ວິສາຫະກິດ	-5505
▁ນອກຈາກນັ້ນ	-5506
▁ກຸ່ມນະໂຍບາຍ	-5507
91	-5508
ໄຕ	-5509
755	-5510
ces	-5511
uri	-5512
ຄຸກ	-5513
ຈື່	-5514
▁CR	-5515
▁pe	-5516
ໄຮໂດ	-5517
▁24,	-5518
▁ປຽບ	-5519
▁ມາກ	-5520
▁ມຸມ	-5521
color	-5522
cript	-5523
ength	-5524
ຊາກອນ	-5525
ພະຍົບ	-5526
ອອກມາ	-5527
▁Comm	-5528
▁High	-5529
▁ຄຣິດ	-5530
▁ບິດາ	-5531
▁ຢູ່ນ	-5532
ກໍາຈັດ	-5533
ສໍາພັດ	-5534
ແມ່ນມີ	-5535
ໃກ້ຊິດ	-5536
ວັດທະນາ	-5537
▁Dedust	-5538
▁lovers	-5539
▁ອັງກິດ	-5540
▁ທະນາຄານ	-5541
▁WhatsApp	-5542
▁ຂຽນເມື່ອ	-5543
▁ຄວາມຫມາຍ	-5544
▁ນອກເຫນືອ	-5545
▁Hyperbaric	-5546
▁ໃນຖານະເປັນ	-5547
ການເຊື່ອມຕໍ່	-5548
▁ພວກເຮົາມີຄວາມ	-5549
/0	-5550
PY	-5551
ji	-5552
mg	-5553
▁`	-5554
-19	-5555
osm	-5556
ຖີບ	-5557
ແກຼ	-5558
▁3:	-5559
▁CD	-5560
▁EV	-5561
▁ຜີ	-5562
▁ຫະ	-5563
gram	-5564
ັນທີ	-5565
▁ສູບ	-5566
▁ໄຫວ	-5567
ອາຈານ	-5568
▁PTFE	-5569
▁with	-5570
▁ລະດູ	-5571
▁ຫມັກ	-5572
▁ຮຸ່ງ	-5573
ຄິດໄລ່	-5574
ສະຫວັນ	-5575
eyelash	-5576
ກວມເອົາ	-5577
ປະຕິວັດ	-5578
ືລືລົ້ນ	-5579
▁Alumin	-5580
▁ຂອງການ	-5581
▁ແຜນຜັງ	-5582
ຊົນເຜົ່າ	-5583
▁ຈົດຫມາຍ	-5584
▁ປາຖະຫນາ	-5585
ບໍ່ພຽງແຕ່	-5586
ບໍ່ມີຄວາມ	-5587
ເລືອກເອົາ	-5588
ໃນອະນາຄົດ	-5589
▁ທີ່ໃຊ້ເວລາ	-5590
ຸດຄົ້ນບໍ່ແຮ່	-5591
▁ບັນຊີຜະລິດຕະພັນ	-5592
vc	-5593
ດີດ	-5594
ໂມນ	-5595
▁(0	-5596
▁Gh	-5597
▁Ha	-5598
▁ID	-5599
▁NO	-5600
▁ສິ	-5601
view	-5602
ລັອກ	-5603
ແກຼມ	-5604
▁Can	-5605
▁Cle	-5606
▁app	-5607
▁ກະດ	-5608
▁ຈັງ	-5609
▁ຊິດ	-5610
▁ທໍ້	-5611
ໃນເຂດ	-5612
▁mold	-5613
▁ທ່ຽວ	-5614
▁ຫນາວ	-5615
ສະຫງົບ	-5616
ເສຍຫາຍ	-5617
ໃຊ້ໄດ້	-5618
▁ລະບຽບ	-5619
▁Golden	-5620
▁ເບື້ອງ	-5621
ransposh	-5622
ຈັນຍາບັນ	-5623
▁ຄວາມທຸກ	-5624
▁ພາສາລາວ	-5625
▁ຄອມພິວເຕີ	-5626
ທີ່ທ່ານສາມາດ	-5627
ມະຫາວິທະຍາໄລ	-5628
ລະຫວ່າງປະເທດ	-5629
▁ນັກຄົ້ນຄວ້າ	-5630
ຂໍ້ມູນກ່ຽວກັບ	-5631
ep	-5632
to	-5633
als	-5634
gan	-5635
ຄົບ	-5636
ຕີກ	-5637
▁At	-5638
▁MT	-5639
▁ຂາ	-5640
sung	-5641
ທໍານ	-5642
ບ່າຍ	-5643
ິນາດ	-5644
ເສລີ	-5645
▁Ari	-5646
▁ຊັກ	-5647
▁ນາມ	-5648
▁ປັກ	-5649
▁ແຖວ	-5650
▁Iron	-5651
▁ທະເລ	-5652
▁ປຸ່ມ	-5653
▁ຫຼຽນ	-5654
▁ເຫັງ	-5655
rading	-5656
▁ປະພຶດ	-5657
ຕັ້ງຄ່າ	-5658
ບໍລິເວນ	-5659
ສໍາຫລັບ	-5660
ແລະເປັນ	-5661
▁Center	-5662
▁ກາງຄືນ	-5663
▁ບົດບາດ	-5664
▁ອົດທົນ	-5665
ຍັງສາມາດ	-5666
▁ການແກ້ໄຂ	-5667
▁ເຄືອຂ່າຍ	-5668
▁ໂຮ່ຈີມິນ	-5669
້ອງຖ່າຍຮູບ	-5670
▁ການປິ່ນປົວ	-5671
▁ສະຫງວນລິຂະສິດ	-5672
CN	-5673
EA	-5674
]:	-5675
oon	-5676
ດັງ	-5677
▁04	-5678
▁UK	-5679
ຈ້າງ	-5680
ຊັ່ນ	-5681
ດື່ມ	-5682
ດູແລ	-5683
▁San	-5684
▁can	-5685
▁per	-5686
▁ບາກ	-5687
▁ເກດ	-5688
▁ໂຣກ	-5689
ມານີ້	-5690
ຫົວໃຈ	-5691
▁ຂວັນ	-5692
▁ລຸ່ມ	-5693
▁ຫຼຸດ	-5694
▁ເສົາ	-5695
▁ແນັດ	-5696
ຊັດເຈນ	-5697
ດຶງດູດ	-5698
ທຽບໃສ່	-5699
ລາຍໄດ້	-5700
ວິທະຍາ	-5701
ສັບສົນ	-5702
ຮຸນແຮງ	-5703
າກຫຼາຍ	-5704
▁Theme	-5705
▁block	-5706
▁ຈາລຶກ	-5707
▁ມັນມີ	-5708
ກໍາເນີດ	-5709
ບ່ອນທີ່	-5710
ປະຈໍາປີ	-5711
ອຸດສາຫະ	-5712
▁ຊຸກຍູ້	-5713
▁ນັກຮຽນ	-5714
aricella	-5715
ບັນດານັກ	-5716
ະລູມິນຽມ	-5717
ຕາເວັນຕົກ	-5718
ໃບຢັ້ງຢືນ	-5719
▁Solutions	-5720
▁ບົດລາຍງານ	-5721
ບັນດາວິສາຫະກິດ	-5722
OD	-5723
ບູ	-5724
ION	-5725
red	-5726
ກຽດ	-5727
ເມນ	-5728
ແນະ	-5729
▁5,	-5730
▁CF	-5731
▁Di	-5732
anta	-5733
ຈົ່ງ	-5734
ຊ່ວງ	-5735
▁Ass	-5736
▁PCB	-5737
▁Rob	-5738
▁ປາຍ	-5739
▁ສຸມ	-5740
▁FXCL	-5741
▁Pump	-5742
▁jack	-5743
▁ທົ່ງ	-5744
verter	-5745
ຮ້ອງຂໍ	-5746
ເຫຼືອງ	-5747
▁Beach	-5748
▁Hebei	-5749
▁ແລະມີ	-5750
ຄວາມຮັກ	-5751
ຕ້ານທານ	-5752
ເຜີຍແຜ່	-5753
້ອນຂ້າງ	-5754
▁ຄົ້ນຫາ	-5755
▁ບົດຮຽນ	-5756
▁ປີແຫ່ງ	-5757
▁ເມື່ອຍ	-5758
▁ຮຽກຮ້ອງ	-5759
ຮ່ວມມືກັບ	-5760
▁ນັກສຶກສາ	-5761
▁ໃຫ້ຮູ້ວ່າ	-5762
ສະເຫຼີມສະຫຼອງ	-5763
,”	-5764
ໂຈ	-5765
pot	-5766
ຊິນ	-5767
ທຽມ	-5768
ມຸມ	-5769
▁TT	-5770
▁ວີ	-5771
ຫລວງ	-5772
▁28,	-5773
▁web	-5774
▁ຄຽງ	-5775
▁ປີກ	-5776
ຈະນໍາ	-5777
ຝຣັ່ງ	-5778
ອາຊຽນ	-5779
ເສື້ອ	-5780
ໍານານ	-5781
▁3000	-5782
▁Type	-5783
▁ຄ່ອຍ	-5784
▁ພົ້ນ	-5785
▁ລ້ອມ	-5786
▁ຫນົມ	-5787
▁ແຫວງ	-5788
▁Phone	-5789
▁ສົນໃຈ	-5790
▁ເດັ່ນ	-5791
unction	-5792
ເລື້ອຍໆ	-5793
ນັ້ນແມ່ນ	-5794
ຫັດສະຈັນ	-5795
ເປີດເຜີຍ	-5796
ແນ່ໃຈວ່າ	-5797
▁ສົນທະນາ	-5798
▁ເຂົ້າໃຈ	-5799
ການທົດລອງ	-5800
ພາກສະຫນາມ	-5801
ອມພິວເຕີ້	-5802
ທີ່ເຮັດໃຫ້	-5803
PE	-5804
▁→	-5805
ຍືດ	-5806
▁8,	-5807
▁La	-5808
▁RN	-5809
▁ຊມ	-5810
▁ເຝ	-5811
iler	-5812
mail	-5813
▁Rem	-5814
▁Tri	-5815
ລະບາຍ	-5816
ຫລາຍໆ	-5817
▁roll	-5818
▁ຖ້ວນ	-5819
▁ສະຫລ	-5820
▁ເມີດ	-5821
ກາກບອນ	-5822
ລະເບີດ	-5823
ວົງຈອນ	-5824
ສະນັ້ນ	-5825
ເສຍຄ່າ	-5826
▁ຊອກຫາ	-5827
▁ປະທັບ	-5828
▁ພິນາດ	-5829
▁ເຄັ່ງ	-5830
ດາວໂຫລດ	-5831
ຮ້າຍແຮງ	-5832
ະນິດສາດ	-5833
▁System	-5834
▁ເຟສບຸກ	-5835
ໃນມື້ນີ້	-5836
▁ວາລະສານ	-5837
▁ເຂົ້າມາ	-5838
▁ສະແຕນເລດ	-5839
ກົງກັນຂ້າມ	-5840
ວັດທະນາການ	-5841
▁Guangdong	-5842
▁Varicella	-5843
▁ລາຄາປົກກະຕິ	-5844
ຢ່າງຕໍ່ເນື່ອງ	-5845
▁ສະແດງໃຫ້ເຫັນ	-5846
▁ເຊັ່ນດຽວກັນກັບ	-5847
ທີ່ມີຄຸນນະພາບສູງ	-5848
ca	-5849
ຜະ	-5850
ແຟ	-5851
ໄນ	-5852
-12	-5853
Pro	-5854
amb	-5855
ata	-5856
con	-5857
ຄາວ	-5858
ຫຼີ	-5859
▁4.	-5860
▁bl	-5861
▁ຟູ	-5862
▁ລຸ	-5863
azon	-5864
ຫະນະ	-5865
ຮົ້ວ	-5866
▁23,	-5867
▁Glo	-5868
▁Ref	-5869
▁ຊ້າ	-5870
▁ຍອດ	-5871
antom	-5872
icker	-5873
ະນາໄມ	-5874
▁ຜູ້ນ	-5875
▁ເບີກ	-5876
▁Jiang	-5877
ຈັດສົ່ງ	-5878
ສອບເສັງ	-5879
ສິລະປິນ	-5880
ຫຼັກສູດ	-5881
ເຕັກນິກ	-5882
ສິນເຊື່ອ	-5883
▁Cyclone	-5884
▁Powered	-5885
▁ບໍລິຈາກ	-5886
▁ໃນເດືອນ	-5887
ຂອງເຄື່ອງ	-5888
ຜັນຂະຫຍາຍ	-5889
ສະລັອດຕິງ	-5890
▁ການແປພາສາ	-5891
▁ເປົ້າຫມາຍ	-5892
▁University	-5893
CE	-5894
cn	-5895
dy	-5896
ບາ	-5897
ຣິ	-5898
ags	-5899
ret	-5900
▁03	-5901
▁85	-5902
▁ST	-5903
▁co	-5904
▁ແຟ	-5905
char	-5906
ouch	-5907
ຫຼີກ	-5908
ໍ້ໄຟ	-5909
▁18,	-5910
▁Inc	-5911
▁One	-5912
▁Wir	-5913
▁ປອບ	-5914
▁ສະດ	-5915
▁ເບີ	-5916
▁ເປີ	-5917
ຍິນດີ	-5918
ປະຢັດ	-5919
ເສົ້າ	-5920
▁Java	-5921
▁ຖ່າຍ	-5922
▁ສະຫຼ	-5923
▁ຫວານ	-5924
ກອງທຶນ	-5925
ຂະແຫນງ	-5926
ໃຫ້ການ	-5927
ຖ້າທ່ານ	-5928
ຫນ້າຂອງ	-5929
ໃນບັນດາ	-5930
▁custom	-5931
ກໍານົດໄວ້	-5932
ສະກຸນເງິນ	-5933
ໃນລະຫວ່າງ	-5934
▁Copyshop	-5935
ສາດສະຫນາຈັກ	-5936
▁ຄວາມອາດສາມາດ	-5937
41	-5938
89	-5939
★★	-5940
ຝັນ	-5941
ລາງ	-5942
▁(4	-5943
▁TR	-5944
arch	-5945
ຄະດີ	-5946
ເສົາ	-5947
ແລ່ນ	-5948
ໂທຫາ	-5949
▁1.0	-5950
▁lot	-5951
▁ປອມ	-5952
▁ພັບ	-5953
▁ຮຽບ	-5954
ກິດຈະ	-5955
ຫນ່າງ	-5956
ເນັ້ນ	-5957
▁ມະຫາ	-5958
▁ເຍຊູ	-5959
▁ເສລີ	-5960
▁ແຕ່ວ	-5961
ຊີ້ວັດ	-5962
ລັດເຊຍ	-5963
ວາງແຜນ	-5964
▁ອາຊີບ	-5965
▁ເຫລັກ	-5966
▁ໃນຕອນ	-5967
▁ຢືນຢັນ	-5968
ຂ້ອນຂ້າງ	-5969
ລະບົບການ	-5970
▁ອານາຈັກ	-5971
ຄວາມສົນໃຈ	-5972
ສໍາລັບຜູ້	-5973
ເພີ່ມທະວີ	-5974
ພາຍໃນປະເທດ	-5975
ຮຽກຮ້ອງໃຫ້	-5976
ms	-5977
ສ໌	-5978
113	-5979
203	-5980
ago	-5981
ມຸດ	-5982
ີ້ມ	-5983
▁39	-5984
▁El	-5985
ager	-5986
aint	-5987
raph	-5988
ຫນາວ	-5989
ເມີດ	-5990
ເສີດ	-5991
▁900	-5992
▁ຂາວ	-5993
▁ປວງ	-5994
▁ໂມນ	-5995
ender	-5996
ກະທໍາ	-5997
ທີສາມ	-5998
ວັດຖຸ	-5999
▁ທ່າມ	-6000
ຕໍ່ສູ້	-6001
▁Motor	-6002
▁inter	-6003
▁ອຸທິດ	-6004
ຖ່ານຫີນ	-6005
ວ່າດ້ວຍ	-6006
ຫຍໍ້ຂອງ	-6007
ເດັກຍິງ	-6008
ເຮືອບິນ	-6009
▁ສົມລົດ	-6010
ຢ່າງເຕັມ	-6011
ຫຼາກຫຼາຍ	-6012
▁ເງິນຝາກ	-6013
ທີ່ຕ້ອງການ	-6014
ນັບຕັ້ງແຕ່	-6015
ຈະໄດ້ຮັບການ	-6016
ນັກຄົ້ນຄວ້າ	-6017
▁ໃນຄວາມເປັນຈິງ	-6018
ged	-6019
ລາດ	-6020
ສິງ	-6021
້ຽນ	-6022
▁0.	-6023
▁JW	-6024
▁ap	-6025
ເກີບ	-6026
ແຫວງ	-6027
ໂນ້ມ	-6028
▁(1,	-6029
▁125	-6030
▁130	-6031
▁Rot	-6032
▁ຝົນ	-6033
▁ຮອຍ	-6034
ຕະການ	-6035
ຫຼາຍໆ	-6036
▁(200	-6037
▁Seal	-6038
▁ລ່ຽງ	-6039
▁ຫລຸດ	-6040
ບໍາລຸງ	-6041
ເຂົາມີ	-6042
▁ບັນພະ	-6043
▁ຫຍຸ້ງ	-6044
▁ທາງວິນ	-6045
▁ພາຍໃຕ້	-6046
ສາສະຫມັກ	-6047
ອົບພະຍົບ	-6048
▁Digital	-6049
▁Samsung	-6050
▁ກໍ່ສ້າງ	-6051
ທາງສັງຄົມ	-6052
▁Aluminum	-6053
ຊ່ວຍໃຫ້ທ່ານ	-6054
▁ການຢັ້ງຢືນ	-6055
▁ຂຽນເມື່ອສຸດ	-6056
ດໍາເນີນທຸລະກິດ	-6057
▁ເສັ້ນໃຍສັງເຄາະ	-6058
IR	-6059
pa	-6060
pm	-6061
ye	-6062
ໍກ	-6063
800	-6064
bed	-6065
unn	-6066
ກຸມ	-6067
ແຈກ	-6068
ໂທດ	-6069
໊ອກ	-6070
▁se	-6071
▁ຫູ	-6072
guan	-6073
olis	-6074
ໍໂມນ	-6075
▁180	-6076
▁ພົວ	-6077
▁ສາກ	-6078
▁ໂຈມ	-6079
store	-6080
ນ້ອຍໆ	-6081
ຟຣິກາ	-6082
▁Char	-6083
▁Sand	-6084
▁ຄ່ໍາ	-6085
▁ປື້ມ	-6086
▁ຫນີ້	-6087
ulator	-6088
ຕະຫລອດ	-6089
ບາງຄົນ	-6090
▁Mount	-6091
▁Nylon	-6092
▁ບັນຈຸ	-6093
▁ປະສົງ	-6094
ຜົມສ່ວນ	-6095
▁ສືບຕໍ່	-6096
▁ໂຮງແຮມ	-6097
ຈົດທະບຽນ	-6098
▁ນ້ໍາມັນ	-6099
▁ແມ່ນການ	-6100
▁ໃນປະເທດ	-6101
▁ສົ່ງເສີມ	-6102
ເຊື່ອມໂລຫະ	-6103
▁ຖ້າຫາກວ່າ	-6104
▁ແລະພວກເຮົາ	-6105
69	-6106
71	-6107
GO	-6108
HS	-6109
UN	-6110
yt	-6111
ກີ	-6112
▁฿	-6113
ACK	-6114
umm	-6115
ves	-6116
ກາດ	-6117
ປະຖ	-6118
ເບີ	-6119
້ວມ	-6120
▁4:	-6121
▁By	-6122
ippi	-6123
ປ່ອງ	-6124
▁10,	-6125
▁11,	-6126
▁Arm	-6127
▁Bul	-6128
▁sol	-6129
ບຸລຸດ	-6130
ປະດັບ	-6131
▁Cent	-6132
▁Mill	-6133
▁Part	-6134
▁ປ່ຽງ	-6135
ກັນແລະ	-6136
ຊີ້ນໍາ	-6137
ຕີລາຄາ	-6138
ປະເຊີນ	-6139
ຸ່ນຍົນ	-6140
ໄດ້ຍິນ	-6141
▁Apple	-6142
▁Excel	-6143
▁ອາວຸດ	-6144
issippi	-6145
ແຜ່ນດິນ	-6146
ໄດ້ເຫັນ	-6147
▁ໂຮງງານ	-6148
ຢູ່ໃນການ	-6149
▁ພັກຜ່ອນ	-6150
▁ອະທິການ	-6151
▁ເຈົ້າຂໍ	-6152
ທີ່ຮູ້ຈັກ	-6153
▁Portable	-6154
ການບໍລິຫານ	-6155
ຂອງຫວຽດນາມ	-6156
ຜົມສ່ວນບົນ	-6157
ເປັນທາງການ	-6158
▁Changzhou	-6159
▁ຄວາມປອດໄພ	-6160
▁ຊ່ວຍເຫຼືອ	-6161
▁ຊື່ຫຍໍ້ຂອງ	-6162
▁ຄໍາຮ້ອງສະຫມັກ	-6163
LE	-6164
PR	-6165
SM	-6166
the	-6167
ກົວ	-6168
ຊະນ	-6169
ແກະ	-6170
▁44	-6171
▁AR	-6172
▁PH	-6173
▁Si	-6174
illa	-6175
rice	-6176
ຍ້ອງ	-6177
ສະດີ	-6178
ຫາລື	-6179
ເກົາ	-6180
ເທຣດ	-6181
ເພນີ	-6182
ໃຊ້ອ	-6183
▁Har	-6184
-2020	-6185
ກະດູກ	-6186
ຫນ່ວງ	-6187
ເຈັບປ	-6188
▁APEC	-6189
▁Chat	-6190
▁Hand	-6191
▁ກິໂລ	-6192
▁ລ້າງ	-6193
rusher	-6194
ສະຖິຕິ	-6195
▁ລະອຽດ	-6196
▁ອາການ	-6197
ຄົນເຈັບ	-6198
ຕີກະຊວງ	-6199
ເຮັດງານ	-6200
ໃນເດືອນ	-6201
▁Cheats	-6202
▁ແຜນການ	-6203
▁ສະມາຄົມ	-6204
ການເຕີບໂຕ	-6205
ທີ່ດີກວ່າ	-6206
ໂດຍທົ່ວໄປ	-6207
▁Conveyor	-6208
▁ຂະບວນການ	-6209
ການປ້ອງກັນ	-6210
ເຊົ້າວັນທີ	-6211
▁ເອເລັກໂຕຣນິກ	-6212
42	-6213
VN	-6214
hy	-6215
ka	-6216
tr	-6217
▁±	-6218
for	-6219
opt	-6220
ຍຸດ	-6221
ຕົງ	-6222
ບເບ	-6223
ມຸງ	-6224
▁02	-6225
▁BS	-6226
ayer	-6227
eter	-6228
ters	-6229
ພໍໃຈ	-6230
ສົ້ມ	-6231
▁21,	-6232
▁Per	-6233
▁Pur	-6234
▁Sim	-6235
▁ກົມ	-6236
▁ດີກ	-6237
▁ນຸດ	-6238
▁ອຶດ	-6239
▁ໂຕນ	-6240
ບເບິນ	-6241
ປານໃດ	-6242
ພະຈິກ	-6243
ົາລົບ	-6244
▁2005	-6245
▁Prec	-6246
▁Tour	-6247
▁back	-6248
andard	-6249
ສະເລ່ຍ	-6250
ເຕັມໄປ	-6251
▁Cloud	-6252
▁ອົງສາ	-6253
duction	-6254
ຕ້ອງໄດ້	-6255
ສ່ຽງໃຕ້	-6256
ອະທິຖານ	-6257
ເຂົ້າມາ	-6258
▁ຍອມຮັບ	-6259
▁ປັບປຸງ	-6260
▁ມັນໄດ້	-6261
ເປັນເວລາ	-6262
ເວທີປາໄສ	-6263
▁ກາຍເປັນ	-6264
▁ປະຕິເສດ	-6265
ຂອງພຣະອົງ	-6266
ບົດລາຍງານ	-6267
ເລື່ອງນີ້	-6268
ການແຂ່ງຂັນ	-6269
ຄອມພິວເຕີ້	-6270
ຄູ່ຮ່ວມງານ	-6271
ປະສົມປະສານ	-6272
▁ກະລຸນາໃສ່	-6273
▁ເຈົ້າຈຶ່ງ	-6274
▁ເພີ່ມເຕີມ	-6275
ຄວາມພະຍາຍາມ	-6276
▁ໄດ້ຈັດຕັ້ງ	-6277
▁ກ່າວຄໍາເຫັນ	-6278
▁ສໍາລັບຜູ້ຊາຍ	-6279
▁ເສັ້ນຜ່າສູນກາງ	-6280
1:	-6281
61	-6282
IV	-6283
OV	-6284
ຄໍ	-6285
ທາ	-6286
໊າ	-6287
use	-6288
ົ່ນ	-6289
ເກີ	-6290
ເມດ	-6291
ແກ້	-6292
▁AT	-6293
▁Li	-6294
▁OS	-6295
▁up	-6296
▁ຈໍ	-6297
form	-6298
ross	-6299
very	-6300
ຫລານ	-6301
▁2.5	-6302
▁Ang	-6303
▁Fer	-6304
▁Pat	-6305
▁Ray	-6306
▁Sou	-6307
erved	-6308
ກາຕູນ	-6309
ນະບົດ	-6310
▁Book	-6311
▁pump	-6312
ຕາມການ	-6313
ຕົວແບບ	-6314
ບັນດາກ	-6315
ວັດແທກ	-6316
ສັນຍານ	-6317
▁Crack	-6318
ກ່າວວ່າ	-6319
ຂຶ້ນກັບ	-6320
ຜ່ານການ	-6321
▁ທີ່ໄດ້	-6322
▁ປະຫວັດ	-6323
▁ເສຍຫາຍ	-6324
▁scooter	-6325
▁ກະເປົ໋າ	-6326
▁ບັນເທີງ	-6327
ຈັດອັນດັບ	-6328
ຕົ້ນສະບັບ	-6329
ການກໍ່ສ້າງ	-6330
ສິ່ງທີ່ທ່ານ	-6331
GB	-6332
VD	-6333
cy	-6334
ze	-6335
zz	-6336
-01	-6337
ara	-6338
hua	-6339
ird	-6340
stR	-6341
uge	-6342
ກະທ	-6343
ຮົບ	-6344
▁Dr	-6345
ragm	-6346
ຫນົມ	-6347
ຫວານ	-6348
▁22,	-6349
▁FAQ	-6350
▁Gas	-6351
▁Max	-6352
▁Roy	-6353
▁lad	-6354
▁ຍູ້	-6355
▁ທີມ	-6356
▁ຫິວ	-6357
▁ແກນ	-6358
rylic	-6359
ຄູ່ມື	-6360
ໄສທັດ	-6361
▁Plus	-6362
▁View	-6363
▁wood	-6364
▁ວິຊາ	-6365
▁ແຍ້ງ	-6366
ategor	-6367
ການພິມ	-6368
ດໍາລົງ	-6369
ບໍ່ຮູ້	-6370
ຜູ້ຄົນ	-6371
stRider	-6372
ມີຊີວິດ	-6373
ນຸ່ງຫົ່ມ	-6374
ສ້າງຂື້ນ	-6375
▁Service	-6376
oundation	-6377
▁ເຂົ້າກັນ	-6378
ວ່າມັນເປັນ	-6379
ເຖິງແມ່ນວ່າ	-6380
▁ແນວຄວາມຄິດ	-6381
▁ແລະພວກເຂົາ	-6382
▁ງານວາງສະແດງ	-6383
!”	-6384
--	-6385
43	-6386
82	-6387
IA	-6388
QL	-6389
bs	-6390
ha	-6391
vi	-6392
ທຸ	-6393
axy	-6394
ຊ້າ	-6395
▁Ox	-6396
▁SS	-6397
▁sm	-6398
▁ຈີ	-6399
▁ຊິ	-6400
▁ຝາ	-6401
▁ອິ	-6402
tery	-6403
ຊ່ອຍ	-6404
ນ້ອງ	-6405
ມ່ວນ	-6406
າວອນ	-6407
ເຈ້ຍ	-6408
ໄວວາ	-6409
▁10:	-6410
▁30%	-6411
▁380	-6412
▁CHF	-6413
▁ກວນ	-6414
▁ທຶນ	-6415
▁ທຽນ	-6416
▁ປຸງ	-6417
▁ລອຍ	-6418
▁ລີ້	-6419
▁ແດນ	-6420
▁ໂອ້	-6421
ທີ່ເຄ	-6422
ປະກົດ	-6423
ພະແນກ	-6424
າດຊາຍ	-6425
▁King	-6426
▁Pass	-6427
▁ຊ່າງ	-6428
▁ມິຕິ	-6429
▁ຫ້າມ	-6430
▁ອຸປະ	-6431
▁ອຸ່ນ	-6432
▁ເຊັບ	-6433
atalog	-6434
ທີ່ວ່າ	-6435
ບົດຮຽນ	-6436
ອັກສອນ	-6437
▁ມັນຈະ	-6438
▁ອີເມວ	-6439
aphragm	-6440
ການປ່ອຍ	-6441
ບົດຄວາມ	-6442
ປະກັນໄພ	-6443
ສັດລ້ຽງ	-6444
ອະນຸມັດ	-6445
ເອກະຊົນ	-6446
ໃນຊີວິດ	-6447
▁Amazon	-6448
▁Christ	-6449
▁casino	-6450
▁ບໍ່ໄດ້	-6451
▁ສະຖານີ	-6452
▁ສະຖາບັນ	-6453
ສະຫນາມບິນ	-6454
ສົມທົບກັບ	-6455
ແລະເຄື່ອງ	-6456
▁ດ້ວຍຄວາມ	-6457
▁ເຂັ້ມແຂງ	-6458
▁ຄຸນສົມບັດ	-6459
▁ໃນລະຫວ່າງ	-6460
ຫມາຍຄວາມວ່າ	-6461
ໃຫ້ເຂົາເຈົ້າ	-6462
ຄວາມຄິດສ້າງສັນ	-6463
ໄດ້ຢ່າງງ່າຍດາຍ	-6464
KG	-6465
ls	-6466
ກູ	-6467
ຫໍ	-6468
VAC	-6469
oor	-6470
ກວນ	-6471
ຂຸມ	-6472
ຍາມ	-6473
ຖອນ	-6474
ບຽງ	-6475
ລືມ	-6476
ອົກ	-6477
▁EN	-6478
▁It	-6479
oard	-6480
play	-6481
ປ້າຍ	-6482
ແຕ່ວ	-6483
▁Ber	-6484
▁GBP	-6485
▁Rad	-6486
▁Ult	-6487
▁ກູ້	-6488
▁ຄຶດ	-6489
▁ແພດ	-6490
▁ໂຕະ	-6491
ພະຍານ	-6492
ອາການ	-6493
▁Test	-6494
▁card	-6495
▁ກັ້ນ	-6496
▁ຊໍ້າ	-6497
▁ສໍ່າ	-6498
▁ໂດລາ	-6499
▁ໄຫມ້	-6500
ທິດຖານ	-6501
▁insul	-6502
▁Direct	-6503
▁ສອບຖາມ	-6504
▁ເຫລົ້າ	-6505
▁ເຫຼົ້າ	-6506
▁ຄວາມຍາວ	-6507
ລະດັບຄວາມ	-6508
ເນື່ອງຈາກ	-6509
▁Solenoid	-6510
▁Wireless	-6511
ໄດ້ຖືກນໍາໃຊ້	-6512
▁ເນື່ອງຈາກວ່າ	-6513
4.	-6514
51	-6515
EF	-6516
UB	-6517
UM	-6518
gy	-6519
ky	-6520
ຶບ	-6521
esc	-6522
ola	-6523
way	-6524
ຂີ່	-6525
ຊຶມ	-6526
ພັບ	-6527
ມໄຟ	-6528
ລອດ	-6529
ຮານ	-6530
ແຂກ	-6531
ແຍງ	-6532
▁Kn	-6533
▁Lo	-6534
▁Pa	-6535
ient	-6536
rost	-6537
ອະນຸ	-6538
▁Bay	-6539
▁Jun	-6540
▁Mel	-6541
▁Pip	-6542
▁gsm	-6543
▁ຖັດ	-6544
▁ໂຈນ	-6545
▁ໂພດ	-6546
imate	-6547
ບນ້ໍາ	-6548
ສະມັດ	-6549
ສະຫຼະ	-6550
ສີຂຽວ	-6551
ັດທະນ	-6552
▁Cart	-6553
▁Lock	-6554
▁inst	-6555
▁ຕົວະ	-6556
▁ເຈາະ	-6557
ຜູ້ຊົມ	-6558
ຜ່າຕັດ	-6559
ມິຖຸນາ	-6560
▁Flash	-6561
▁ຖົງມື	-6562
▁ສັ້ນໆ	-6563
ພຶດສະພາ	-6564
ຢູ່ເທິງ	-6565
ສ່ວນຂອງ	-6566
ຫລັງຈາກ	-6567
ເງິນຝາກ	-6568
▁online	-6569
ການແກ້ໄຂ	-6570
ຂອງເຈົ້າ	-6571
ປະກອບການ	-6572
▁ຕິດຕັ້ງ	-6573
▁ທ່າມກາງ	-6574
ສ່ວນປະກອບ	-6575
▁ອະທິດຖານ	-6576
▁ຮັບປະກັນ	-6577
ສອດຄ່ອງກັບ	-6578
▁ປີແຫ່ງວັນ	-6579
ທີ່ໄດ້ຮັບການ	-6580
ຜູ້ເຂົ້າຮ່ວມ	-6581
73	-6582
iy	-6583
▁≥	-6584
oot	-6585
ທອງ	-6586
ຢາຍ	-6587
ສືບ	-6588
ັກຄ	-6589
▁(6	-6590
▁58	-6591
▁6:	-6592
▁DR	-6593
▁PN	-6594
▁RF	-6595
▁TH	-6596
▁te	-6597
▁ຕູ	-6598
▁ນຸ	-6599
cept	-6600
itch	-6601
rome	-6602
ທະຍຸ	-6603
▁Bro	-6604
▁ITS	-6605
ounty	-6606
ຕໍ່ມາ	-6607
ທິການ	-6608
ລະຄອນ	-6609
ວບລວມ	-6610
ຫລິ້ນ	-6611
ອຸທິດ	-6612
ໃນວັນ	-6613
▁1200	-6614
▁Coin	-6615
▁ຟ້າວ	-6616
▁ຫວັດ	-6617
ລະເມີດ	-6618
ສອງສາມ	-6619
▁2019,	-6620
▁Board	-6621
▁ກະທູ້	-6622
ຊົ່ວໂມງ	-6623
ລາຄາຖືກ	-6624
ຫຸ້ມຂອງ	-6625
▁Tattoo	-6626
▁ທີ່ຖືກ	-6627
▁ສົມບັດ	-6628
▁ເລື່ອນ	-6629
osterone	-6630
ອີກເທື່ອ	-6631
ເວລານັ້ນ	-6632
ແບບຍືນຍົງ	-6633
ຄິດກ່ຽວກັບ	-6634
ເຮັດງານທໍາ	-6635
▁ການທົດສອບ	-6636
▁ຄວາມກວ້າງ	-6637
ອຸດົມສົມບູນ	-6638
▁ເມື່ອທຽບໃສ່	-6639
▁ການຝຶກອົບຮົມ	-6640
CO	-6641
TS	-6642
na	-6643
▁o	-6644
aki	-6645
ams	-6646
bit	-6647
nov	-6648
ລະດ	-6649
▁5.	-6650
▁Im	-6651
▁LC	-6652
▁NY	-6653
-200	-6654
ding	-6655
ດ່ວນ	-6656
ເກາະ	-6657
▁And	-6658
▁Fre	-6659
▁Led	-6660
ridge	-6661
ສະກັດ	-6662
▁Card	-6663
▁Foam	-6664
▁ຊ້ໍາ	-6665
▁ຕໍ່າ	-6666
▁ຫນາມ	-6667
▁ຫລົງ	-6668
zhuang	-6669
ຊານຕົງ	-6670
ທໍາລາຍ	-6671
ສະຫຼຸບ	-6672
ແລະບໍ່	-6673
ໂປແກຼມ	-6674
▁White	-6675
▁Zhong	-6676
▁ຄໍາພີ	-6677
▁ປະສົມ	-6678
ຄາດຫວັງ	-6679
ພັກຜ່ອນ	-6680
ຫ່າງຈາກ	-6681
▁ເຄື່ອນ	-6682
ກົດລະບຽບ	-6683
ຂອງບັນດາ	-6684
ບັນລຸໄດ້	-6685
ບ່າຍວັນທີ	-6686
ແລະແມ່ຍິງ	-6687
▁........	-6688
▁Fittings	-6689
▁ຕໍາແຫນ່ງ	-6690
▁ທ້ອງຖິ່ນ	-6691
▁ຢູ່ນະຄອນ	-6692
▁ເຈົ້າຍັງ	-6693
ມີສ່ວນຮ່ວມ	-6694
ເຄື່ອງຫມາຍ	-6695
ຂອງລັດຖະບານ	-6696
ເພື່ອນຮ່ວມງານ	-6697
ທີ່ກ່ຽວຂ້ອງກັບ	-6698
MA	-6699
RL	-6700
su	-6701
Jar	-6702
gsm	-6703
ike	-6704
nam	-6705
par	-6706
ຄົວ	-6707
ວອນ	-6708
ວານ	-6709
ິມະ	-6710
▁42	-6711
▁DJ	-6712
ield	-6713
ລ່າງ	-6714
ແຂ້ວ	-6715
▁(35	-6716
▁450	-6717
▁Bar	-6718
▁Bow	-6719
▁Lim	-6720
▁ຕານ	-6721
▁ຖອຍ	-6722
▁ທຶກ	-6723
inder	-6724
uitar	-6725
ຄະແນນ	-6726
ປີນີ້	-6727
ໍາລອງ	-6728
▁Aria	-6729
▁Jack	-6730
▁Mult	-6731
▁Roll	-6732
▁your	-6733
▁ຂວາງ	-6734
▁ອະນຸ	-6735
▁Basel	-6736
▁micro	-6737
▁ອຸດົມ	-6738
ບໍລິຈາກ	-6739
ປະຊາກອນ	-6740
ເນື້ອໃນ	-6741
▁ພູເຂົາ	-6742
▁ສື່ສານ	-6743
▁ສົມຄວນ	-6744
ພາດສະຕິກ	-6745
▁phantom	-6746
▁ຫ້ອງການ	-6747
▁Dongguan	-6748
▁ຈັດພີມມາ	-6749
ວ່າພວກເຂົາ	-6750
ສັງເກດເຫັນ	-6751
▁ເຊິ່ງເປັນ	-6752
ບັນຊີລາຍຊື່	-6753
▁ການຂົນສົ່ງ	-6754
ກັບຄືນໄປບ່ອນ	-6755
ເວົ້າກ່ຽວກັບ	-6756
mo	-6757
ັຍ	-6758
oop	-6759
ບິດ	-6760
ປູກ	-6761
▁IN	-6762
▁PE	-6763
▁Rd	-6764
ages	-6765
pson	-6766
udio	-6767
ປຸ່ມ	-6768
ລິມະ	-6769
ລ່ວງ	-6770
ເມັດ	-6771
▁(2)	-6772
▁AUD	-6773
▁Eng	-6774
▁mon	-6775
▁ດາຍ	-6776
ທີສອງ	-6777
▁2009	-6778
▁ຈະມີ	-6779
▁ແຮ່ງ	-6780
ຖະຫນົນ	-6781
ທິດທາງ	-6782
ຢືນຢັນ	-6783
ົດເຊີຍ	-6784
▁2019.	-6785
▁ງ່າຍໆ	-6786
▁ປະກົດ	-6787
▁ປຶກສາ	-6788
▁ລະວັງ	-6789
▁ເຍີ້ຍ	-6790
ຄວາມຮູ້	-6791
ປິ່ນປົວ	-6792
ລິເລີ່ມ	-6793
ຫຼັກການ	-6794
ຫຼາຍຄົນ	-6795
▁Flight	-6796
▁ຜູ້ຊາຍ	-6797
▁ແຕ່ມັນ	-6798
▁SlotJar	-6799
▁ຄໍາສັ່ງ	-6800
▁ຫນຶ່ງໃນ	-6801
ການທົດສອບ	-6802
ເພື່ອສ້າງ	-6803
▁ມື້ຫນຶ່ງ	-6804
ອາສາສະຫມັກ	-6805
ເຮັດໃຫ້ການ	-6806
▁ເພີ່ມທະວີ	-6807
ທີ່ທັນສະໄຫມ	-6808
ທີ່ເຂັ້ມແຂງ	-6809
eyelashstore	-6810
ຂອງພວກເຮົາມີ	-6811
ຢ່າງຫຼວງຫຼາຍ	-6812
▁ມະຫາວິທະຍາໄລ	-6813
**	-6814
58	-6815
79	-6816
AY	-6817
FF	-6818
600	-6819
ict	-6820
pal	-6821
rif	-6822
ຜັດ	-6823
ຜູກ	-6824
ຟິກ	-6825
ລະນ	-6826
ໂປຼ	-6827
້ວຍ	-6828
▁Ba	-6829
▁Hi	-6830
▁MB	-6831
▁ທຸ	-6832
oney	-6833
ານີ້	-6834
▁FSX	-6835
▁Jan	-6836
▁Sur	-6837
▁ຂີດ	-6838
▁ຮຸນ	-6839
orial	-6840
ກໍາໄລ	-6841
ຂອງປີ	-6842
ພັນທະ	-6843
ສີຟ້າ	-6844
ສົງໄສ	-6845
ີນ້ໍາ	-6846
ເປົ້າ	-6847
▁Wire	-6848
▁csgo	-6849
▁plug	-6850
▁ຕໍ່ໆ	-6851
▁ສ່ອງ	-6852
▁ຫນົນ	-6853
itting	-6854
ຊາຍແດນ	-6855
ທໍານຽມ	-6856
ພາຍນອກ	-6857
ໂດຍບໍ່	-6858
▁ລໍຖ້າ	-6859
▁ເຊືອກ	-6860
ທໍລະມານ	-6861
ເວລາດົນ	-6862
ໃນແຕ່ລະ	-6863
▁ປະເຊີນ	-6864
▁ວິສະວະ	-6865
▁ສະຫນາມ	-6866
ພຣະເຈົ້າ	-6867
ແມ່ເຫຼັກ	-6868
ໂລກລະບາດ	-6869
▁ແລະຄວາມ	-6870
▁ກ້າວຫນ້າ	-6871
▁ແທນທີ່ຈະ	-6872
ategorized	-6873
ຢ່າງວ່ອງໄວ	-6874
ເບື້ອງຕົ້ນ	-6875
▁ສໍານັກງານ	-6876
▁Foundation	-6877
▁ຄຸນນະສົມບັດ	-6878
ແລະການບໍລິການ	-6879
▁ເຮັດໃຫ້ມີແສງ	-6880
-9	-6881
63	-6882
II	-6883
OG	-6884
Th	-6885
ks	-6886
ັ໊	-6887
ເຖ	-6888
ໂຟ	-6889
250	-6890
des	-6891
elf	-6892
ora	-6893
ຍຸກ	-6894
ຖັງ	-6895
ທືນ	-6896
ວກະ	-6897
ື່ງ	-6898
ແຄມ	-6899
ແຖວ	-6900
▁54	-6901
▁Bu	-6902
▁Ly	-6903
ream	-6904
ກະສີ	-6905
ື່ອມ	-6906
ເບົາ	-6907
▁0.0	-6908
▁0.5	-6909
▁14,	-6910
▁Dub	-6911
▁Mal	-6912
▁are	-6913
▁ser	-6914
▁ຈອນ	-6915
▁ທະນ	-6916
▁ເອກ	-6917
▁ແຈກ	-6918
riend	-6919
thank	-6920
▁Mich	-6921
▁ປິ່ນ	-6922
ຈະແຈ້ງ	-6923
ນີ້ໄດ້	-6924
ປາຍທາງ	-6925
ພາຫະນະ	-6926
ສະຫມຸດ	-6927
▁10000	-6928
▁Model	-6929
▁ນິດໄສ	-6930
▁ປອດໄພ	-6931
▁ແຫລ່ງ	-6932
ທິດສະດີ	-6933
▁wooden	-6934
▁ນໍາໃຊ້	-6935
ພຶດຕິກໍາ	-6936
ຂອງຮູບພາບ	-6937
▁Facebook	-6938
▁ຄວາມເປັນ	-6939
▁ເຂົ້າຈີ່	-6940
▁ເຈົ້າຮູ້	-6941
▁ໃນມື້ນີ້	-6942
ການສໍາຫຼວດ	-6943
ສົ່ງເສີມການ	-6944
ໂດຍບໍ່ມີການ	-6945
▁ການຕິດຕັ້ງ	-6946
▁ບັນພະບຸລຸດ	-6947
ອີເມວຂອງທ່ານ	-6948
1.	-6949
BC	-6950
va	-6951
XVN	-6952
fer	-6953
ibr	-6954
val	-6955
ຖຽງ	-6956
ບວກ	-6957
▁09	-6958
▁CB	-6959
▁HP	-6960
▁My	-6961
▁Od	-6962
▁SD	-6963
▁im	-6964
3456	-6965
reen	-6966
ກັ້ນ	-6967
ກ້ອນ	-6968
ສໍານ	-6969
ເລີກ	-6970
▁2.0	-6971
▁350	-6972
▁CAD	-6973
▁Int	-6974
▁Tem	-6975
▁ກົກ	-6976
▁ມ້າ	-6977
ental	-6978
ethyl	-6979
ການໂທ	-6980
ພົບປະ	-6981
ສີດໍາ	-6982
ເຕົ້າ	-6983
ໍາໃຊ້	-6984
▁2008	-6985
▁86-1	-6986
▁Engl	-6987
▁Tool	-6988
▁cart	-6989
▁ດີ້ນ	-6990
▁ທ້ອນ	-6991
▁ລົ້ນ	-6992
▁ຫລາດ	-6993
ໃຫ້ນັກ	-6994
▁Jizer	-6995
▁crate	-6996
ຢູ່ບ່ອນ	-6997
ໃນລະດັບ	-6998
▁Luxury	-6999
▁ເງື່ອນ	-7000
▁ເຮົາຈະ	-7001
ຊົນນະບົດ	-7002
ເຂົ້າສູ່	-7003
▁ປະຊາຄົມ	-7004
ການປົກຄອງ	-7005
ຂໍ້ມູນທີ່	-7006
ຂອງທ່ານແລະ	-7007
ຈິນຕະນາການ	-7008
ທີ່ມີຢູ່ໃນ	-7009
ຫມູ່ເພື່ອນ	-7010
▁ຕັ້ງຢູ່ໃນ	-7011
▁ເຕັກໂນໂລຢີ	-7012
ເປັນເຈົ້າຂອງ	-7013
ຂອງພວກເຮົາໄດ້	-7014
▁ແຜນຜັງເວັບໄຊ	-7015
4:	-7016
ໄດ	-7017
ano	-7018
ica	-7019
izh	-7020
que	-7021
ດຸນ	-7022
ຢອກ	-7023
ຮາກ	-7024
▁Du	-7025
▁RM	-7026
▁ຄໍ	-7027
heel	-7028
oker	-7029
ກະແສ	-7030
ຕຸລາ	-7031
ຕໍ່າ	-7032
ສໍາມ	-7033
ຮຸ່ນ	-7034
ີດເພ	-7035
ຼລິກ	-7036
ເຢຊູ	-7037
▁3.0	-7038
▁ຄວບ	-7039
▁ຜືນ	-7040
▁ແຂກ	-7041
▁ໂງ່	-7042
ities	-7043
ອອກໄປ	-7044
ໃນທາງ	-7045
▁free	-7046
▁hand	-7047
▁ຈ້າງ	-7048
▁ພາລະ	-7049
▁ເບົາ	-7050
ີດເພີນ	-7051
▁Crypt	-7052
▁ທິພົນ	-7053
▁ພະແນກ	-7054
ຈັດຂຶ້ນ	-7055
ຖ່າຍຮູບ	-7056
ທຸກສິ່ງ	-7057
ພ້ອມກັບ	-7058
ສິ່ງເສດ	-7059
ຮູບຮ່າງ	-7060
ຽນລະພາບ	-7061
ໂຄງລ່າງ	-7062
▁Rights	-7063
▁ຄົນທີ່	-7064
▁ປຽບທຽບ	-7065
▁ລໍາດັບ	-7066
▁ໃນເວລາ	-7067
ຄະນິດສາດ	-7068
າກ່ຽວກັບ	-7069
ເບິ່ງແຍງ	-7070
▁Virtual	-7071
▁virtual	-7072
▁ຕ້ອນຮັບ	-7073
▁ຕໍ່ຕ້ານ	-7074
▁ປ່ຽນແປງ	-7075
ແລະມີຄວາມ	-7076
▁Reserved	-7077
▁ເປັນຕ້ອງ	-7078
ທັງຫມົດຂອງ	-7079
▁Machinery	-7080
ກໍາລັງຊອກຫາ	-7081
▁ສູດໂມເລກຸນ	-7082
ຕັ້ງຂຶ້ນໃນປີ	-7083
▁Meyelashstore	-7084
);	-7085
ຈາ	-7086
ຖບ	-7087
150	-7088
ope	-7089
ray	-7090
າວຸ	-7091
໊າຊ	-7092
▁08	-7093
▁66	-7094
▁Ag	-7095
▁DM	-7096
▁HB	-7097
▁PU	-7098
▁ຢູ	-7099
isco	-7100
ຫລົກ	-7101
ເກ່ຍ	-7102
ເຮັງ	-7103
▁16,	-7104
▁Cal	-7105
▁Dec	-7106
▁tra	-7107
▁ງຽບ	-7108
▁ບໍາ	-7109
▁ມອງ	-7110
osmos	-7111
right	-7112
ບໍ່ດີ	-7113
ຫຍື່ອ	-7114
▁Coil	-7115
▁Hong	-7116
▁Ninj	-7117
▁Rock	-7118
▁ຊຶ້ງ	-7119
▁ເຊັນ	-7120
apolis	-7121
ກົດຈິດ	-7122
ພັດທະນ	-7123
ພາກໃຕ້	-7124
ສະຖານີ	-7125
▁Gener	-7126
▁Linux	-7127
▁River	-7128
▁Sheet	-7129
▁Slots	-7130
▁Solom	-7131
▁ເກັ່ງ	-7132
.......	-7133
ວິທີທີ່	-7134
ໃນວັນທີ	-7135
▁ຕົກລົງ	-7136
▁ທີ່ນີ້	-7137
▁ລັດເຊຍ	-7138
▁ລາຍງານ	-7139
▁ລາຍຊື່	-7140
▁ສະຫມັກ	-7141
▁ສັບສົນ	-7142
▁ສົມທົບ	-7143
ໃຫຍ່ຫຼວງ	-7144
ໄຮໂດຼລິກ	-7145
▁ດ້ວຍການ	-7146
ຂໍ້ກໍານົດ	-7147
ໃນຕອນຕົ້ນ	-7148
▁Archives	-7149
▁ບາງເທື່ອ	-7150
ຫມັ້ນສັນຍາ	-7151
ເຊື່ອຖືໄດ້	-7152
ເວລາດຽວກັນ	-7153
ເຫຼົ່ານັ້ນ	-7154
▁transposh	-7155
▁ເມື່ອທ່ານ	-7156
ຄວາມເຂົ້າໃຈ	-7157
▁Mississippi	-7158
ຜູ້ໃຫ້ບໍລິການ	-7159
ສະຫະລັດອາເມລິກາ	-7160
49	-7161
LS	-7162
por	-7163
ume	-7164
ຄອມ	-7165
ຍໍາ	-7166
▁.:	-7167
▁72	-7168
▁DX	-7169
▁SH	-7170
▁SM	-7171
▁TS	-7172
▁Tw	-7173
▁ໃຫ	-7174
atin	-7175
atte	-7176
jack	-7177
onal	-7178
ກິ່ງ	-7179
ຊ້ໍາ	-7180
ສ້ອມ	-7181
▁1.2	-7182
▁Mag	-7183
▁Set	-7184
▁Tim	-7185
▁ຄົດ	-7186
▁ຊານ	-7187
▁ບັບ	-7188
▁ບົກ	-7189
▁ຟັນ	-7190
▁ລາມ	-7191
▁ຫັກ	-7192
ensor	-7193
ມັກຈະ	-7194
ມໍເຕີ	-7195
▁mult	-7196
▁ຕຸ້ນ	-7197
asting	-7198
ທຸກຍາກ	-7199
ສະຫຼາດ	-7200
ສົງຄາມ	-7201
ໃຫ້ກັບ	-7202
▁2018.	-7203
▁Dubai	-7204
▁Speed	-7205
▁ມຕົ້ນ	-7206
ຈຸດຫມາຍ	-7207
ສະຫະພັນ	-7208
ເຈັບປວດ	-7209
ໃຫມ່ຂອງ	-7210
ໄດ້ເຮັດ	-7211
▁(2015)	-7212
▁Global	-7213
▁Length	-7214
▁Office	-7215
▁ລັບການ	-7216
▁ຫນ້າຈໍ	-7217
▁ພ້ອມທັງ	-7218
ບັງຄັບໃຊ້	-7219
ສະຫນອງການ	-7220
ສໍາລັບທ່ານ	-7221
▁ຄໍາແນະນໍາ	-7222
▁ຜົນໄດ້ຮັບ	-7223
▁ຫນັກຫນ່ວງ	-7224
ເຊັ່ນດຽວກັນ	-7225
▁ອິນເຕີເນັດ	-7226
▁ແສງສະຫວ່າງ	-7227
▁ຄວາມຕ້ອງການ	-7228
62	-7229
ht	-7230
.99	-7231
EAN	-7232
USD	-7233
ift	-7234
omb	-7235
ren	-7236
ນິດ	-7237
ະລາ	-7238
ໂຊກ	-7239
▁43	-7240
▁51	-7241
▁95	-7242
▁PS	-7243
▁TC	-7244
▁TP	-7245
▁To	-7246
▁UN	-7247
eder	-7248
lymp	-7249
ract	-7250
ກະໂປ	-7251
ຂົ່ມ	-7252
ຫຍິບ	-7253
ແຍ້ງ	-7254
▁ABS	-7255
▁Mat	-7256
▁SKU	-7257
▁Soc	-7258
▁Str	-7259
▁ພຽນ	-7260
▁ໂດດ	-7261
ທັນວາ	-7262
ລໍຖ້າ	-7263
ເປືອກ	-7264
ເລເຊຍ	-7265
ເອົາມ	-7266
▁ITIL	-7267
▁Karn	-7268
▁Ther	-7269
▁plus	-7270
▁ຄື້ນ	-7271
▁ສ້ອມ	-7272
ອອນລາຍ	-7273
▁ຈິດໃຈ	-7274
ການສ້າງ	-7275
ຊັ້ນນໍາ	-7276
ດ້ວຍການ	-7277
ແຕ່ງງານ	-7278
▁ທົ່ວໄປ	-7279
▁ມູນຄ່າ	-7280
ອິດທິພົນ	-7281
າລະໂອກາດ	-7282
ໃນຕະຫຼາດ	-7283
▁ການປ່ອຍ	-7284
▁ບັງເກີດ	-7285
▁ສຸດທ້າຍ	-7286
ຈະເຮັດໃຫ້	-7287
ສັງເກດການ	-7288
ທີ່ມີຊີວິດ	-7289
ໃນປະເທດຈີນ	-7290
▁Butterfly	-7291
▁ພຣະບັນຍັດ	-7292
ບັນດາໂຄງການ	-7293
▁ເພື່ອແນໃສ່	-7294
ທີ່ຫນ້າສົນໃຈ	-7295
DA	-7296
OB	-7297
RP	-7298
Re	-7299
-00	-7300
ife	-7301
ior	-7302
lee	-7303
opp	-7304
pen	-7305
res	-7306
ບອດ	-7307
ຢືມ	-7308
ລຸກ	-7309
ຫົນ	-7310
ຫ້ວ	-7311
▁49	-7312
▁MP	-7313
▁la	-7314
▁we	-7315
alls	-7316
burg	-7317
user	-7318
ມະນາ	-7319
▁160	-7320
▁LLC	-7321
▁Oct	-7322
▁Pri	-7323
▁Ter	-7324
▁ben	-7325
▁sub	-7326
▁ຊວນ	-7327
▁ຕຶງ	-7328
▁ທອດ	-7329
▁ນິວ	-7330
▁ຮຽກ	-7331
light	-7332
otrop	-7333
posit	-7334
ພິການ	-7335
ໃນທຸກ	-7336
ໄປຍັງ	-7337
▁Idea	-7338
▁Wood	-7339
▁game	-7340
acking	-7341
rusion	-7342
ການປັບ	-7343
ຂອງພວກ	-7344
ຄໍາສັບ	-7345
ຍັງບໍ່	-7346
▁2017,	-7347
▁Inter	-7348
▁ນິຍົມ	-7349
ຊົດເຊີຍ	-7350
ມະນາຄົມ	-7351
ໄກ່ເກ່ຍ	-7352
▁123456	-7353
▁cheats	-7354
▁double	-7355
▁ການາດາ	-7356
▁ຈັດການ	-7357
▁ສິດສອນ	-7358
▁ເຈົ້ານ	-7359
ຈະໄດ້ຮັບ	-7360
ພາກເຫນືອ	-7361
▁ການອ່ານ	-7362
▁ມູນນິທິ	-7363
▁ຮ້າຍແຮງ	-7364
ification	-7365
ກ່ອນທີ່ຈະ	-7366
ທົນທານຕໍ່	-7367
ຮູ້ສຶກວ່າ	-7368
▁ເຖິງຢ່າງ	-7369
▁ໃນກໍລະນີ	-7370
▁ອົດສະຕາລີ	-7371
categorized	-7372
▁galvanized	-7373
ເຊື່ອມຕໍ່ກັບ	-7374
▁ພວກເຮົາແມ່ນ	-7375
▁ຄະນະກໍາມະການ	-7376
9%	-7377
AE	-7378
fe	-7379
ຍໍ	-7380
ມມ	-7381
ໂຣ	-7382
▁;	-7383
-86	-7384
acy	-7385
ais	-7386
ple	-7387
ຜັກ	-7388
ຣັດ	-7389
ວຽດ	-7390
ຫິດ	-7391
ແມງ	-7392
▁91	-7393
▁Ab	-7394
▁SP	-7395
▁TG	-7396
▁ra	-7397
▁ມໍ	-7398
avor	-7399
iece	-7400
long	-7401
orts	-7402
ກວາງ	-7403
ັກຄີ	-7404
ໄຫມ້	-7405
▁12:	-7406
▁ຂວດ	-7407
▁ຄັບ	-7408
▁ປີນ	-7409
▁ເມນ	-7410
▁ແບກ	-7411
ional	-7412
ision	-7413
ກຸມພາ	-7414
ຫາຍໄປ	-7415
ເທືອນ	-7416
ໄປທີ່	-7417
▁Inje	-7418
▁iPad	-7419
▁prin	-7420
▁ຄະດີ	-7421
▁ເສີດ	-7422
etooth	-7423
ຂອງຄົນ	-7424
ທ່າແຮງ	-7425
ຢູ່ກັບ	-7426
▁Giant	-7427
▁ຄືກັບ	-7428
▁ແນວໃດ	-7429
ຈໍາເພາະ	-7430
ຍັງເປັນ	-7431
ຜູ້ໃຫຍ່	-7432
ສໍາມະນາ	-7433
ແມ່ນຍໍາ	-7434
ໃນໂອກາດ	-7435
▁County	-7436
▁Driver	-7437
▁crypto	-7438
▁ສີເທົາ	-7439
▁ໄຕ່ຕອງ	-7440
inecolor	-7441
ຂອງຊີວິດ	-7442
ຍົກເວັ້ນ	-7443
▁ທ່ານນາງ	-7444
ຊ່ວຍເຫລືອ	-7445
ເລິກເຊິ່ງ	-7446
▁Solomons	-7447
▁ປ່ອງຢ້ຽມ	-7448
▁ເກີດຂຶ້ນ	-7449
ການທ່ອງທ່ຽວ	-7450
ດໍາລົງຊີວິດ	-7451
▁ກ່ຽວກັບການ	-7452
ສິ່ງເສດເຫຼືອ	-7453
ແລະພວກເຮົາຈະ	-7454
▁ມົນທົນຊານຕົງ	-7455
▁ກ່າວຄໍາເຫັນທີ່	-7456
54	-7457
GE	-7458
IM	-7459
LL	-7460
au	-7461
sy	-7462
ອຟ	-7463
”,	-7464
.16	-7465
ຄາຍ	-7466
ດູນ	-7467
ນິວ	-7468
ຟຸກ	-7469
▁7:	-7470
▁Ga	-7471
auda	-7472
engo	-7473
luor	-7474
unch	-7475
ສັ່ນ	-7476
ໍາມາ	-7477
▁12,	-7478
▁15,	-7479
▁25,	-7480
▁car	-7481
▁ລົນ	-7482
▁ໄຖ່	-7483
▁ໄຫ້	-7484
allow	-7485
ພະລັງ	-7486
ລະພິດ	-7487
ສະມາດ	-7488
ຮໍໂມນ	-7489
ເຫລໍກ	-7490
▁Last	-7491
▁News	-7492
▁that	-7493
▁ສ່ຽງ	-7494
ipping	-7495
ທີ່ດິນ	-7496
ຜົນງານ	-7497
ພໍ່ແມ່	-7498
ລົງທືນ	-7499
ສົນທະນ	-7500
ແນວຄິດ	-7501
ແບບນີ້	-7502
▁South	-7503
▁dress	-7504
▁screw	-7505
▁ກະຈາຍ	-7506
ization	-7507
ຕົ້ນໄມ້	-7508
ປະລິນຍາ	-7509
ເຫັນໄດ້	-7510
ແນວໂນ້ມ	-7511
▁0086-5	-7512
▁Karnar	-7513
▁ກວດສອບ	-7514
▁ທີມງານ	-7515
▁ວຽກງານ	-7516
▁ເອື້ອມ	-7517
neapolis	-7518
ຈ່າຍເງິນ	-7519
ຢ່າງໄວວາ	-7520
ເຢຍລະມັນ	-7521
▁Casengo	-7522
▁ຈາກນັ້ນ	-7523
▁ມື້ນັ້ນ	-7524
▁ໂຄງສ້າງ	-7525
ຄູ່ຮ່ວມມື	-7526
ທາງການແພດ	-7527
ວ່າຈະເປັນ	-7528
ອາດຈະເປັນ	-7529
▁ການສະແດງ	-7530
▁ກໍາປູເຈຍ	-7531
▁ຫມັ້ນຄົງ	-7532
ການປົກປ້ອງ	-7533
ໂດຍຜ່ານການ	-7534
▁ການປັບປຸງ	-7535
▁ທ່ານອາດຈະ	-7536
▁ປະກອບສ່ວນ	-7537
ຄວາມຄິດເຫັນ	-7538
ສາທາລະນະສຸກ	-7539
ເອເລັກໂຕຣນິກ	-7540
ທີ່ຂ້າພະເຈົ້າ	-7541
▁ຜູ້ອໍານວຍການ	-7542
ພື້ນຖານເສດຖະກິດ	-7543
▁...............	-7544
GD	-7545
PA	-7546
li	-7547
ui	-7548
▁]	-7549
-30	-7550
="2	-7551
Air	-7552
Com	-7553
bar	-7554
een	-7555
ຈອດ	-7556
ທິນ	-7557
ລອຍ	-7558
ອາງ	-7559
ເທນ	-7560
ແປດ	-7561
▁kg	-7562
acet	-7563
amin	-7564
cial	-7565
head	-7566
ians	-7567
inal	-7568
ກາລະ	-7569
ຄ່ອຍ	-7570
ດີຈີ	-7571
ມຸ່ງ	-7572
ຫຸ້ນ	-7573
ຽງໄຮ	-7574
ເບີກ	-7575
ແນວນ	-7576
່ງໃສ	-7577
▁000	-7578
▁170	-7579
▁190	-7580
▁API	-7581
▁Bra	-7582
▁Gen	-7583
▁Hat	-7584
▁Sub	-7585
▁mac	-7586
▁nad	-7587
▁pet	-7588
▁ຢິວ	-7589
▁ໂລດ	-7590
aring	-7591
ocket	-7592
ຊຸມປີ	-7593
ຕິພາບ	-7594
ຖະແຫຼ	-7595
ລວມມີ	-7596
ລະດົມ	-7597
▁Flor	-7598
▁Link	-7599
▁Prof	-7600
▁Qual	-7601
▁wind	-7602
▁ຄຸ້ມ	-7603
▁ຍິ້ມ	-7604
▁ບັນດ	-7605
ກະເປົາ	-7606
ການແພດ	-7607
ຍົກສູງ	-7608
ຕົ້ນປີ	-7609
ລວບລວມ	-7610
ໂດຍໃຊ້	-7611
▁Hotel	-7612
ຄວາມສຸກ	-7613
ຫຸ່ນຍົນ	-7614
ເຖິງການ	-7615
▁ການພິມ	-7616
▁ຈະເປັນ	-7617
▁ຮຸນແຮງ	-7618
ເຂົ້າກັບ	-7619
▁Jizerou	-7620
▁ສິ່ງນີ້	-7621
ຖ້າຫາກວ່າ	-7622
ເປັນໄປໄດ້	-7623
ໃນໄລຍະຍາວ	-7624
▁ຫລາຍກວ່າ	-7625
ການຂົນສົ່ງ	-7626
ຍົກຕົວຢ່າງ	-7627
ແລະເຮັດໃຫ້	-7628
▁ນອກຈາກນີ້	-7629
▁ພິເສດແມ່ນ	-7630
▁ກົງກັນຂ້າມ	-7631
▁ຢູ່ຮ່າໂນ້ຍ	-7632
ໃນອຸດສາຫະກໍາ	-7633
ສະເພາະໃດຫນຶ່ງ	-7634
▁ການຊໍາລະເງິນ	-7635
▁Uncategorized	-7636
▁ຂຸດຄົ້ນບໍ່ແຮ່	-7637
ds	-7638
yr	-7639
400	-7640
FTA	-7641
ico	-7642
uki	-7643
ຊັນ	-7644
ຖອຍ	-7645
ບາບ	-7646
ມັງ	-7647
ເວີ	-7648
▁41	-7649
▁NZ	-7650
▁gl	-7651
▁vs	-7652
aker	-7653
ants	-7654
avic	-7655
ijia	-7656
ryst	-7657
uddy	-7658
yang	-7659
ມ້ວນ	-7660
ຫຼຽນ	-7661
ະນະນ	-7662
ືກັນ	-7663
▁(10	-7664
▁0.2	-7665
▁Act	-7666
▁Aug	-7667
▁Saf	-7668
▁Sar	-7669
▁Tab	-7670
▁rou	-7671
▁ທວນ	-7672
▁ບວກ	-7673
▁ປົວ	-7674
▁ເອີ	-7675
urity	-7676
venue	-7677
ກັບມາ	-7678
ກົນໄກ	-7679
ລະທໍາ	-7680
ັກຊີນ	-7681
ເລເຊີ	-7682
ໂບນັດ	-7683
ໄວ້ໃນ	-7684
▁Chem	-7685
▁List	-7686
▁Over	-7687
▁Tape	-7688
▁ຫລອກ	-7689
▁ເກົາ	-7690
▁ເຄາະ	-7691
▁ແຂ້ວ	-7692
▁ແຍ່ງ	-7693
▁ແຕ້ມ	-7694
ຂ້ອຍຈະ	-7695
ສູງແລະ	-7696
າຍຄວາມ	-7697
▁Cauda	-7698
▁Glass	-7699
▁Panel	-7700
▁Union	-7701
▁mavic	-7702
▁ປາກົດ	-7703
▁ສາເຫດ	-7704
ຍີ່ປຸ່ນ	-7705
ດີຈີຕອນ	-7706
ປະຕິເສດ	-7707
ຢ້ານກົວ	-7708
▁Fabric	-7709
▁ທີ່ສຸດ	-7710
▁ພາກຮຽນ	-7711
▁ສະແຫວງ	-7712
atalogue	-7713
ມິດຕະພາບ	-7714
ຫລາຍກວ່າ	-7715
ເຊື່ອວ່າ	-7716
ເຕີບໃຫຍ່	-7717
ເປັນຫຍັງ	-7718
▁English	-7719
▁ປະເທດໄທ	-7720
▁ສັດລ້ຽງ	-7721
ຖານຂໍ້ມູນ	-7722
ແມ່ນຢູ່ໃນ	-7723
ແສງຕາເວັນ	-7724
▁2006-2020	-7725
▁Guangzhou	-7726
▁ຂະແຫນງການ	-7727
ຜົນກະທົບຕໍ່	-7728
ເປັນມືອາຊີບ	-7729
▁ເຄື່ອງຫມາຍ	-7730
ທີ່ຈະເຮັດໃຫ້	-7731
ທີ່ເປັນໄປໄດ້	-7732
▁Minneapolis	-7733
▁ແຫຼ່ງຂໍ້ມູນ	-7734
ຜະລິດຕະພັນຫຼື	-7735
/5	-7736
Ar	-7737
Se	-7738
UT	-7739
Un	-7740
ะน	-7741
bag	-7742
ige	-7743
ots	-7744
son	-7745
ຕິນ	-7746
ປຽບ	-7747
▁46	-7748
▁Az	-7749
▁MS	-7750
▁RH	-7751
▁Wu	-7752
abol	-7753
ader	-7754
chat	-7755
raft	-7756
ພົ້ນ	-7757
ເພັດ	-7758
▁240	-7759
▁29,	-7760
▁50%	-7761
▁Rod	-7762
▁ext	-7763
▁ປອກ	-7764
▁ວັງ	-7765
▁ຫນູ	-7766
▁ອວດ	-7767
ather	-7768
lythe	-7769
offee	-7770
ution	-7771
ເຮົາມ	-7772
▁Belt	-7773
▁Visa	-7774
▁over	-7775
▁ເຄືອ	-7776
eboard	-7777
ension	-7778
ຄໍາຕອບ	-7779
ຕັ້ງໃຈ	-7780
ສໍາອາງ	-7781
ອີເມລ໌	-7782
ໄປສະນີ	-7783
▁TTXVN	-7784
▁Warin	-7785
▁super	-7786
ຈາກນັ້ນ	-7787
ດູດຝຸ່ນ	-7788
ວິຊາຊີບ	-7789
▁Commun	-7790
▁Island	-7791
▁Rotary	-7792
▁Shijia	-7793
▁design	-7794
▁ໂດຍບໍ່	-7795
ນັກສຶກສາ	-7796
ນໍາເຂົ້າ	-7797
▁Jiangsu	-7798
▁Program	-7799
▁ປະຈຸບັນ	-7800
▁ອາຍແກັສ	-7801
ທີ່ແນ່ນອນ	-7802
▁Pressure	-7803
ການຄາດຄະເນ	-7804
ຄົມມະນາຄົມ	-7805
ທີ່ຢູ່ອາໄສ	-7806
ສະດວກສະບາຍ	-7807
ສິ່ງທ້າທາຍ	-7808
ເຄື່ອນຍ້າຍ	-7809
ໃຫ້ພວກເຂົາ	-7810
▁Bluetooth	-7811
▁Injection	-7812
▁ທີ່ສໍາຄັນ	-7813
▁ເນັ້ນຫນັກ	-7814
ຂອງພຣະເຈົ້າ	-7815
ງານວາງສະແດງ	-7816
ປົກປັກຮັກສາ	-7817
▁Fiberglass	-7818
ສາມາດເຮັດໄດ້	-7819
ໃນການພັດທະນາ	-7820
▁Shijiazhuang	-7821
▁ລະບົບຕ່ອງໂສ້	-7822
▁ລະຫັດບໍລິສັດ	-7823
ທີ່ທ່ານຕ້ອງການ	-7824
ຢ່າງເປັນທາງການ	-7825
ສິ່ງທີ່ພວກເຮົາ	-7826
▁ຕອນເຊົ້າວັນທີ	-7827
bl	-7828
+00	-7829
-40	-7830
Bet	-7831
The	-7832
aft	-7833
bet	-7834
ced	-7835
get	-7836
ham	-7837
rit	-7838
rug	-7839
war	-7840
ຜົວ	-7841
ຫນູ	-7842
ຫລີ	-7843
ຫົກ	-7844
ແຕກ	-7845
ໂພງ	-7846
▁MY	-7847
fter	-7848
gang	-7849
inyl	-7850
ones	-7851
ຖ້ວນ	-7852
ປັ້ນ	-7853
ເຟີນ	-7854
ເລັງ	-7855
ເລີນ	-7856
ໄຫລ່	-7857
▁11:	-7858
▁700	-7859
▁Dom	-7860
▁Sec	-7861
▁Sit	-7862
▁Sun	-7863
▁USA	-7864
▁met	-7865
▁ງວນ	-7866
▁ຊັດ	-7867
▁ຕຽງ	-7868
▁ນົງ	-7869
▁ລຸງ	-7870
▁ແຫວ	-7871
▁ແອນ	-7872
▁ໂສດ	-7873
older	-7874
urner	-7875
wheel	-7876
ກະດານ	-7877
ກະບອກ	-7878
▁ຕ້ອນ	-7879
+00:00	-7880
ດຽວນີ້	-7881
ທີ່ເຄຍ	-7882
ພົບກັບ	-7883
ສອບຖາມ	-7884
ສູງຂອງ	-7885
ເຫັນດີ	-7886
ແຈກຢາຍ	-7887
▁House	-7888
▁Olymp	-7889
▁ພຽງພໍ	-7890
▁ເຊົ່າ	-7891
ຄາດຫມາຍ	-7892
ຊີວະພາບ	-7893
ອອກເປັນ	-7894
ຮ່ວມກັບ	-7895
▁ຊຸມຊົນ	-7896
▁ແມ່ຕູ້	-7897
ະພະຍາຍາມ	-7898
▁Company	-7899
▁Flatbed	-7900
▁ບໍລິເວນ	-7901
▁ໃນບັນດາ	-7902
ພື້ນເມືອງ	-7903
ວິສະວະກໍາ	-7904
ເພີ່ມຂື້ນ	-7905
▁Standard	-7906
▁tattoost	-7907
▁ລະຫັດການ	-7908
▁ເຈົ້າຂອງ	-7909
ເປັນຈໍານວນ	-7910
▁ຫົວຂໍ້ໄວ້	-7911
▁ໃບອະນຸຍາດ	-7912
▁ການຄຸ້ມຄອງ	-7913
▁ການຕໍ່ຕ້ານ	-7914
▁ງວນລິຂະສິດ	-7915
▁ຜູ້ຊ່ຽວຊານ	-7916
ດັ່ງຕໍ່ໄປນີ້	-7917
ສ່ວນໃຫຍ່ແມ່ນ	-7918
▁ການຄົ້ນຄວ້າ	-7919
ອີກເທື່ອຫນຶ່ງ	-7920
ເຫຼົ່ານີ້ແມ່ນ	-7921
ແລະການພັດທະນາ	-7922
▁ຕອນບ່າຍວັນທີ	-7923
ພື້ນຖານໂຄງລ່າງ	-7924
ເພີ່ມເຕີມກ່ຽວກັບ	-7925
CM	-7926
Pl	-7927
ih	-7928
ໄຍ	-7929
IAN	-7930
ana	-7931
elt	-7932
unt	-7933
ກ່າ	-7934
ເມຍ	-7935
▁Jo	-7936
▁di	-7937
▁sl	-7938
▁ss	-7939
▁ໄນ	-7940
-100	-7941
iner	-7942
roid	-7943
roll	-7944
ward	-7945
ຈະລາ	-7946
ຊຸ່ມ	-7947
ລັ່ງ	-7948
ຫມູນ	-7949
ຸດິບ	-7950
ແກັດ	-7951
ໂດເນ	-7952
▁86-	-7953
▁Apr	-7954
▁Atl	-7955
▁Day	-7956
▁Oxy	-7957
▁Pal	-7958
▁ter	-7959
▁ແສນ	-7960
▁ໂກງ	-7961
house	-7962
ipper	-7963
odium	-7964
ຈະໄດ້	-7965
ປະສິດ	-7966
ພາກສາ	-7967
ອາຄານ	-7968
ເລົ່າ	-7969
▁2021	-7970
▁Brow	-7971
▁mini	-7972
▁ທ່ຽງ	-7973
▁ນຶ່ງ	-7974
▁ສັ່ນ	-7975
▁ໂຫຼດ	-7976
estern	-7977
ລົງນາມ	-7978
ສະຫງວນ	-7979
ສົມຜົນ	-7980
ໃນຫ້ອງ	-7981
▁Saint	-7982
▁buddy	-7983
▁ສົງໄສ	-7984
utorial	-7985
ກໍລະກົດ	-7986
ທໍາມະດາ	-7987
ປຸງແຕ່ງ	-7988
ເຄົາລົບ	-7989
ເສັ້ນໃຍ	-7990
ໂດເນເຊຍ	-7991
▁Avenue	-7992
▁Thread	-7993
▁Turkey	-7994
▁ກອງທຶນ	-7995
▁ກັບການ	-7996
▁ບັນດານ	-7997
▁ຮັ່ງມີ	-7998
▁ເຫຍື່ອ	-7999
ຈະມາເຖິງ	-8000
ຍົກລະດັບ	-8001
ສິດທິບັດ	-8002
ສ່ວນຫຼາຍ	-8003
▁Manager	-8004
▁Package	-8005
▁ຂຶ້ນກັບ	-8006
▁ປະລິນຍາ	-8007
▁ມາເລເຊຍ	-8008
ກໍາລັງກາຍ	-8009
ຄ້າຍຄືກັບ	-8010
ເລືອກຕັ້ງ	-8011
▁modified	-8012
ຂອງອຸປະກອນ	-8013
ເຂົ້າລະຫັດ	-8014
ເຮັດວຽກຢູ່	-8015
ບັນຊີລາຍການ	-8016
▁ໄດ້ດໍາເນີນ	-8017
ໄດ້ຮັບລາງວັນ	-8018
▁ຈີນຜູ້ຜະລິດ	-8019
ຈຸດຫມາຍປາຍທາງ	-8020
▁ການເຊື່ອມຕໍ່	-8021
▁ຄວາມຫນາແຫນ້ນ	-8022
▁ວິວັດທະນາການ	-8023
ເພື່ອໃຫ້ໄດ້ຮັບ	-8024
3}	-8025
7.	-8026
IG	-8027
It	-8028
WS	-8029
ili	-8030
iti	-8031
ney	-8032
ສື່	-8033
ີເມ	-8034
ໂຍນ	-8035
▁BL	-8036
▁DS	-8037
▁cy	-8038
▁it	-8039
▁ທໍ	-8040
ipit	-8041
ktop	-8042
ຊື່ອ	-8043
ສະຕິ	-8044
ອ້າຍ	-8045
ເດັນ	-8046
ໃນສະ	-8047
ໄອທີ	-8048
▁101	-8049
▁13,	-8050
▁Koo	-8051
▁PET	-8052
▁off	-8053
▁ງົດ	-8054
▁ງົວ	-8055
▁ຈົງ	-8056
▁ຫົນ	-8057
fiber	-8058
indle	-8059
olone	-8060
ruity	-8061
ຖຸດິບ	-8062
ໄຂມັນ	-8063
▁Camb	-8064
▁Viet	-8065
▁Wars	-8066
▁blog	-8067
▁cont	-8068
▁ກິ່ນ	-8069
▁ພະຍຸ	-8070
▁ມຸ່ງ	-8071
▁ຮົ້ວ	-8072
▁ເມນູ	-8073
▁ແຫນງ	-8074
ograph	-8075
ຂອງຖົງ	-8076
ຊື່ສັດ	-8077
ຍັງໄດ້	-8078
ທີ່ມັນ	-8079
ສໍາຜັດ	-8080
ຫມໍ້ໄຟ	-8081
ແລະມັນ	-8082
ໂມຊັ່ນ	-8083
▁Innov	-8084
▁Organ	-8085
▁State	-8086
▁Touch	-8087
▁ຕາລາງ	-8088
ກະເປົ໋າ	-8089
ພາລະກິດ	-8090
ລູມິນຽມ	-8091
ສິນລະປະ	-8092
ຫັນປ່ຽນ	-8093
ເຂົ້າໄປ	-8094
▁86-574	-8095
▁ຄ້າຍຄື	-8096
▁ວ່າການ	-8097
▁ສິນຄ້າ	-8098
▁ເຫລືອງ	-8099
ປະເທດຊາດ	-8100
▁ກັນນ້ໍາ	-8101
▁ຄວາມວ່າ	-8102
▁ສະບາຍດີ	-8103
ວິທີແກ້ໄຂ	-8104
ຮ້ານອາຫານ	-8105
ໂດຍອີງໃສ່	-8106
ໃນພາກພື້ນ	-8107
▁ການບັນຈຸ	-8108
▁ຄວາມຮ້ອນ	-8109
▁ລ້ານໂດລາ	-8110
▁ສີເຫຼືອງ	-8111
▁ເຢຍລະມັນ	-8112
ທີ່ຈໍາເປັນ	-8113
ເຮັດວຽກກັບ	-8114
▁ຕົ້ນສະບັບ	-8115
▁ບໍ່ພຽງແຕ່	-8116
▁ເມື່ອເຮົາ	-8117
ສໍາພັດພາຍໃນ	-8118
ນັບຕັ້ງແຕ່ປີ	-8119
ຖ້າຫາກວ່າທ່ານ	-8120
▁ລະຫັດການປະກັນໄພ	-8121
":	-8122
93	-8123
HO	-8124
JS	-8125
df	-8126
nd	-8127
ຣມ	-8128
-16	-8129
24.	-8130
ere	-8131
eta	-8132
lam	-8133
pon	-8134
ser	-8135
ugh	-8136
ທີມ	-8137
ນ້ໍ	-8138
ັ໊ມ	-8139
ີ້ງ	-8140
ໂຈມ	-8141
▁!!	-8142
▁SE	-8143
▁do	-8144
▁em	-8145
▁gr	-8146
▁ກີ	-8147
▁ລື	-8148
2005	-8149
cont	-8150
ents	-8151
ishi	-8152
west	-8153
ທ້ວງ	-8154
ແກ່ນ	-8155
▁140	-8156
▁Pen	-8157
▁Pul	-8158
▁Tor	-8159
▁ind	-8160
▁ຍາຍ	-8161
▁ຍຸກ	-8162
▁ຍົງ	-8163
▁ທຽມ	-8164
▁ມວນ	-8165
▁ມຸງ	-8166
▁ລຸດ	-8167
▁ສາບ	-8168
▁ແມງ	-8169
amine	-8170
minal	-8171
ສາຍຕາ	-8172
ສີແດງ	-8173
▁4000	-8174
▁Code	-8175
▁Cool	-8176
▁Nash	-8177
▁Size	-8178
▁ຝັ່ງ	-8179
ຂອງຫົວ	-8180
ຈໍາລອງ	-8181
ປະຫລາດ	-8182
ປຽບທຽບ	-8183
ຢ່າງມີ	-8184
ລາສສິກ	-8185
ຫົນທາງ	-8186
ເຮັດໃນ	-8187
▁Price	-8188
▁ມະຊາດ	-8189
▁ສີຂຽວ	-8190
▁ເສຍໃຈ	-8191
ຂອງຂວັນ	-8192
ລິມະສິດ	-8193
ຫມັ້ນໃຈ	-8194
ອ້າງອີງ	-8195
ຮອບດ້ານ	-8196
ເປັນຄົນ	-8197
▁Market	-8198
▁Tagged	-8199
▁cosmos	-8200
▁ກໍາຈັດ	-8201
▁ຂະແຫນງ	-8202
▁ຂ້ອຍຈະ	-8203
▁ຈາກການ	-8204
▁ຕະຫຼາດ	-8205
▁ຕົວແທນ	-8206
▁ຢູ່ທີ່	-8207
▁ຮຽນຮູ້	-8208
▁ເສື່ອມ	-8209
▁ໂຮງຫມໍ	-8210
ຂອງລະບົບ	-8211
ທີ່ນິຍົມ	-8212
▁Trading	-8213
▁ແຂ່ງຂັນ	-8214
▁ແລະທ່ານ	-8215
Catalogue	-8216
ກັນແລະກັນ	-8217
ຂັບເຄື່ອນ	-8218
ຂໍ້ຕົກລົງ	-8219
ປະເມີນຜົນ	-8220
ເນັ້ນຫນັກ	-8221
▁ສ່ວນໃຫຍ່	-8222
ເບິ່ງຄືວ່າ	-8223
▁ການສະຫນອງ	-8224
▁ຕາເວັນອອກ	-8225
ສາມາດນໍາໃຊ້	-8226
ຄາຂອງພວກເຮົາ	-8227
ທໍາຄວາມສະອາດ	-8228
ມີການປ່ຽນແປງ	-8229
▁ສາດສະຫນາຈັກ	-8230
ສື່ມວນຊົນຍ່ອຍ	-8231
ທຸກສິ່ງທຸກຢ່າງ	-8232
ແລະຫຼັງຈາກນັ້ນ	-8233
ທີ່ຈະໃຫ້ພວກເຮົາ	-8234
ສະແດງໃຫ້ເຫັນວ່າ	-8235
ຕາເວັນອອກສ່ຽງໃຕ້	-8236
ລູກຄ້າຂອງພວກເຮົາ	-8237
,"	-8238
:.	-8239
BR	-8240
km	-8241
rd	-8242
za	-8243
-18	-8244
-25	-8245
-80	-8246
.05	-8247
ael	-8248
inn	-8249
ism	-8250
ler	-8251
ody	-8252
oug	-8253
ກີດ	-8254
ທຽນ	-8255
ປຸກ	-8256
ພວມ	-8257
ລ່າ	-8258
ຫອມ	-8259
໋ອງ	-8260
▁56	-8261
▁Go	-8262
▁Ma	-8263
▁Ru	-8264
▁Ta	-8265
▁ar	-8266
▁mg	-8267
▁ຜາ	-8268
▁ຣາ	-8269
ally	-8270
anda	-8271
berg	-8272
iano	-8273
ival	-8274
mmer	-8275
ພາລະ	-8276
ຫ້າມ	-8277
ຮ່ອງ	-8278
ໍານິ	-8279
▁195	-8280
▁Det	-8281
▁NZD	-8282
▁PHP	-8283
▁pvc	-8284
▁ຄາມ	-8285
▁ຊໍາ	-8286
▁ບ່າ	-8287
▁ລຽບ	-8288
▁ແຮ່	-8289
prise	-8290
ຖາວອນ	-8291
ນໍາພາ	-8292
ປະລາດ	-8293
ວັນນະ	-8294
ຫຍຸ່ນ	-8295
ໂຄວິດ	-8296
▁Doll	-8297
▁Ling	-8298
▁Paul	-8299
▁Phil	-8300
▁ບູຊາ	-8301
▁ມ້ວນ	-8302
▁ອ້ອນ	-8303
▁ແຂ່ງ	-8304
ຂຶ້ນໄປ	-8305
ຍັງຄົງ	-8306
ດອກໄມ້	-8307
ະລັດຖະ	-8308
▁2020,	-8309
▁©2005	-8310
▁ກາຕູນ	-8311
▁ຖັດໄປ	-8312
▁ພັນລະ	-8313
ຈະລາຈອນ	-8314
ຍ້ອນວ່າ	-8315
ປັບແຕ່ງ	-8316
໊ອກນ້ໍາ	-8317
▁Galaxy	-8318
▁ກັງວົນ	-8319
▁ຊື່ວ່າ	-8320
▁ຕົ້ນຕໍ	-8321
▁ໂຄສະນາ	-8322
ທີ່ມາຈາກ	-8323
ພຣະວິຫານ	-8324
▁Casting	-8325
▁ຄໍາເຫັນ	-8326
▁ທີ່ເປັນ	-8327
▁ລັງເຮັດ	-8328
▁ສອດຄ່ອງ	-8329
▁ແຕ່ຂ້ອຍ	-8330
▁ໂມເລກຸນ	-8331
▁ໃນວັນທີ	-8332
ຂໍ້ສະເຫນີ	-8333
ພວກເຂົາມີ	-8334
ມີຄວາມສຸກ	-8335
ຫວັງວ່າຈະ	-8336
▁ຮອງປະທານ	-8337
ພາສາອັງກິດ	-8338
ເຕັມໄປດ້ວຍ	-8339
▁ການທົດລອງ	-8340
▁ຄົນອັບເດດ	-8341
▁ລະຫັດພາສີ	-8342
▁ເທົ່ານັ້ນ	-8343
▁©2005-2018	-8344
ດ້ານຈັນຍາບັນ	-8345
ຄໍາຫມັ້ນສັນຍາ	-8346
ຄວາມສາມາດໃນການ	-8347
▁ຕິດຕໍ່ພວກເຮົາ	-8348
FS	-8349
LP	-8350
ຄ່	-8351
ິມ	-8352
2.1	-8353
car	-8354
ixi	-8355
lan	-8356
lud	-8357
mon	-8358
ral	-8359
ຊັກ	-8360
ບໄຊ	-8361
ຢ່າ	-8362
▁2)	-8363
▁52	-8364
▁eB	-8365
akes	-8366
atur	-8367
flix	-8368
icle	-8369
inch	-8370
rent	-8371
ຄລິກ	-8372
ຕົວກ	-8373
ທ້ອງ	-8374
ນາທີ	-8375
ຝ້າຍ	-8376
ພາລາ	-8377
ລິຍາ	-8378
ອັກຄ	-8379
າກອນ	-8380
▁(19	-8381
▁750	-8382
▁Cup	-8383
▁Mer	-8384
▁Out	-8385
▁Rom	-8386
▁ant	-8387
▁fil	-8388
▁opt	-8389
▁rot	-8390
▁ບູນ	-8391
▁ແລກ	-8392
izhou	-8393
ສິກອນ	-8394
ອະດີດ	-8395
▁Hero	-8396
▁Nick	-8397
▁Oper	-8398
▁Thom	-8399
▁comp	-8400
▁pass	-8401
▁ຈົ່ມ	-8402
▁ຍ່ອຍ	-8403
▁ມຸ້ງ	-8404
▁ຫຍ້າ	-8405
▁ຫລັບ	-8406
▁ເຄັດ	-8407
ຕົວເລກ	-8408
ແຂງແຮງ	-8409
ໂຕ້ຕອບ	-8410
▁Conne	-8411
▁favor	-8412
▁ກໍ່ຄື	-8413
▁ອາດຈະ	-8414
▁ເຝົ້າ	-8415
▁ແຫນ່ງ	-8416
ບາງຄັ້ງ	-8417
ປະຊາຊາດ	-8418
ປະທັບຕາ	-8419
ລຸ່ມນີ້	-8420
ວິໄສທັດ	-8421
▁plugin	-8422
ຄົນຫນຶ່ງ	-8423
ຍືດຫຍຸ່ນ	-8424
ມົນລະພິດ	-8425
ວກະສິກອນ	-8426
ແຕ່ວັນທີ	-8427
ແມ່ນຫຍັງ	-8428
▁Ceramic	-8429
▁Express	-8430
▁charter	-8431
▁ລ້ານຄົນ	-8432
ສາຍພົວພັນ	-8433
ະລັດຖະທູດ	-8434
▁ລັດຖະມົນ	-8435
▁ອົງປະກອບ	-8436
▁ເຖິງແມ່ນ	-8437
▁ເວົ້າຂອງ	-8438
ການຕິດຕັ້ງ	-8439
ຂອງພຣະຄຣິດ	-8440
▁Blackjack	-8441
ກ່ຽວຂ້ອງກັບ	-8442
ເປັນປົກກະຕິ	-8443
▁ດ້ວຍຫົວຂໍ້	-8444
▁ພວກເຂົາໄດ້	-8445
ການຊ່ວຍເຫຼືອ	-8446
ອັກຄະລັດຖະທູດ	-8447
ແລະຜະລິດຕະພັນ	-8448
ແລະຄວາມຕ້ອງການ	-8449
▁ພວກເຮົາກໍາລັງ	-8450
▁ອົງການຈັດຕັ້ງ	-8451
▁ການປ່ອຍສິນເຊື່ອ	-8452
CI	-8453
DS	-8454
lr	-8455
ດດ	-8456
▁່	-8457
ena	-8458
ras	-8459
utt	-8460
zip	-8461
ຈອກ	-8462
ຊ່າ	-8463
ນົມ	-8464
▁5%	-8465
▁64	-8466
▁93	-8467
▁MA	-8468
▁NE	-8469
▁Pu	-8470
▁sw	-8471
▁ໃຍ	-8472
flex	-8473
neum	-8474
oriz	-8475
ຄະຕິ	-8476
ດ່ຽວ	-8477
ວິໄຈ	-8478
ອາໃສ	-8479
າກັບ	-8480
ແອັດ	-8481
ໆທີ່	-8482
▁(25	-8483
▁115	-8484
▁230	-8485
▁Bus	-8486
▁GPS	-8487
▁Pos	-8488
▁TED	-8489
▁Vol	-8490
▁bon	-8491
▁ຄອຍ	-8492
▁ຄານ	-8493
▁ຕອງ	-8494
▁ຖອນ	-8495
▁ຜົມ	-8496
etate	-8497
iness	-8498
leton	-8499
oline	-8500
proof	-8501
rader	-8502
ພິບັດ	-8503
ເຮົານ	-8504
ໍານຶງ	-8505
▁Call	-8506
▁Feng	-8507
▁Open	-8508
▁this	-8509
▁ທະວີ	-8510
google	-8511
ຄ້າຍຄື	-8512
ຖະແຫຼງ	-8513
ມະເລັງ	-8514
ຢູ່ນີ້	-8515
ສໍາພາດ	-8516
ອະນາໄມ	-8517
ອົງກອນ	-8518
▁Clash	-8519
▁Enter	-8520
▁Poker	-8521
▁Range	-8522
▁ຝຣັ່ງ	-8523
▁ພັກດີ	-8524
ຂຸດຄົ້ນ	-8525
ຂໍຂອບໃຈ	-8526
ຄວາມຈໍາ	-8527
ຮູບຖ່າຍ	-8528
ເອກະລາດ	-8529
▁Engine	-8530
▁ຊໍານານ	-8531
▁ລົດຖີບ	-8532
▁ວິທະຍຸ	-8533
▁ສັນຍານ	-8534
ateboard	-8535
ຍາກທີ່ຈະ	-8536
ບັນດາການ	-8537
ປະຈໍາວັນ	-8538
ສ້າງຂຶ້ນ	-8539
ອອກແບບມາ	-8540
▁acrylic	-8541
▁ທ່ານບໍ່	-8542
▁ຮຽບຮ້ອຍ	-8543
ຄ່ໍາວັນທີ	-8544
ປຶກສາຫາລື	-8545
ເຫດສົມຜົນ	-8546
▁Deduster	-8547
▁ກິໂລແມັດ	-8548
▁ສິນລະທໍາ	-8549
▁ເວທີປາໄສ	-8550
ມີຄວາມສ່ຽງ	-8551
ຢູ່ທີ່ນັ້ນ	-8552
ລະມັດລະວັງ	-8553
ເວລາດົນນານ	-8554
ເຫລົ່ານັ້ນ	-8555
▁Converter	-8556
▁ຄະນະກໍາມະ	-8557
▁ຜົນປະໂຫຍດ	-8558
ກ່ຽວກັບຄວາມ	-8559
ຜົນກະທົບຂອງ	-8560
ອຸນຫະພູມສູງ	-8561
▁ເດືອນມິຖຸນາ	-8562
ທີ່ທ່ານໄດ້ຮັບ	-8563
ທີ່ເປັນປະໂຫຍດ	-8564
ເພື່ອຮັບປະກັນ	-8565
▁ສ້າງຕັ້ງຂຶ້ນ	-8566
FL	-8567
TH	-8568
UV	-8569
gu	-8570
hi	-8571
ko	-8572
yi	-8573
ໂຫ	-8574
INE	-8575
dra	-8576
irc	-8577
ouk	-8578
pad	-8579
une	-8580
ura	-8581
ຂວາ	-8582
ງວດ	-8583
ປອງ	-8584
ປອມ	-8585
ອານ	-8586
ເອດ	-8587
ໄຂ່	-8588
▁89	-8589
▁98	-8590
▁RS	-8591
▁Sl	-8592
▁no	-8593
▁sn	-8594
▁{_	-8595
▁ຟີ	-8596
▁ໂຮ	-8597
emap	-8598
ixer	-8599
ject	-8600
ober	-8601
ຊະນີ	-8602
ທ່ອງ	-8603
ປັ່ນ	-8604
ປຶ້ມ	-8605
ພ່ອງ	-8606
ລິຍະ	-8607
ໂຊຕາ	-8608
▁360	-8609
▁Ink	-8610
▁Lot	-8611
▁ODM	-8612
▁cat	-8613
▁spe	-8614
▁ste	-8615
▁ລາງ	-8616
▁ແຕະ	-8617
other	-8618
phone	-8619
umblr	-8620
ກັນຍາ	-8621
ີດີໂອ	-8622
ໄປຈາກ	-8623
້ນ້ໍາ	-8624
▁2030	-8625
▁Snap	-8626
▁ຫມຶກ	-8627
ດູດຊຶມ	-8628
ບໍ່ໃຫ້	-8629
ປົກຄອງ	-8630
ອົດທົນ	-8631
ແລະນັກ	-8632
▁Clear	-8633
▁Grand	-8634
▁Pharm	-8635
▁forex	-8636
▁hydro	-8637
▁ຄ່ອຍໆ	-8638
▁ພາກັນ	-8639
▁ສະດວກ	-8640
ທ່ານເອງ	-8641
ຫັນເປັນ	-8642
ໃນລະບົບ	-8643
▁Option	-8644
▁roller	-8645
▁ຊີ້ຂາດ	-8646
▁ທ່ານມີ	-8647
▁ນັ້ນຄື	-8648
▁ສີນ້ໍາ	-8649
ທີ່ຈະນໍາ	-8650
ປາດຖະຫນາ	-8651
ປ່ອງຢ້ຽມ	-8652
ສະແດງອອກ	-8653
ສັນຍາລັກ	-8654
ແບບພິເສດ	-8655
ໂດຍບໍ່ມີ	-8656
▁Netflix	-8657
▁ຄວາມຖີ່	-8658
▁ຜິວຫນັງ	-8659
▁ສໍາຫລັບ	-8660
▁ໂທລະພາບ	-8661
plication	-8662
ຂະຫນາດກາງ	-8663
ຂະແຫນງການ	-8664
▁Chemical	-8665
▁Koowheel	-8666
▁Passport	-8667
▁favorite	-8668
▁ບັນຍາກາດ	-8669
▁ແລະເມື່ອ	-8670
ການເດີນທາງ	-8671
ບໍລິສັດທີ່	-8672
ແລະປະຕິບັດ	-8673
▁Nashville	-8674
▁ການໂຄສະນາ	-8675
▁ຕົວຊີ້ວັດ	-8676
▁ເລືອກເອົາ	-8677
ມານະພະຍາຍາມ	-8678
ສາມາດໃຊ້ໄດ້	-8679
▁Production	-8680
▁ການປ້ອງກັນ	-8681
ທີ່ຄ້າຍຄືກັນ	-8682
▁ພວກເຮົາຕ້ອງ	-8683
ທາງດ້ານການເງິນ	-8684
▁ຂໍ້ມູນຈໍາເພາະ	-8685
ລັດຖະມົນຕີກະຊວງ	-8686
64	-8687
-60	-8688
.06	-8689
.30	-8690
ada	-8691
ali	-8692
ily	-8693
jet	-8694
rig	-8695
ຝູງ	-8696
ສະນ	-8697
ືອຍ	-8698
ໄຫ້	-8699
ໄຮ້	-8700
່ວິ	-8701
▁..	-8702
▁1%	-8703
▁47	-8704
▁RO	-8705
▁TV	-8706
▁UL	-8707
▁px	-8708
▁ຖຸ	-8709
▁ຣິ	-8710
ific	-8711
isha	-8712
mont	-8713
uter	-8714
ກ໊າຊ	-8715
ບົ່ມ	-8716
ີເມວ	-8717
▁-20	-8718
▁26,	-8719
▁Acc	-8720
▁DIN	-8721
▁Imp	-8722
▁Reg	-8723
▁dev	-8724
▁par	-8725
▁str	-8726
▁ງຫາ	-8727
▁ນາໆ	-8728
▁ແທກ	-8729
▁ໂທຣ	-8730
28113	-8731
aging	-8732
ieces	-8733
ility	-8734
ludge	-8735
ments	-8736
ophil	-8737
ກໍ່ຈະ	-8738
ສາດສະ	-8739
ີມ່ວງ	-8740
ໂມສອນ	-8741
▁6000	-8742
▁Back	-8743
▁CNIL	-8744
▁Song	-8745
▁Work	-8746
▁mach	-8747
▁type	-8748
▁ປ່ຽວ	-8749
ກົນຈັກ	-8750
ຄົງທີ່	-8751
ປະທ້ວງ	-8752
ປະເສີດ	-8753
ແບບຟອມ	-8754
ໃນຄວາມ	-8755
▁Epson	-8756
▁Khaki	-8757
▁Paris	-8758
▁Skype	-8759
▁Water	-8760
▁gener	-8761
▁ກະດູກ	-8762
▁ພິສູດ	-8763
▁ເດີ່ນ	-8764
rugated	-8765
ການເປັນ	-8766
ຂັ້ນສູງ	-8767
ດ້ານການ	-8768
ມະຫາຊົນ	-8769
ແມ່ນບໍ່	-8770
▁Oxygen	-8771
▁ບາງຄົນ	-8772
▁ໄບເບິນ	-8773
alloween	-8774
ດົນມານີ້	-8775
ທາດເຫຼັກ	-8776
ທີ່ບໍ່ດີ	-8777
ຢາເສບຕິດ	-8778
ເຕົ້າໂຮມ	-8779
ແຜ່ກະຈາຍ	-8780
ໃນຮູບແບບ	-8781
ໄວ້ວາງໃຈ	-8782
▁1528113	-8783
▁Bowflex	-8784
▁Quality	-8785
▁ພ້ອມກັບ	-8786
▁ມໍລະດົກ	-8787
ຄຣິດສະມາດ	-8788
ທີ່ຈະເປັນ	-8789
ນະຄອນຫຼວງ	-8790
ສະຫນອງໃຫ້	-8791
ແມ່ນເພື່ອ	-8792
▁ສາທາລະນະ	-8793
▁ສ້າງຕັ້ງ	-8794
▁ເຈົ້າຢາກ	-8795
▁ເວົ້າລົມ	-8796
ກະຕືລືລົ້ນ	-8797
ຄວາມເສຍຫາຍ	-8798
ຄຸນະພາບສູງ	-8799
ຕ່າງໆເຊັ່ນ	-8800
▁unlimited	-8801
▁ສະຖານະການ	-8802
▁ອະລູມິນຽມ	-8803
ຄຸນນະສົມບັດ	-8804
ທີ່ເກີດຂື້ນ	-8805
ມີຄວາມສາມາດ	-8806
▁ການປົກປ້ອງ	-8807
▁ຂະຫນາດນ້ອຍ	-8808
▁ມັນບໍ່ແມ່ນ	-8809
ທີ່ກໍານົດໄວ້	-8810
ສົມເຫດສົມຜົນ	-8811
▁ດໍາລົງຊີວິດ	-8812
▁ຈໍານວນຕົວແບບ	-8813
▁ໄດ້ສົມທົບກັບ	-8814
ກົດຫມາຍວ່າດ້ວຍ	-8815
▁ແລະຂ້າພະເຈົ້າ	-8816
ສ້າງຕັ້ງຂຶ້ນໃນປີ	-8817
81	-8818
BO	-8819
EX	-8820
fa	-8821
ki	-8822
ya	-8823
ຕ໌	-8824
ລູ	-8825
ECT	-8826
ani	-8827
bul	-8828
cam	-8829
elo	-8830
lue	-8831
ove	-8832
ຄະລ	-8833
ງຽບ	-8834
ທອດ	-8835
ຝົນ	-8836
ພັງ	-8837
ລີ່	-8838
ລ້າ	-8839
ແຊກ	-8840
▁63	-8841
▁CA	-8842
▁HU	-8843
▁Ke	-8844
▁``	-8845
▁ຍ່	-8846
▁ນູ	-8847
ailb	-8848
ging	-8849
onda	-8850
ping	-8851
weet	-8852
yuan	-8853
ເຂັມ	-8854
▁Cou	-8855
▁DVD	-8856
▁Ele	-8857
▁Hum	-8858
▁Inf	-8859
▁Jer	-8860
▁Lee	-8861
▁Log	-8862
▁Pot	-8863
▁Sem	-8864
▁inc	-8865
▁int	-8866
▁net	-8867
▁not	-8868
▁ຄວາ	-8869
▁ຈ້າ	-8870
▁ຕັກ	-8871
▁ເຈດ	-8872
ainer	-8873
amber	-8874
embly	-8875
xiang	-8876
ຊີຟິກ	-8877
ບໄຊທ໌	-8878
ປາກົດ	-8879
ພະຍົນ	-8880
ລະລາຍ	-8881
ອກລວງ	-8882
ໂລຫິດ	-8883
▁Bank	-8884
▁ຊີວະ	-8885
▁ທ່ອງ	-8886
▁ລະຍະ	-8887
▁ລາວກ	-8888
▁ຫຼວງ	-8889
▁ເທັກ	-8890
▁ເລີກ	-8891
ending	-8892
ງານບຸນ	-8893
ລໍາດັບ	-8894
ສະຫລົດ	-8895
ອັບອາຍ	-8896
ະໂຍບາຍ	-8897
ໂຮງຫມໍ	-8898
▁2019!	-8899
▁Cheng	-8900
▁Forum	-8901
▁fiber	-8902
▁ຍຸດຕິ	-8903
▁ສຸພາບ	-8904
charger	-8905
ຄວາມຫນາ	-8906
ທີ່ເຮັດ	-8907
ວາລະສານ	-8908
ຫຼັກຖານ	-8909
ອາບນ້ໍາ	-8910
ແມ່ນ້ໍາ	-8911
ໂທລະພາບ	-8912
ໃກ້ຂ້ອຍ	-8913
▁Oxford	-8914
▁ຊອບທໍາ	-8915
▁ມັນບໍ່	-8916
▁ສົງສານ	-8917
▁ເປື້ອນ	-8918
neumatic	-8919
ຕ່າງໆຂອງ	-8920
ຖົງປະເພດ	-8921
ຜົນຜະລິດ	-8922
ສະເຫມີໄປ	-8923
ອັດຕາການ	-8924
ແລະສາມາດ	-8925
▁Western	-8926
▁ດາວໂຫຼດ	-8927
▁ພາຍຫຼັງ	-8928
▁ເດັກຍິງ	-8929
ການຊື້ຂາຍ	-8930
ກາລະໂອກາດ	-8931
ໃນການສ້າງ	-8932
▁facebook	-8933
▁solenoid	-8934
▁ລົງທະບຽນ	-8935
▁ວາດສະຫນາ	-8936
▁ເພິ່ນໄດ້	-8937
▁ເພີດເພີນ	-8938
ສິ້ນສຸດລົງ	-8939
ຫ້ອງທົດລອງ	-8940
ແລະອຸປະກອນ	-8941
▁ການສື່ສານ	-8942
otechnology	-8943
ຕິດຕາມກວດກາ	-8944
ທີ່ຈະໄດ້ຮັບ	-8945
ວ່າເປັນຫຍັງ	-8946
▁ຂະຫນາດໃຫຍ່	-8947
ຍິນດີຕ້ອນຮັບ	-8948
▁ແມ່ນຫນຶ່ງໃນ	-8949
ວຽກເຮັດງານທໍາ	-8950
ປະສົບຜົນສໍາເລັດ	-8951
52	-8952
CT	-8953
TO	-8954
py	-8955
-90	-8956
.23	-8957
999	-8958
ask	-8959
enb	-8960
hem	-8961
olf	-8962
ste	-8963
uch	-8964
ulf	-8965
vis	-8966
ງ່າ	-8967
ປີນ	-8968
ເປີ	-8969
▁AN	-8970
▁FN	-8971
▁HT	-8972
▁bi	-8973
2019	-8974
elin	-8975
face	-8976
feng	-8977
ming	-8978
pper	-8979
urga	-8980
ຖ້ວມ	-8981
ຫຍ້າ	-8982
ເຈາະ	-8983
ເອັນ	-8984
ແຫຼວ	-8985
▁1.6	-8986
▁3.2	-8987
▁Alb	-8988
▁Buy	-8989
▁Feb	-8990
▁Mus	-8991
▁cnc	-8992
▁mag	-8993
▁rel	-8994
▁ນ້າ	-8995
▁ເທີ	-8996
▁ແພ້	-8997
▁ແວດ	-8998
aming	-8999
iller	-9000
ຊີມັງ	-9001
ທະຍົມ	-9002
ຜູ້ໃດ	-9003
ສະສົມ	-9004
ຫາຍໃຈ	-9005
ຮອດປີ	-9006
ໂອເນຍ	-9007
▁Bill	-9008
▁Diff	-9009
▁ກວາງ	-9010
▁ຂື້ນ	-9011
▁ຍ້ອງ	-9012
▁ຫງົບ	-9013
▁ແກ່ນ	-9014
▁ແວ່ນ	-9015
Script	-9016
rystal	-9017
ກະທັ້ງ	-9018
ຊວນຟຸກ	-9019
ຊື່ວ່າ	-9020
ພາກຮຽນ	-9021
ມັງກອນ	-9022
ມາກ່ອນ	-9023
ລົດຊາດ	-9024
▁ASEAN	-9025
▁Opera	-9026
▁Trans	-9027
▁Width	-9028
▁neuro	-9029
▁ສະກັດ	-9030
▁ສີຟ້າ	-9031
ຈະສາມາດ	-9032
ຕັ້ງຢູ່	-9033
ຜິວຫນັງ	-9034
ມໍລະດົກ	-9035
ວັດທະນະ	-9036
ສຸກເສີນ	-9037
ສ້ອມແປງ	-9038
ເກົາຫຼີ	-9039
ແນວນັ້ນ	-9040
▁Blythe	-9041
▁Chrome	-9042
▁Posted	-9043
▁Tumblr	-9044
▁ກັບຄືນ	-9045
▁ການນໍາ	-9046
▁ຂຶ້ນມາ	-9047
▁ສະຫມອງ	-9048
▁ແຂງແຮງ	-9049
▁ແຕ່ຍັງ	-9050
▁ແລະຜູ້	-9051
ເຖິງຄວາມ	-9052
▁Related	-9053
▁ຂອງຂວັນ	-9054
▁ອ້ອນວອນ	-9055
ທີ່ຈະແຈ້ງ	-9056
ແນະນໍາໃຫ້	-9057
▁Electron	-9058
▁ການເຄືອບ	-9059
▁ທ່ານຕ້ອງ	-9060
▁ໄລຍະເວລາ	-9061
ຕົວທ່ານເອງ	-9062
ຜິດປົກກະຕິ	-9063
ສະພາບອາກາດ	-9064
ແມ່ນມີຄວາມ	-9065
▁instagram	-9066
▁ການຊື້ຂາຍ	-9067
ຢ່າງເຕັມທີ່	-9068
ສິ່ງທີ່ຂ້ອຍ	-9069
ໃນທົ່ວປະເທດ	-9070
▁ກະຕືລືລົ້ນ	-9071
▁ການເຮັດວຽກ	-9072
▁ເດືອນພະຈິກ	-9073
ສ່ວນຫນຶ່ງຂອງ	-9074
ເກັບກໍາຂໍ້ມູນ	-9075
▁ຂອງເຂົາເຈົ້າ	-9076
▁ເດືອນພຶດສະພາ	-9077
%.	-9078
Cl	-9079
Ex	-9080
On	-9081
Qu	-9082
\)	-9083
uo	-9084
ຣນ	-9085
ຮູ	-9086
-05	-9087
015	-9088
ERI	-9089
UST	-9090
anc	-9091
gin	-9092
ida	-9093
lon	-9094
och	-9095
ris	-9096
yan	-9097
ຂຸດ	-9098
ຈອງ	-9099
ຍຶດ	-9100
▁0,	-9101
▁EM	-9102
▁IR	-9103
▁TW	-9104
▁Wi	-9105
▁\(	-9106
1000	-9107
acle	-9108
anth	-9109
back	-9110
cess	-9111
irus	-9112
ulic	-9113
ນິ້ວ	-9114
ປ໋ອງ	-9115
ຫລຸດ	-9116
ະລັກ	-9117
ຸນລະ	-9118
ເຊີດ	-9119
ເຊົາ	-9120
▁(0)	-9121
▁1.1	-9122
▁Lad	-9123
▁Mos	-9124
▁Sal	-9125
▁dis	-9126
▁out	-9127
▁ຍັດ	-9128
▁ເພີ	-9129
▁ໂຫຍ	-9130
-2019	-9131
755-2	-9132
ວະກາດ	-9133
▁Coun	-9134
▁Fair	-9135
▁Yang	-9136
▁will	-9137
▁ກາເຟ	-9138
▁ຍ່ອມ	-9139
▁ປັ່ນ	-9140
▁ລ້ໍາ	-9141
▁ເດີມ	-9142
ຄໍາວ່າ	-9143
ມັນໄດ້	-9144
ລູກຊາຍ	-9145
ສັກສິດ	-9146
ສິ່ງໃດ	-9147
ແມງໄມ້	-9148
ໂດຍສານ	-9149
▁Honda	-9150
▁Plate	-9151
▁Techn	-9152
▁spark	-9153
▁ຈະບໍ່	-9154
▁ບັນຊາ	-9155
▁ປະສານ	-9156
▁ສາກົນ	-9157
▁ສາຍຕາ	-9158
▁ເວືອງ	-9159
aterial	-9160
otropin	-9161
ຕາຫນ່າງ	-9162
ອັບໂຫລດ	-9163
ເງິນສົດ	-9164
ເຕົາອົບ	-9165
ແລະຂ້ອຍ	-9166
▁ກະເປົາ	-9167
▁ຂອງຜູ້	-9168
▁ຕົວເລກ	-9169
▁ທົນທານ	-9170
▁ມື້ນີ້	-9171
▁ອອກຈາກ	-9172
▁ໃນຂະນະ	-9173
▁ໄວຮຸ່ນ	-9174
ຕັ້ງຫນ້າ	-9175
ທີ່ຢູ່ໃນ	-9176
ບຽງອາຫານ	-9177
ແມ່ນເປັນ	-9178
▁Deposit	-9179
▁ceramic	-9180
▁twitter	-9181
▁ການສ້າງ	-9182
▁ແມ່ນແຕ່	-9183
▁ໄພໂອເນຍ	-9184
ຄວາມສະດວກ	-9185
ຄົນອັບເດດ	-9186
ສະແດງຄວາມ	-9187
ແບບຈໍາລອງ	-9188
▁Supplier	-9189
▁ຊຶ່ງເປັນ	-9190
▁ທ່ອງທ່ຽວ	-9191
▁ເຈົ້າວ່າ	-9192
▁ແຕ່ງຕັ້ງ	-9193
▁ແມ່ນແລ້ວ	-9194
ຂອງທ່ານເອງ	-9195
ຢ່າງແທ້ຈິງ	-9196
ຫນ້າທໍາອິດ	-9197
ເສີມຂະຫຍາຍ	-9198
▁Certified	-9199
▁Dedusting	-9200
▁ການຮ່ວມມື	-9201
ຂອງຮູບພາບຫາ	-9202
ມີຄວາມສົນໃຈ	-9203
ສະພາແຫ່ງຊາດ	-9204
ສ່ວນຫນ້າຂອງ	-9205
▁Galvanized	-9206
▁Innovative	-9207
▁ມະຫັດສະຈັນ	-9208
▁ເດືອນທັນວາ	-9209
▁ຂະຫນາດບັນຈຸ	-9210
▁ລະຍະຫ່າງຈາກ	-9211
ທີ່ເຊື່ອຖືໄດ້	-9212
▁ການເກັບຮັກສາ	-9213
▁ສູງສຸດທີ່ເຄຍ	-9214
ຂອງສາດສະຫນາຈັກ	-9215
ທາງດ້ານຮ່າງກາຍ	-9216
ເຖິງຜົມສ່ວນບົນ	-9217
▁ຄວາມສູງຂອງຫົວ	-9218
83	-9219
PT	-9220
gg	-9221
-50	-9222
.08	-9223
aga	-9224
day	-9225
emo	-9226
ese	-9227
jin	-9228
met	-9229
osp	-9230
urs	-9231
xin	-9232
ຈົກ	-9233
ົານ	-9234
ເຣຍ	-9235
ແງ່	-9236
ແມ້	-9237
▁DK	-9238
▁FI	-9239
▁GD	-9240
▁HK	-9241
▁Sa	-9242
▁Ve	-9243
▁ri	-9244
▁ປໍ	-9245
Outs	-9246
ຊິ້ນ	-9247
ຜູ້ນ	-9248
ສ່ອງ	-9249
ເນົາ	-9250
▁3.5	-9251
▁Cur	-9252
▁Hun	-9253
▁JPY	-9254
▁Sex	-9255
▁Sil	-9256
▁art	-9257
▁cre	-9258
▁csg	-9259
▁end	-9260
▁equ	-9261
▁etc	-9262
▁man	-9263
▁ຂັງ	-9264
▁ຊຸກ	-9265
▁ທັກ	-9266
▁ທິມ	-9267
▁ຝາກ	-9268
▁ລະຫ	-9269
▁ລ່າ	-9270
▁ອາບ	-9271
▁ໂຢບ	-9272
ience	-9273
rogen	-9274
ການສະ	-9275
ກໍ່ຄື	-9276
ຄໍາພີ	-9277
ດົນໃຈ	-9278
ທະພັນ	-9279
ສະວິດ	-9280
ສາມັນ	-9281
ອາລົມ	-9282
ໃຫ້ມີ	-9283
▁Anti	-9284
▁Fort	-9285
▁York	-9286
▁play	-9287
▁test	-9288
▁ກູໂກ	-9289
▁ງຸ່ນ	-9290
▁ອະໄພ	-9291
▁ເຖີດ	-9292
▁ເມີນ	-9293
▁ແຕ່ນ	-9294
change	-9295
urnace	-9296
ກາງຄືນ	-9297
ກ້າຫານ	-9298
ຈຸດສຸມ	-9299
ທີ່ພັກ	-9300
ປະເພນີ	-9301
ລາວໄດ້	-9302
ສາຍແອວ	-9303
ຫ່າງໄກ	-9304
ເປື້ອນ	-9305
ໄຊຊະນະ	-9306
▁Graph	-9307
▁Strip	-9308
▁ໃຫມ່ໆ	-9309
ຈົດຫມາຍ	-9310
ຫຼັກຊັບ	-9311
ອາຟຣິກາ	-9312
ຮ່ວມເພດ	-9313
ັ້ງເດີມ	-9314
ແມ່ນຖືກ	-9315
▁Tablet	-9316
▁ງານບຸນ	-9317
▁ທໍານາຍ	-9318
▁ສະຫລຸບ	-9319
ailbreak	-9320
osilicon	-9321
ກ່າວເຖິງ	-9322
ຊື່ອີເມວ	-9323
ຕິດເຊື້ອ	-9324
ມາຈາກການ	-9325
ໂດດເດັ່ນ	-9326
▁Fitness	-9327
▁Limited	-9328
▁ຂອງຂ້ອຍ	-9329
▁ຄົ້ນພົບ	-9330
▁ບັນເທົາ	-9331
▁ພະຍາກອນ	-9332
▁ພາກພື້ນ	-9333
▁ພ້ອມກັນ	-9334
▁ເປັນຜູ້	-9335
ການຮຽນຮູ້	-9336
ຂອງຂໍ້ມູນ	-9337
▁ການສັກຢາ	-9338
▁ເປີດເຜີຍ	-9339
▁ໃຊ້ລະຫັດ	-9340
ການຄ້າເສລີ	-9341
ມະຫັດສະຈັນ	-9342
ເຮັດໃຫ້ມັນ	-9343
ໄດ້ກາຍເປັນ	-9344
▁Diaphragm	-9345
▁Unlimited	-9346
▁butterfly	-9347
ກຸ່ມບໍລິສັດ	-9348
ຄວາມແຕກຕ່າງ	-9349
▁JavaScript	-9350
▁ການແກ້ໄຂໃນ	-9351
ຜູ້ເປັນເຈົ້າ	-9352
ເຮັດໃຫ້ມີແສງ	-9353
▁ຄຸນນະພາບສູງ	-9354
▁ເຈົ້າຮູ້ສຶກ	-9355
▁ການເຄື່ອນໄຫວ	-9356
▁ຂ້າພະເຈົ້າຢາກ	-9357
▁ຄ່າໃຊ້ຈ່າຍທັງ	-9358
▁ທີ່ຢູ່ເວັບໄຊທ໌	-9359
▁ເຄື່ອງນຸ່ງຫົ່ມ	-9360
56	-9361
MT	-9362
ຟໍ	-9363
BET	-9364
ຊັງ	-9365
ຕຽງ	-9366
ບົກ	-9367
ປອດ	-9368
ລານ	-9369
ລິມ	-9370
ຮອຍ	-9371
ເຈາ	-9372
ເນີ	-9373
ເບຍ	-9374
ເວດ	-9375
ແລງ	-9376
▁EX	-9377
▁Fu	-9378
▁NW	-9379
▁Py	-9380
▁QC	-9381
▁SA	-9382
Chat	-9383
ains	-9384
mium	-9385
pack	-9386
pert	-9387
sych	-9388
unny	-9389
ກ້ອງ	-9390
ຖ່ອມ	-9391
ມີນາ	-9392
ອຸປະ	-9393
ື່ອຍ	-9394
ເຈລະ	-9395
ເຫລວ	-9396
ເຫ້ວ	-9397
ໂທລະ	-9398
▁Add	-9399
▁CAS	-9400
▁Cnc	-9401
▁Gar	-9402
▁ຊຶມ	-9403
▁ດານ	-9404
▁ທຸງ	-9405
▁ພັງ	-9406
▁ຢາຍ	-9407
▁ລ້າ	-9408
▁ເຊີ	-9409
▁ເມວ	-9410
ember	-9411
owder	-9412
ກະວານ	-9413
ນີ້ຈະ	-9414
ປະສາດ	-9415
ໃຈກາງ	-9416
▁1080	-9417
▁1800	-9418
▁Anal	-9419
▁Fram	-9420
▁Gall	-9421
▁Jing	-9422
▁Ring	-9423
▁cake	-9424
▁ກຸ້ມ	-9425
▁ຢ່ອນ	-9426
▁ວຸ້ນ	-9427
▁ຫມວກ	-9428
▁ເທົາ	-9429
lamode	-9430
ຈອດລົດ	-9431
ຕະຫລົກ	-9432
ທີ່ຍັງ	-9433
ລົບກວນ	-9434
ຫາວິທີ	-9435
ໂປຼຕີນ	-9436
ໄດ້ປຽບ	-9437
▁2017.	-9438
▁Admin	-9439
▁Azure	-9440
▁James	-9441
▁Paper	-9442
▁Silic	-9443
▁ອັກຄະ	-9444
▁ເທືອນ	-9445
▁ແຕ່ໃນ	-9446
▁ໂຄມໄຟ	-9447
draulic	-9448
ຈິງແລ້ວ	-9449
ທິສັນຍາ	-9450
ສູງອາຍຸ	-9451
ເນື້ອຫາ	-9452
ເວລານີ້	-9453
▁Carbon	-9454
▁Guitar	-9455
▁Paypal	-9456
▁Spring	-9457
▁corros	-9458
▁ການໃຊ້	-9459
▁ຂອງພວກ	-9460
▁ຄາດວ່າ	-9461
▁ຊັດເຈນ	-9462
▁ທຸກຄົນ	-9463
▁ຜູ້ຂຽນ	-9464
▁ມີຫນ້າ	-9465
▁ເຫຼັ້ມ	-9466
rostatic	-9467
ຈາກປະເທດ	-9468
ລະບຽບການ	-9469
ລົງຄະແນນ	-9470
ຫລາຍຂຶ້ນ	-9471
▁Instrum	-9472
▁flicker	-9473
▁ກະສິກໍາ	-9474
▁ຜູ້ນັ້ນ	-9475
▁ລັບຂ້ອຍ	-9476
▁ຫຼັກສູດ	-9477
▁ອົບອຸ່ນ	-9478
ifunction	-9479
ທີ່ສຸດຂອງ	-9480
ສຸມໃສ່ການ	-9481
ແລະຊຸມຊົນ	-9482
▁ອື່ນໆທີ່	-9483
▁ໃນທີ່ສຸດ	-9484
ດ້ວຍຕົນເອງ	-9485
ປະທານອາຫານ	-9486
ມີປະສົບການ	-9487
▁Cartridge	-9488
ເປັນເອກະລັກ	-9489
ເລົ່າເລື່ອງ	-9490
ເຫມາະສົມກັບ	-9491
▁Misslamode	-9492
▁corrugated	-9493
▁ການສົນທະນາ	-9494
▁ອິນໂດເນເຊຍ	-9495
▁ເພາະສະນັ້ນ	-9496
ຄວາມເຂັ້ມແຂງ	-9497
ດ້ານເສດຖະກິດ	-9498
ໄດ້ເລີ່ມຕົ້ນ	-9499
▁ເຄື່ອງປະດັບ	-9500
▁ເປັນຜູ້ຜະລິດ	-9501
HZ	-9502
We	-9503
pc	-9504
10,	-9505
110	-9506
CSA	-9507
IFI	-9508
Ind	-9509
ean	-9510
kgs	-9511
ງົວ	-9512
ມະໂ	-9513
ຣແກ	-9514
ລາກ	-9515
ໂຫຍ	-9516
ໄຖ່	-9517
▁88	-9518
▁CM	-9519
▁ER	-9520
▁Er	-9521
▁Ey	-9522
▁IS	-9523
▁MC	-9524
▁MX	-9525
▁SU	-9526
▁el	-9527
▁us	-9528
aber	-9529
asma	-9530
cast	-9531
cker	-9532
ergy	-9533
itor	-9534
odia	-9535
ston	-9536
tech	-9537
ucks	-9538
ີເຈີ	-9539
ເມສາ	-9540
▁365	-9541
▁95%	-9542
▁AAS	-9543
▁APK	-9544
▁BTC	-9545
▁Big	-9546
▁CBD	-9547
▁Hub	-9548
▁Lab	-9549
▁Nov	-9550
▁Pol	-9551
▁Pox	-9552
▁XML	-9553
▁dji	-9554
▁pcs	-9555
▁tok	-9556
▁val	-9557
▁ກອດ	-9558
▁ຈານ	-9559
▁ບວນ	-9560
▁ປ້າ	-9561
▁ມອນ	-9562
▁ມາຍ	-9563
▁ສີດ	-9564
▁ໄຂ້	-9565
ifier	-9566
izing	-9567
ublic	-9568
ຂະບວນ	-9569
ຂົ່ມຂ	-9570
ຕໍ່ປີ	-9571
ສົດໃສ	-9572
ອົງຄະ	-9573
ັດທົວ	-9574
າວຸໂສ	-9575
ໄປຕາມ	-9576
▁Flex	-9577
▁Phot	-9578
▁Site	-9579
▁Vill	-9580
▁Will	-9581
▁Xing	-9582
▁prof	-9583
▁ປະຈຸ	-9584
▁ປັ້ນ	-9585
▁ຫິມະ	-9586
▁ຮ່ອງ	-9587
covery	-9588
edding	-9589
ກອງທັບ	-9590
ຊົງຈໍາ	-9591
ຊົມໃຊ້	-9592
ປານກາງ	-9593
ພັດລົມ	-9594
ສະຫລອງ	-9595
ໃຫ້ຜູ້	-9596
ໄວລຸ້ນ	-9597
▁Screw	-9598
▁Share	-9599
▁Views	-9600
▁ຄືກັນ	-9601
▁ຄົບຫາ	-9602
▁ລາມົກ	-9603
▁ຫຼາຍໆ	-9604
▁ເບື່ອ	-9605
▁ເຜິ້ງ	-9606
▁ໃນວັນ	-9607
ກໍ່ຕັ້ງ	-9608
ຂອງເຂົາ	-9609
ຄືນໃຫມ່	-9610
ຊ່ວຍເຫຼ	-9611
ຜ່ານແດນ	-9612
ພິທະພັນ	-9613
ມະໂຫລານ	-9614
ຢາງພາລາ	-9615
ເຫັນວ່າ	-9616
▁carton	-9617
▁ການໃຫ້	-9618
▁ຕົນເອງ	-9619
▁ທ້າທາຍ	-9620
▁ສາຍແອວ	-9621
▁ສຸມໃສ່	-9622
▁ສົມສັກ	-9623
ological	-9624
ກຕ່າງຫາກ	-9625
ຈອນເຕັ້ນ	-9626
ບົ່ມຊ້ອນ	-9627
ອັນດັບທີ	-9628
ໃຫ້ເຈົ້າ	-9629
▁Chamber	-9630
▁printer	-9631
▁ກັບຄວາມ	-9632
▁ຂອງເຮົາ	-9633
▁ບໍລິຫານ	-9634
▁ສະຕະວັດ	-9635
▁ສະຫະພັນ	-9636
▁ຫລັງຈາກ	-9637
ສໍານັກງານ	-9638
▁Diffuser	-9639
▁ຍິ່ງໃຫຍ່	-9640
▁ທາງເລືອກ	-9641
▁ບໍ່ສາມາດ	-9642
▁ລະຫັດທົວ	-9643
▁ເຈົ້າຄິດ	-9644
▁ເວົ້າກັບ	-9645
ຊາວກະສິກອນ	-9646
ດ້ານການຄ້າ	-9647
ປົກຫຸ້ມຂອງ	-9648
▁Pneumatic	-9649
▁ການວິເຄາະ	-9650
▁ຂໍ້ມູນເກມ	-9651
▁ຊື່ຍີ່ຫໍ້	-9652
▁ຫນັງສືພິມ	-9653
▁ອາດຈະເປັນ	-9654
ທີ່ເອີ້ນວ່າ	-9655
ແບ່ງອອກເປັນ	-9656
ແລະການຜະລິດ	-9657
▁ຍົກຕົວຢ່າງ	-9658
▁ບັນດາປະເທດ	-9659
▁ພວກເຮົາຍັງ	-9660
▁ລະມັດລະວັງ	-9661
▁ເດືອນກຸມພາ	-9662
ອອກກໍາລັງກາຍ	-9663
ແລະຕ່າງປະເທດ	-9664
ແລະເຕັກໂນໂລຊີ	-9665
▁ຕອນຄ່ໍາວັນທີ	-9666
ຂອງການຄົ້ນຄວ້າ	-9667
▁Biotechnology	-9668
ກອງປະຊຸມສໍາມະນາ	-9669
ເຄື່ອງຫມາຍການຄ້າ	-9670
0)	-9671
53	-9672
GL	-9673
IU	-9674
SI	-9675
TY	-9676
ua	-9677
wp	-9678
ຟີ	-9679
="0	-9680
IVE	-9681
TER	-9682
aha	-9683
ama	-9684
axi	-9685
inc	-9686
ini	-9687
ຄືບ	-9688
ຍົດ	-9689
ປິກ	-9690
ມືດ	-9691
ຣັກ	-9692
ລວດ	-9693
ີດີ	-9694
▁07	-9695
▁6.	-9696
▁76	-9697
▁DI	-9698
▁EU	-9699
▁Ft	-9700
▁PA	-9701
▁ms	-9702
▁vk	-9703
▁ໄອ	-9704
airs	-9705
arak	-9706
ould	-9707
qing	-9708
ship	-9709
vert	-9710
ຊ້າຍ	-9711
ຕລາຍ	-9712
ຕຸ້ງ	-9713
ຕົ້ມ	-9714
ວນໍາ	-9715
ຫມາດ	-9716
ຮ່ຈິ	-9717
ແລ້ງ	-9718
ໃຊ້ງ	-9719
▁(11	-9720
▁91;	-9721
▁Bat	-9722
▁Emb	-9723
▁Enc	-9724
▁Rab	-9725
▁SMS	-9726
▁cam	-9727
▁est	-9728
▁pad	-9729
▁tri	-9730
▁ຈອກ	-9731
▁ຈິນ	-9732
▁ອວຍ	-9733
▁ໂຫດ	-9734
▁ໄຮ້	-9735
Point	-9736
ading	-9737
arius	-9738
cheng	-9739
ening	-9740
erson	-9741
field	-9742
itute	-9743
ຕາມິນ	-9744
ທີ່ສະ	-9745
ນີ້ມີ	-9746
ພູມໃຈ	-9747
ມັນຈະ	-9748
ມາຮອດ	-9749
ລະຍາຍ	-9750
ລະບົດ	-9751
ສະວັດ	-9752
ິງຕັນ	-9753
ເກັ່ງ	-9754
▁2500	-9755
▁Apps	-9756
▁Matt	-9757
▁Plug	-9758
▁Tele	-9759
▁Text	-9760
▁serv	-9761
▁ຫົ່ມ	-9762
ຂອງຕົວ	-9763
ເລື່ອນ	-9764
ເອື້ອຍ	-9765
ໂປ່ງໃສ	-9766
ໃນທົ່ວ	-9767
ໃນນ້ໍາ	-9768
▁Chain	-9769
▁Metal	-9770
▁Metro	-9771
▁Night	-9772
▁Photo	-9773
▁Print	-9774
▁Spong	-9775
▁Start	-9776
▁ໂມດູນ	-9777
ຄິດສ້າງ	-9778
ຕົກແຕ່ງ	-9779
ຕ້ານການ	-9780
ສະເທືອນ	-9781
ອັນຕລາຍ	-9782
ອົບອຸ່ນ	-9783
ເປີດຕົວ	-9784
ເອກະພາບ	-9785
▁Crypto	-9786
▁Odisha	-9787
▁Router	-9788
▁Royale	-9789
▁ຂອງນາງ	-9790
▁ຕໍ່ໆໄປ	-9791
▁ທັງສອງ	-9792
▁ທີ່ພັກ	-9793
▁ປີກ່ອນ	-9794
▁ສະຖານະ	-9795
▁ສີສົ້ມ	-9796
▁ຮັບຮອງ	-9797
ຂອງແຕ່ລະ	-9798
ຫ້ອງນ້ໍາ	-9799
ເສຍສະຫຼະ	-9800
ໄດ້ແນວໃດ	-9801
▁Acetate	-9802
▁Crusher	-9803
▁Sitemap	-9804
▁ກ່າວວ່າ	-9805
▁ຂາຍສົ່ງ	-9806
▁ຂຶ້ນຢູ່	-9807
▁ພິພາກສາ	-9808
▁ມື້ຄ່ໍາ	-9809
▁ຮູບຮ່າງ	-9810
ophilized	-9811
ການໂຄສະນາ	-9812
ທີ່ຈະສ້າງ	-9813
ທີ່ຈະເຮັດ	-9814
ພົວພັນກັບ	-9815
ຫຼີກເວັ້ນ	-9816
▁Assembly	-9817
▁Hangzhou	-9818
▁roulette	-9819
▁ການພະນັນ	-9820
▁ຕ່າງໆຂອງ	-9821
▁ພະບັນຍັດ	-9822
▁ເສື້ອຜ້າ	-9823
ຂອງຮ່າງກາຍ	-9824
ທີ່ເຮັດວຽກ	-9825
ສະຖຽນລະພາບ	-9826
ຮູ້ກ່ຽວກັບ	-9827
▁Connector	-9828
▁ລະດັບຄວາມ	-9829
▁ສະຫນາມບິນ	-9830
ກ້ອງຖ່າຍຮູບ	-9831
ຮູບພາບໄປສູ່	-9832
▁ການບໍລິໂພກ	-9833
▁ເກີດຂຶ້ນຄື	-9834
ຕໍ່ໄປຂອງທ່ານ	-9835
ໄດ້ຮັບຂໍ້ມູນ	-9836
▁ເສົ້າສະຫລົດ	-9837
▁ແລະດັ່ງນັ້ນ	-9838
ການເຊື່ອມໂລຫະ	-9839
ທີ່ເປັນເອກະລັກ	-9840
▁ໂດຍສະເພາະແມ່ນ	-9841
▁ນອກເຫນືອຈາກການ	-9842
Co	-9843
DC	-9844
Sp	-9845
pi	-9846
-02	-9847
-11	-9848
-13	-9849
.15	-9850
1.0	-9851
20)	-9852
ALE	-9853
EMA	-9854
ORD	-9855
apy	-9856
bus	-9857
ony	-9858
set	-9859
vas	-9860
vid	-9861
ທິມ	-9862
ປືນ	-9863
ລອນ	-9864
ວີບ	-9865
ອັງ	-9866
ເກງ	-9867
ເປນ	-9868
▁59	-9869
▁CC	-9870
▁CL	-9871
▁EP	-9872
▁Fr	-9873
▁II	-9874
▁fe	-9875
edia	-9876
ists	-9877
rone	-9878
test	-9879
xBet	-9880
ກິ່ນ	-9881
ຄ້າງ	-9882
ພລາສ	-9883
ສຸ່ມ	-9884
ຮຸ່ງ	-9885
ເດົາ	-9886
▁315	-9887
▁Aqu	-9888
▁Bao	-9889
▁Bit	-9890
▁CAN	-9891
▁GED	-9892
▁RSS	-9893
▁SGS	-9894
▁SQL	-9895
▁Sea	-9896
▁bug	-9897
▁ຂວາ	-9898
▁ຖັງ	-9899
▁ຫມູ	-9900
▁ຮີດ	-9901
▁ແຄບ	-9902
▁ແຄມ	-9903
▁ແສດ	-9904
/2017	-9905
anges	-9906
otton	-9907
ratch	-9908
razil	-9909
retch	-9910
ທິຍານ	-9911
ສະຕິງ	-9912
ສາວົກ	-9913
ໂຈມຕີ	-9914
▁1.0%	-9915
▁5000	-9916
▁Game	-9917
▁Hard	-9918
▁ດ່ວນ	-9919
▁ພະຍາ	-9920
▁ສະຕີ	-9921
▁ເດັດ	-9922
▁ແອັບ	-9923
amping	-9924
ration	-9925
urgaon	-9926
ຕາຂ່າຍ	-9927
ທ່ານມີ	-9928
ຫວັດດີ	-9929
ຮັ່ງມີ	-9930
ແລະໄດ້	-9931
▁Adder	-9932
▁Angel	-9933
▁Beige	-9934
▁Brush	-9935
▁Sihan	-9936
▁Times	-9937
▁ຈຸລັງ	-9938
▁ຍັງມີ	-9939
▁ປະດິດ	-9940
▁ມໍເຕີ	-9941
▁ລະບາຍ	-9942
▁ຫມ້າຍ	-9943
▁ເຮືອງ	-9944
ography	-9945
ຍົກເລີກ	-9946
ຕັດຫຍິບ	-9947
ພື້ນຜິວ	-9948
ວົງເງິນ	-9949
ສາມັກຄີ	-9950
ແຫ່ງການ	-9951
▁Castle	-9952
▁Energy	-9953
▁Fruity	-9954
▁ຄໍານຶງ	-9955
▁ທອງແດງ	-9956
▁ມັນຍັງ	-9957
▁ອະໄຫລ່	-9958
▁ອ່ອນແອ	-9959
ທາງປັນຍາ	-9960
ປັບອາກາດ	-9961
ລະດັບຊາດ	-9962
ເສຍອົງຄະ	-9963
▁Bonuses	-9964
▁October	-9965
▁jackpot	-9966
▁youjian	-9967
▁ການເກັບ	-9968
▁ການເຮັດ	-9969
▁ຕັ້ງຢູ່	-9970
▁ສະຊອບແວ	-9971
▁ສິງກະໂປ	-9972
▁ຫຼັກຖານ	-9973
ທີ່ສົມບູນ	-9974
ບໍ່ມີຫຍັງ	-9975
ວິສະວະກອນ	-9976
ຫຼາຍປານໃດ	-9977
ອະລູມິນຽມ	-9978
ແລະຂະຫນາດ	-9979
▁tutorial	-9980
▁ບັນລະຍາຍ	-9981
ພື້ນຖານຂອງ	-9982
ລັກສະນະຂອງ	-9983
ໄລຍະດຽວກັນ	-9984
▁ລະຫັດຜ່ານ	-9985
ບັນດາອົງການ	-9986
▁ຄວາມຮູ້ສຶກ	-9987
▁ສິ່ງທ້າທາຍ	-9988
ເຂົ້າຮ່ວມຂອງ	-9989
▁Application	-9990
▁ຫງວຽນຊວນຟຸກ	-9991
▁ເຊັ່ນດຽວກັນ	-9992
ທີ່ມີຄຸນນະພາບ	-9993
▁ຢ່າງໃດກໍ່ຕາມ	-9994
ທີ່ຈະໄດ້ຮັບການ	-9995
ເຫມາະສົມສໍາລັບ	-9996
")	-9997
Fi	-9998
Fl	-9999
MH	-10000
iw	-10001
js	-10002
la	-10003
oe	-10004
so	-10005
ön	-10006
ຝາ	-10007
ໂຮ	-10008
/19	-10009
GSM	-10010
emy	-10011
urb	-10012
uth	-10013
ພານ	-10014
ເອນ	-10015
▁3)	-10016
▁92	-10017
▁DH	-10018
▁GW	-10019
▁RE	-10020
▁ຣີ	-10021
ason	-10022
case	-10023
hong	-10024
rine	-10025
xbet	-10026
ຫລີກ	-10027
ິເຈີ	-10028
ແຫວນ	-10029
▁0.9	-10030
▁25%	-10031
▁30,	-10032
▁CIS	-10033
▁Cre	-10034
▁Die	-10035
▁GMP	-10036
▁HDL	-10037
▁Han	-10038
▁Nan	-10039
▁TPU	-10040
▁Yue	-10041
▁acc	-10042
▁col	-10043
▁ຊີບ	-10044
▁ຟລີ	-10045
▁ເຊຍ	-10046
▁ໂອນ	-10047
▁້ໍາ	-10048
annel	-10049
enger	-10050
hydro	-10051
inger	-10052
oshan	-10053
ragon	-10054
ນັບຖື	-10055
ຫນື່ງ	-10056
ອັດສະ	-10057
▁Cixi	-10058
▁Edge	-10059
▁Fire	-10060
▁cage	-10061
▁ເຜົາ	-10062
▁ເລີນ	-10063
▁ແຊ່ງ	-10064
▁ໃກ້ໆ	-10065
irates	-10066
ກະລຸນາ	-10067
ການໃຊ້	-10068
ການໃຫ້	-10069
ຄົນດຽວ	-10070
ບໍ່ຄວນ	-10071
ຜົວເມຍ	-10072
ພຣະກິດ	-10073
ລົດຖີບ	-10074
ວ່ານັກ	-10075
ຫລັງຄາ	-10076
ອ່ອນແອ	-10077
ຮາງວັນ	-10078
ີ່ປຸ່ນ	-10079
ເຫລືອງ	-10080
ໂຕ້ຖຽງ	-10081
ໄປເຖິງ	-10082
້ານັ້ນ	-10083
▁EVFTA	-10084
▁Media	-10085
▁Promo	-10086
▁games	-10087
▁ອາຈານ	-10088
▁ເມດຕາ	-10089
content	-10090
ຄິດເຖິງ	-10091
ຕໍາຫຼວດ	-10092
ທຸກໆຄົນ	-10093
ປະຕິຮູບ	-10094
ປະຕິເຫດ	-10095
ພຣະເຢຊູ	-10096
ຮ່ຈິມິນ	-10097
ເທົ່າໃດ	-10098
▁(2016)	-10099
▁Armati	-10100
▁String	-10101
▁invent	-10102
▁ລົດຈັກ	-10103
▁ອີງຕາມ	-10104
▁ເຊື່ອງ	-10105
▁ເຕີບໂຕ	-10106
▁ແມ່ນມີ	-10107
ກວາງຕຸ້ງ	-10108
ຄວາມເຢັນ	-10109
ຊົງກະບອກ	-10110
ທີ່ປອດໄພ	-10111
ສັນຕິພາບ	-10112
ືກ່ຽວກັບ	-10113
ເຂັ້ມງວດ	-10114
ເຄາະຮ້າຍ	-10115
ເນື້ອທີ່	-10116
ແລະລະບົບ	-10117
ໄລຍະເວລາ	-10118
▁Gurgaon	-10119
▁crusher	-10120
▁ຄວາມຮັກ	-10121
▁ຊົ່ວຄາວ	-10122
▁ຊ່ຽວຊານ	-10123
▁ຕັ້ງແຕ່	-10124
▁ຖ່ານຫີນ	-10125
▁ປ່ຽນກັບ	-10126
▁ອຸທິຍານ	-10127
▁ເປັນການ	-10128
ຍັງບໍ່ທັນ	-10129
▁Cambodia	-10130
▁Sihanouk	-10131
▁ຍຸດທະສາດ	-10132
▁ຫນູນຊ່ວຍ	-10133
▁ເຫມາະສົມ	-10134
ກັບພວກເຮົາ	-10135
ຈໍານວນເງິນ	-10136
ວ່ານີ້ແມ່ນ	-10137
ສະບັບເລກທີ	-10138
ເປັນຕົວແທນ	-10139
ແຍກຕ່າງຫາກ	-10140
▁Extrusion	-10141
▁ວິສະວະກອນ	-10142
▁ເຂົ້າໄປໃນ	-10143
▁ເຊິ່ງແມ່ນ	-10144
▁ເຊື່ອມຕໍ່	-10145
ດ້ານການເງິນ	-10146
ເວັບໄຊທ໌ນີ້	-10147
ໃນການອອກແບບ	-10148
▁Lyophilized	-10149
▁ກ້ອງຖ່າຍຮູບ	-10150
ຂອງພວກເຮົາແລະ	-10151
ເກັບຂີ້ເຫຍື້ອ	-10152
▁ຂ້າພະເຈົ້າຈະ	-10153
▁ເດືອນກໍລະກົດ	-10154
▁Organosilicon	-10155
▁ຂອງຂ້າພະເຈົ້າ	-10156
ຂໍ້ມູນຂອງພວກເຮົາ	-10157
Al	-10158
DM	-10159
PG	-10160
ba	-10161
mA	-10162
ຫູ	-10163
-03	-10164
-04	-10165
-21	-10166
1.5	-10167
="3	-10168
COM	-10169
ear	-10170
iki	-10171
ker	-10172
yle	-10173
ຄຸມ	-10174
ຕຽນ	-10175
ຖັນ	-10176
ບົບ	-10177
ລອກ	-10178
າທິ	-10179
າວະ	-10180
ໃບຄ	-10181
▁1)	-10182
▁57	-10183
▁62	-10184
▁68	-10185
▁78	-10186
▁CZ	-10187
▁EC	-10188
▁GT	-10189
▁SN	-10190
▁TM	-10191
▁kn	-10192
▁ox	-10193
▁ຄຸ	-10194
▁ຕໍ	-10195
▁ສປ	-10196
9999	-10197
arat	-10198
ides	-10199
star	-10200
ກ້າມ	-10201
ດິ່ງ	-10202
ບໍດີ	-10203
ມະຕະ	-10204
ຫລວດ	-10205
ຫລໍ່	-10206
ິເຕີ	-10207
ເດີນ	-10208
ເອີນ	-10209
ແຍ່ງ	-10210
ໂຫຍກ	-10211
້ນີ້	-10212
▁650	-10213
▁End	-10214
▁Mad	-10215
▁Non	-10216
▁Suz	-10217
▁THB	-10218
▁Upd	-10219
▁Yin	-10220
▁bar	-10221
▁ຂຸດ	-10222
▁ຂຸມ	-10223
▁ງ່າ	-10224
▁ຍືນ	-10225
▁ບອດ	-10226
▁ຜັກ	-10227
▁ວົນ	-10228
▁ແວງ	-10229
Shirt	-10230
witch	-10231
ຖະກໍາ	-10232
ຖືວ່າ	-10233
ສະຈາກ	-10234
ອາວຸດ	-10235
ເຖົ້າ	-10236
ໃຊ້ໃນ	-10237
▁Bang	-10238
▁Fast	-10239
▁HBOT	-10240
▁Kids	-10241
▁Tech	-10242
▁have	-10243
▁ຄ້ານ	-10244
▁ເຊີດ	-10245
Casino	-10246
ations	-10247
enturi	-10248
intage	-10249
ຕົວຕົນ	-10250
ທັນຫັນ	-10251
ຢືນຢູ່	-10252
ລະນິທິ	-10253
ວ່ານາງ	-10254
ະນະນັກ	-10255
ໃບຄ້າຍ	-10256
ໃບຫນ້າ	-10257
່ານັ້ງ	-10258
ໍລິສັດ	-10259
▁2020.	-10260
▁Horiz	-10261
▁Huang	-10262
▁Proxy	-10263
▁Relay	-10264
▁latte	-10265
▁under	-10266
▁ວາງໃຈ	-10267
▁ສະມັດ	-10268
ດິນເຜົາ	-10269
ນໍາເອົາ	-10270
ວ່າຈະມີ	-10271
ເງິນຂອງ	-10272
ແລະເຮັດ	-10273
▁AASraw	-10274
▁Brazil	-10275
▁Burner	-10276
▁Corpor	-10277
▁hacker	-10278
▁ຊຶ່ງມີ	-10279
▁ລະເບີດ	-10280
▁ແຕ່ບໍ່	-10281
▁ແຜນທີ່	-10282
▁ແລະໄດ້	-10283
ດ້ານໄອທີ	-10284
ຕ່ໍາກວ່າ	-10285
ທີ່ຜະລິດ	-10286
ປະຫລາດໃຈ	-10287
ມາດຕະການ	-10288
ລະບົດບາດ	-10289
ວັດຖຸດິບ	-10290
ເຂົ້າກັນ	-10291
▁Network	-10292
▁Ninjago	-10293
▁Village	-10294
▁machine	-10295
▁ຊຶ່ງພວກ	-10296
▁ຕາຫນ່າງ	-10297
▁ພາລະກິດ	-10298
▁ລຸກຂຶ້ນ	-10299
▁ອາຟຣິກາ	-10300
▁ຮ້ອງໄຫ້	-10301
▁ເຂົາໄດ້	-10302
▁ເປີເຊັນ	-10303
▁ແມ່ນ້ໍາ	-10304
ການຕະຫຼາດ	-10305
ຍານພາຫະນະ	-10306
ພົ້ນເດັ່ນ	-10307
ສູງສຸດຂອງ	-10308
ເມື່ອຂ້ອຍ	-10309
▁ອິດທິພົນ	-10310
▁ເຊື້ອສາຍ	-10311
▁ເປັນຕົ້ນ	-10312
▁ເວັ້ນຈາກ	-10313
ໄດ້ຮັບຄວາມ	-10314
▁ພຣະອົງໄດ້	-10315
▁ເຈົ້າຕ້ອງ	-10316
▁ໃນປະຈຸບັນ	-10317
ທັງຫມົດແມ່ນ	-10318
ແຫຼ່ງຂໍ້ມູນ	-10319
▁Enterprise	-10320
▁insulation	-10321
▁ຂ້ອຍຄິດວ່າ	-10322
▁ຖ້າພວກເຮົາ	-10323
▁ເດືອນກັນຍາ	-10324
ຄວາມໄວ້ວາງໃຈ	-10325
▁ສິ່ງແວດລ້ອມ	-10326
▁ແຮງດັນໄຟຟ້າ	-10327
ຄວາມເປັນໄປໄດ້	-10328
ທີ່ມີປະສົບການ	-10329
ຢ່າງວ່ອງໄວແລະ	-10330
ຫຼີ້ນການພະນັນ	-10331
ໂລກລະບາດໂຄວິດ	-10332
ເຊັ່ນດຽວກັນກັບ	-10333
▁Sihanoukville	-10334
BM	-10335
DN	-10336
PH	-10337
RI	-10338
yu	-10339
.38	-10340
125	-10341
OMO	-10342
ala	-10343
fil	-10344
ibo	-10345
ivo	-10346
omi	-10347
rav	-10348
ref	-10349
ror	-10350
vol	-10351
ກາວ	-10352
ຕັບ	-10353
ທອນ	-10354
ບີບ	-10355
ບົວ	-10356
ສອກ	-10357
ອຸດ	-10358
ັອກ	-10359
ເອີ	-10360
ແຊງ	-10361
ໂຕນ	-10362
▁-.	-10363
▁94	-10364
▁99	-10365
▁Bh	-10366
▁EA	-10367
▁IC	-10368
▁Iq	-10369
▁Ir	-10370
▁Ji	-10371
▁ab	-10372
▁gu	-10373
▁me	-10374
▁ດ້	-10375
▁ບະ	-10376
.201	-10377
9001	-10378
ined	-10379
jing	-10380
omes	-10381
qiao	-10382
rich	-10383
ries	-10384
ຄ້ານ	-10385
ປ່ວຍ	-10386
ະລາຍ	-10387
▁(2,	-10388
▁105	-10389
▁24)	-10390
▁27,	-10391
▁316	-10392
▁Del	-10393
▁Den	-10394
▁HKD	-10395
▁Ret	-10396
▁Yan	-10397
▁mar	-10398
▁pay	-10399
▁ult	-10400
▁ກາວ	-10401
▁ຄາງ	-10402
▁ມີດ	-10403
▁ອານ	-10404
▁ອຽງ	-10405
▁ເສບ	-10406
▁ແລງ	-10407
▁ໄກ່	-10408
aking	-10409
ກໍລະນ	-10410
ຂອງສະ	-10411
ຕິຄຸນ	-10412
ພາສິດ	-10413
ຢາສູບ	-10414
ວິວັດ	-10415
ເຫມາະ	-10416
ໂດເມນ	-10417
▁1600	-10418
▁Pipe	-10419
▁Rand	-10420
▁Spot	-10421
▁disc	-10422
▁from	-10423
▁hard	-10424
▁ຝ້າຍ	-10425
▁ຫວຽດ	-10426
▁ຮ່ອມ	-10427
▁ເຄມີ	-10428
angers	-10429
ກູ້ຢືມ	-10430
ຄວາມດີ	-10431
ຄອນເທນ	-10432
ຝັງດິນ	-10433
ພູເຂົາ	-10434
ມື້ນັບ	-10435
ລະເສີນ	-10436
ຫຼືການ	-10437
▁2012.	-10438
▁Chips	-10439
▁Piece	-10440
▁Tread	-10441
▁shopp	-10442
▁ທັກສະ	-10443
▁ທີ່ດີ	-10444
▁ລວມມີ	-10445
▁ໃນທາງ	-10446
ກໍ່ແມ່ນ	-10447
ຊົມເຊີຍ	-10448
ຊົ່ວຄາວ	-10449
ຕື່ມອີກ	-10450
ບອກທ່ານ	-10451
ມອບຫມາຍ	-10452
ລາມິເຕີ	-10453
ສັ່ງຊື້	-10454
ສາດສະດາ	-10455
ສ່ວນທີ່	-10456
ຫລາຍພັນ	-10457
ອາໄສຢູ່	-10458
ແລະສ້າງ	-10459
▁(2012)	-10460
▁(2013)	-10461
▁Linked	-10462
▁Master	-10463
▁Nickel	-10464
▁Pocket	-10465
▁Thomas	-10466
▁ການຂາຍ	-10467
▁ປະເມີນ	-10468
▁ມັນຖືກ	-10469
▁ລົງທຶນ	-10470
▁ສະຫຼາດ	-10471
▁ອະນາໄມ	-10472
essenger	-10473
ipitator	-10474
perature	-10475
ງົບປະມານ	-10476
ທີ່ສະອາດ	-10477
ເຟີນີເຈີ	-10478
▁Atlanta	-10479
▁Eyelash	-10480
▁Midwest	-10481
▁Molding	-10482
▁Premium	-10483
▁Unthank	-10484
▁ກັນນັ້ນ	-10485
▁ທີ່ທ່ານ	-10486
▁ສັງກະສີ	-10487
▁ເຕົາອົບ	-10488
▁ໃຊ້ເວລາ	-10489
ຄອນເທນເນີ	-10490
ງ່າຍທີ່ຈະ	-10491
ຫນັງສືພິມ	-10492
▁ບັນດານັກ	-10493
ການປຸງແຕ່ງ	-10494
ຊີ້ໃຫ້ເຫັນ	-10495
ຢູ່ຫວຽດນາມ	-10496
ຢູ່ໃນລະດັບ	-10497
ວ່າພວກເຮົາ	-10498
ສາມາດບັນລຸ	-10499
▁Hydraulic	-10500
▁Institute	-10501
▁Precision	-10502
▁ອີງຕາມການ	-10503
▁ແຕ່ວ່າມັນ	-10504
ພື້ນຖານແລ້ວ	-10505
▁Downloader	-10506
▁ການບໍລິຫານ	-10507
▁ຂໍ້ກໍາຫນົດ	-10508
ການເຂົ້າເຖິງ	-10509
ສໍາລັບເຄື່ອງ	-10510
ແລະຄວາມສາມາດ	-10511
▁ຫໍສັງເກດການ	-10512
▁ອຸປະກອນເສີມ	-10513
ເສຍສະຫຼະຊີວິດ	-10514
▁ຄວາມເຂັ້ມແຂງ	-10515
▁ໂທຣຫາພວກເຮົາ	-10516
ມີຄວາມຫຍຸ້ງຍາກ	-10517
▁tattoostattoos	-10518
ກັບຈຸດຫມາຍປາຍທາງ	-10519
CA	-10520
PN	-10521
ga	-10522
ຣູ	-10523
ອສ	-10524
.14	-10525
/10	-10526
Des	-10527
apt	-10528
arp	-10529
asy	-10530
ele	-10531
ely	-10532
ety	-10533
pet	-10534
sss	-10535
udy	-10536
ຊຽມ	-10537
ປອກ	-10538
ມ້າ	-10539
ວຍະ	-10540
ອິງ	-10541
ແຊນ	-10542
ແຖບ	-10543
▁(+	-10544
▁CT	-10545
▁Cu	-10546
▁GP	-10547
▁Na	-10548
▁pr	-10549
1390	-10550
aked	-10551
chor	-10552
ense	-10553
grad	-10554
hane	-10555
heng	-10556
ills	-10557
oven	-10558
prop	-10559
reat	-10560
word	-10561
ຄຸ້ນ	-10562
ຊະຍາ	-10563
ຊາກິ	-10564
ຫມັນ	-10565
າດແວ	-10566
ແຂ່ງ	-10567
▁(12	-10568
▁(3)	-10569
▁199	-10570
▁320	-10571
▁80%	-10572
▁CRM	-10573
▁Jul	-10574
▁Mil	-10575
▁Nic	-10576
▁SAP	-10577
▁SEC	-10578
▁Tro	-10579
▁UAE	-10580
▁sim	-10581
▁ຈິກ	-10582
▁ດວກ	-10583
▁ມິນ	-10584
▁ມົວ	-10585
▁ສົກ	-10586
▁ໄຫຼ	-10587
9001:	-10588
arket	-10589
atory	-10590
etter	-10591
netic	-10592
ບັດເຄ	-10593
ປະພຶດ	-10594
ຜະສົມ	-10595
ມະຫາກ	-10596
ອົກຊີ	-10597
າຊາກິ	-10598
ເກົ້າ	-10599
▁....	-10600
▁Bulk	-10601
▁Corn	-10602
▁Food	-10603
▁From	-10604
▁Lead	-10605
▁More	-10606
▁Sale	-10607
▁ມະດາ	-10608
▁ລະບຸ	-10609
▁ເງົາ	-10610
▁ເສິກ	-10611
ຂອງຈີນ	-10612
ຍາວນານ	-10613
ຍ້ອງຍໍ	-10614
ນິວຢອກ	-10615
ປີກ່ອນ	-10616
ພໍ່ຄ້າ	-10617
ລິບປິນ	-10618
ອັງຄານ	-10619
ົ້ານົມ	-10620
ເຟສບຸກ	-10621
ໃຊ້ງານ	-10622
້ວນແຕ່	-10623
▁Hydro	-10624
▁Neuro	-10625
▁Tower	-10626
▁black	-10627
▁elect	-10628
▁ກະດານ	-10629
▁ຕົກໃຈ	-10630
▁ວິບັດ	-10631
▁ສາບານ	-10632
▁ສຸຂຸມ	-10633
▁ເຜົ່າ	-10634
itioner	-10635
ການສົ່ງ	-10636
ທີ່ຈະມີ	-10637
ພີ່ນ້ອງ	-10638
ມັນແມ່ນ	-10639
ຫ້ອງຮຽນ	-10640
ອະນຸລັກ	-10641
າທິບໍດີ	-10642
▁Darius	-10643
▁Oracle	-10644
▁Roller	-10645
▁Suzuki	-10646
▁ການຕັດ	-10647
▁ກໍາແພງ	-10648
▁ທີ່ການ	-10649
▁ຜິດພາດ	-10650
▁ຟື້ນຟູ	-10651
▁ລິດເດດ	-10652
▁ວິທະຍາ	-10653
▁ສິລະປະ	-10654
▁ເປັນຕາ	-10655
ການສະແດງ	-10656
ປະຈໍາການ	-10657
ອຸທິດຕົນ	-10658
ເຈົ້າຂອງ	-10659
▁Crystal	-10660
▁ຄລາສສິກ	-10661
▁ທ່ານຮູ້	-10662
▁ບາງຄັ້ງ	-10663
▁ປັບແຕ່ງ	-10664
▁ລາຄາຂອງ	-10665
▁ເງິນສົດ	-10666
▁ເພິ່ນຈະ	-10667
ຂອງຊຸມຊົນ	-10668
ຄະນະກໍາມະ	-10669
ຄ່າທໍານຽມ	-10670
ທີ່ບໍ່ໄດ້	-10671
ລັກອັກສອນ	-10672
▁ກ໊ອກນ້ໍາ	-10673
▁ຄາວາຊາກິ	-10674
▁ຍົກເວັ້ນ	-10675
▁ຫຼາຍກ່ວາ	-10676
▁ເຂົ້າສູ່	-10677
▁ເຖິງຄວາມ	-10678
ຈໍານວນຫລາຍ	-10679
ສໍາເລັດຮູບ	-10680
ເພື່ອແນໃສ່	-10681
ແລະບໍລິການ	-10682
ໃນທ້ອງຖິ່ນ	-10683
▁Generator	-10684
▁ກະລຸນາໃຫ້	-10685
▁ການຈັດການ	-10686
▁ຖານຂໍ້ມູນ	-10687
▁ສົມທົບກັບ	-10688
ຂ້າງລຸ່ມນີ້	-10689
ຄໍາສັບຕ່າງໆ	-10690
ຕົ້ນກໍາເນີດ	-10691
ແຂກທ່ອງທ່ຽວ	-10692
▁fiberglass	-10693
ສາມາດເຮັດໃຫ້	-10694
▁ຄວາມຕ້ານທານ	-10695
▁ຫງວນລິຂະສິດ	-10696
▁ໂດຍບໍ່ມີການ	-10697
ກໍາຈັດຂີ້ຝຸ່ນ	-10698
ເຂົ້າສູ່ລະບົບ	-10699
▁ການນໍາສະເຫນີ	-10700
▁ເນື່ອງໃນໂອກາດ	-10701
ພັດທະນາເສດຖະກິດ	-10702
ເອກອັກຄະລັດຖະທູດ	-10703
59	-10704
EE	-10705
EI	-10706
SA	-10707
ci	-10708
-08	-10709
-14	-10710
.19	-10711
220	-10712
Man	-10713
bow	-10714
gas	-10715
jie	-10716
tot	-10717
uel	-10718
ປົດ	-10719
ພຸດ	-10720
ລຽນ	-10721
ຫັກ	-10722
ຮັນ	-10723
▁4)	-10724
▁Je	-10725
▁MD	-10726
▁fo	-10727
▁ip	-10728
▁ov	-10729
▁ານ	-10730
base	-10731
orld	-10732
stan	-10733
ural	-10734
ປະໄຕ	-10735
ສະຖາ	-10736
ຫນ່ຽ	-10737
ະລົກ	-10738
ໂປໂລ	-10739
▁(40	-10740
▁-10	-10741
▁198	-10742
▁Cut	-10743
▁Dry	-10744
▁EVA	-10745
▁Gir	-10746
▁ILS	-10747
▁MYR	-10748
▁PLN	-10749
▁RUB	-10750
▁Wen	-10751
▁ງົບ	-10752
▁ດ່າ	-10753
▁ຕົງ	-10754
▁ນອງ	-10755
▁ວາຍ	-10756
▁ສາງ	-10757
▁ຫຍາ	-10758
▁ໂກນ	-10759
ished	-10760
itian	-10761
lines	-10762
sssss	-10763
ຕອບສະ	-10764
ບາງທີ	-10765
ພັນລະ	-10766
ມູນິດ	-10767
ສະຫມີ	-10768
ສິງຫາ	-10769
ສີສັນ	-10770
▁2007	-10771
▁Cond	-10772
▁Core	-10773
▁Data	-10774
▁Note	-10775
▁PayP	-10776
▁Rich	-10777
▁Show	-10778
▁Spin	-10779
▁ກວາດ	-10780
▁ປຸ້ນ	-10781
▁ພາສີ	-10782
▁ສະເຕ	-10783
▁ຫລໍ່	-10784
▁ຫຼ້າ	-10785
▁ເລັງ	-10786
▁ໄປຫາ	-10787
actory	-10788
ewater	-10789
osting	-10790
ກັບຜູ້	-10791
ຂັບຂີ່	-10792
ຍູ້ແຮງ	-10793
ທີ່ນາງ	-10794
ນີ້ແລະ	-10795
ພິມໄດ້	-10796
ມະເຮັງ	-10797
ສອງຄົນ	-10798
ສົມມຸດ	-10799
ອາວຸໂສ	-10800
້ໍາມັນ	-10801
▁Autom	-10802
▁Color	-10803
▁Ether	-10804
▁Frank	-10805
▁Ocean	-10806
▁Parad	-10807
▁Sales	-10808
▁Shell	-10809
▁Shirt	-10810
▁ຕະກໍາ	-10811
▁ອິດສາ	-10812
ກຽມພ້ອມ	-10813
ຂາຍສົ່ງ	-10814
ຄວາມຖີ່	-10815
ຄົບຖ້ວນ	-10816
ບາດກ້າວ	-10817
ປາຖະຫນາ	-10818
ມະຫາກໍາ	-10819
ສາສະຫນາ	-10820
ັ່ງກ່າວ	-10821
າວັກຊີນ	-10822
▁Friend	-10823
▁Sponge	-10824
▁ສີມ່ວງ	-10825
▁ຫາດຊາຍ	-10826
ຂອງປະທານ	-10827
ຄວາມຫມາຍ	-10828
ຄາດວ່າຈະ	-10829
ຕ້ອງເຮັດ	-10830
ປະສານງານ	-10831
ມ່ວນຊື່ນ	-10832
ຫນ່ຽວນໍາ	-10833
ຫຼາຍຂຶ້ນ	-10834
ເຫຼັກກ້າ	-10835
ແທນທີ່ຈະ	-10836
ໃຊ້ໄຟຟ້າ	-10837
ໃບຄ້າຍຄື	-10838
▁Textile	-10839
▁William	-10840
▁ຂີ້ຝຸ່ນ	-10841
▁ຕ່າງໆໃນ	-10842
▁ຖ້ອຍຄໍາ	-10843
▁ບາດເຈັບ	-10844
▁ລາຄາຖືກ	-10845
▁ຫຼັກການ	-10846
▁ອຸປະສັກ	-10847
ingdirect	-10848
ການສື່ສານ	-10849
ຕະຫຼາດນັດ	-10850
ຢ່າງລະອຽດ	-10851
ລະຫັດຜ່ານ	-10852
ຫນ້າສົນໃຈ	-10853
▁ຢາເສບຕິດ	-10854
▁ຫຼຸດຜ່ອນ	-10855
ສິດທິໃນການ	-10856
ສໍາເລັດຂອງ	-10857
ເຂດພື້ນທີ່	-10858
ເຂົ້າໃນການ	-10859
▁ການຂະຫຍາຍ	-10860
▁ເຂົ້າຫນົມ	-10861
ບໍາລຸງຮັກສາ	-10862
ປັ້ນດິນເຜົາ	-10863
ສັງເກດເບິ່ງ	-10864
ສັ່ນສະເທືອນ	-10865
ສາມາດໄດ້ຮັບ	-10866
ຫນ້າເຊື່ອຖື	-10867
ການຕ່າງປະເທດ	-10868
ທີ່ມີຢູ່ແລ້ວ	-10869
ມີຄວາມຮູ້ສຶກ	-10870
ແລະຜູ້ສະຫນອງ	-10871
▁Dariussssss	-10872
ຂອງການເຮັດວຽກ	-10873
ຂຸດຄົ້ນບໍ່ແຮ່	-10874
ຊ່ວຍໃຫ້ພວກເຮົາ	-10875
ຖືກນໍາໃຊ້ເພື່ອ	-10876
ສໍາລັບຈຸດປະສົງ	-10877
ທາງດ້ານການເມືອງ	-10878
ທີ່ມີຄຸນະພາບສູງ	-10879
ສ່ວນບຸກຄົນທີ່ມີ	-10880
?"	-10881
AU	-10882
FP	-10883
HE	-10884
OK	-10885
bi	-10886
iC	-10887
xi	-10888
zi	-10889
ທໍ	-10890
.09	-10891
.35	-10892
/12	-10893
120	-10894
40)	-10895
700	-10896
Box	-10897
MPa	-10898
PDF	-10899
fit	-10900
quo	-10901
rem	-10902
str	-10903
uxi	-10904
ຄອຍ	-10905
ຈົມ	-10906
ດິບ	-10907
ຢຸງ	-10908
ແທດ	-10909
ໂຍກ	-10910
▁++	-10911
▁JB	-10912
▁KT	-10913
▁Sy	-10914
▁UP	-10915
▁ວະ	-10916
Sets	-10917
ache	-10918
flon	-10919
ices	-10920
icon	-10921
list	-10922
xing	-10923
ຖົ່າ	-10924
ຫມຸນ	-10925
ອະໄພ	-10926
▁0.6	-10927
▁1-8	-10928
▁135	-10929
▁2.8	-10930
▁Ash	-10931
▁BRL	-10932
▁CPT	-10933
▁CZK	-10934
▁DKK	-10935
▁HUF	-10936
▁MXN	-10937
▁Que	-10938
▁Rog	-10939
▁SGD	-10940
▁TWD	-10941
▁Tit	-10942
▁aut	-10943
▁bro	-10944
▁she	-10945
▁ຂັນ	-10946
▁ຄອນ	-10947
▁ຊອງ	-10948
▁ຊູນ	-10949
▁ນົມ	-10950
▁ປຽກ	-10951
▁ພິດ	-10952
▁ຢຽບ	-10953
▁ຣັດ	-10954
▁ຫມີ	-10955
▁ຮີບ	-10956
▁ແອບ	-10957
2.168	-10958
ander	-10959
atuit	-10960
ellow	-10961
ising	-10962
ylene	-10963
ທີ່ມາ	-10964
ປະຖໍາ	-10965
ປະມູນ	-10966
ສຸດທິ	-10967
ສົງໃສ	-10968
ເຍື່ອ	-10969
ໄດ້ດີ	-10970
ໄຕມາດ	-10971
▁Fest	-10972
▁Form	-10973
▁Full	-10974
▁Hall	-10975
▁Lace	-10976
▁Mart	-10977
▁Mesh	-10978
▁Para	-10979
▁Reed	-10980
▁Saga	-10981
▁Tail	-10982
▁cent	-10983
▁matt	-10984
▁wifi	-10985
▁ຄລິກ	-10986
▁ຫມອກ	-10987
▁ຫຼັບ	-10988
▁ເນີດ	-10989
ickets	-10990
iscuit	-10991
ຍິນຍອມ	-10992
ຍົນມິດ	-10993
ປີເກີດ	-10994
ຜູ້ຍິງ	-10995
ຢູ່ໃກ້	-10996
ສັນຖານ	-10997
ສົມຄວນ	-10998
ຫາດຊາຍ	-10999
ເຊື່ອງ	-11000
ໃນຊ່ວງ	-11001
▁2015)	-11002
▁Cable	-11003
▁Royal	-11004
▁bonus	-11005
▁ກໍໄດ້	-11006
▁ຂໍໃຫ້	-11007
▁ຄະແນນ	-11008
▁ທັນໃດ	-11009
▁ປັດໄຈ	-11010
▁ປີນີ້	-11011
▁ອິດສະ	-11012
▁ໃນໂລກ	-11013
▁ໄດ້ມີ	-11014
tattoos	-11015
ດີເດັ່ນ	-11016
ທຸກໆມື້	-11017
ພລາສຕິກ	-11018
ມູນນິທິ	-11019
ລາຄາແພງ	-11020
ວ່າຂ້ອຍ	-11021
ຫມູນວຽນ	-11022
ຫວັງວ່າ	-11023
ແຈ້ງການ	-11024
ແບບນັ້ນ	-11025
ໄດ້ງ່າຍ	-11026
▁PayPal	-11027
▁School	-11028
▁Tester	-11029
▁ການຈັດ	-11030
▁ຊື່ສຽງ	-11031
▁ຍົກສູງ	-11032
▁ທໍານຽມ	-11033
▁ປະເດັນ	-11034
▁ມານັ້ນ	-11035
▁ມີຫຼາຍ	-11036
▁ລາວບໍ່	-11037
▁ເມື່ອນ	-11038
▁ແບບຟອມ	-11039
.05.2018	-11040
ກິດຈະການ	-11041
ຂີ້ເຖົ່າ	-11042
ຄືກັນກັບ	-11043
ທີ່ສຸດໃນ	-11044
ທ່ອງເວັບ	-11045
ຜູ້ເຂົ້າ	-11046
ສາມາດຖືກ	-11047
ສິ່ງນັ້ນ	-11048
ເທົ່າທຽມ	-11049
ເອົາຊະນະ	-11050
▁Control	-11051
▁Display	-11052
▁ຂົນສົ່ງ	-11053
▁ທ່ານຫມໍ	-11054
▁ສັ່ງສອນ	-11055
▁ຫຼຸດລົງ	-11056
▁ອະນຸມັດ	-11057
ຂອງທ່ານໃນ	-11058
ທຸລະກິດໃນ	-11059
ພາບເອີຣົບ	-11060
ຢ່າງຫນ້ອຍ	-11061
ສະເຫນີໃຫ້	-11062
ສ່ວນຫນຶ່ງ	-11063
ອັດສະລິຍະ	-11064
▁Exchange	-11065
▁Paradise	-11066
▁Printing	-11067
▁ຈະສືບຕໍ່	-11068
▁ຊອບແວທີ່	-11069
▁ເມື່ອບໍ່	-11070
ການສົນທະນາ	-11071
ຄະນະຜູ້ແທນ	-11072
ຊ່ວຍເຫຼືອບ	-11073
ໄດ້ເຮັດໃຫ້	-11074
▁ຕາລາງແມັດ	-11075
▁ສ່ວນປະກອບ	-11076
▁ໂລຫະປະສົມ	-11077
ເດືອນປີເກີດ	-11078
ແລະສະຖານທີ່	-11079
ໃນການທົດລອງ	-11080
▁Electronic	-11081
▁ຊື່ຂອງທ່ານ	-11082
ຂອງເຄື່ອງຈັກ	-11083
ຫວັງວ່າຈະໄດ້	-11084
▁ການສະກົດຈິດ	-11085
▁ຈະເປັນແນວໃດ	-11086
▁ນັ້ນແມ່ນການ	-11087
▁ນ້ໍາຫນັກຂອງ	-11088
▁ປົກປັກຮັກສາ	-11089
▁ອຸດົມສົມບູນ	-11090
▁ແມ່ນຖືກຕ້ອງ	-11091
ຂອງອຸດສາຫະກໍາ	-11092
ຄວາມຮັບຜິດຊອບ	-11093
ສັດລ້ຽງຍົນມິດ	-11094
ແລະອຸດສາຫະກໍາ	-11095
ໄດ້ຮັບອະນຸຍາດ	-11096
ກ່ຽວກັບວິທີການ	-11097
ຕາມຄວາມຕ້ອງການ	-11098
ທາງສ່ວນຫນ້າຂອງ	-11099
▁Electrostatic	-11100
ກໍ່ຕັ້ງຂຶ້ນໃນປີ	-11101
ຢ່າງກວ້າງຂວາງໃນ	-11102
▁shoppingdirect	-11103
4-	-11104
??	-11105
SP	-11106
dr	-11107
nh	-11108
ຍີ	-11109
ດຽ	-11110
ຖີ	-11111
ອິ	-11112
ໄຫ	-11113
▁!	-11114
.20	-11115
010	-11116
180	-11117
30,	-11118
ACH	-11119
EST	-11120
Pir	-11121
afu	-11122
aps	-11123
can	-11124
era	-11125
iro	-11126
los	-11127
low	-11128
odi	-11129
pha	-11130
put	-11131
rim	-11132
ຂີດ	-11133
ພີກ	-11134
ຟລີ	-11135
ຢິບ	-11136
ຣັສ	-11137
ຫມູ	-11138
ຮວມ	-11139
ຮີບ	-11140
ຼາມ	-11141
ເຊນ	-11142
ແດ່	-11143
ໃຫຍ	-11144
ໍ່ໆ	-11145
▁3/	-11146
▁69	-11147
▁87	-11148
▁::	-11149
▁GU	-11150
▁Vo	-11151
▁ZM	-11152
▁ve	-11153
▁ງູ	-11154
▁ດຸ	-11155
▁ເຣ	-11156
▁ໄຍ	-11157
acqu	-11158
aret	-11159
cted	-11160
dele	-11161
emon	-11162
enna	-11163
etty	-11164
oday	-11165
osph	-11166
rink	-11167
well	-11168
ຊ້າງ	-11169
ຍື່ນ	-11170
ປະດາ	-11171
ລາວກ	-11172
ເຈັດ	-11173
ເລຂາ	-11174
ໄວຍະ	-11175
▁(13	-11176
▁0.7	-11177
▁16:	-11178
▁2.2	-11179
▁2.4	-11180
▁31,	-11181
▁7.5	-11182
▁AST	-11183
▁ATV	-11184
▁Ann	-11185
▁Bad	-11186
▁Bal	-11187
▁Bld	-11188
▁Gab	-11189
▁Hel	-11190
▁Mah	-11191
▁SEA	-11192
▁Ske	-11193
▁Vir	-11194
▁Yam	-11195
▁all	-11196
▁bit	-11197
▁new	-11198
▁sec	-11199
▁ski	-11200
▁top	-11201
▁ຄັກ	-11202
▁ຈອມ	-11203
▁ຈູງ	-11204
▁ຈົມ	-11205
▁ດີດ	-11206
▁ລິມ	-11207
▁ຮາວ	-11208
▁ເມກ	-11209
▁ແທງ	-11210
▁ໂອບ	-11211
ATION	-11212
eller	-11213
entai	-11214
ibbon	-11215
owers	-11216
ກະເສດ	-11217
ສະແກນ	-11218
ອິດສະ	-11219
ເຊືອກ	-11220
ໂຊກດີ	-11221
▁Alex	-11222
▁Auto	-11223
▁CSGO	-11224
▁Coca	-11225
▁Cook	-11226
▁Teen	-11227
▁Weld	-11228
▁Zhen	-11229
▁dust	-11230
▁live	-11231
▁park	-11232
▁whit	-11233
▁ຖ້ວມ	-11234
▁ຫມຸດ	-11235
▁ຫລວດ	-11236
▁ຫຸ້ມ	-11237
▁ຫຼົງ	-11238
▁ເຕັກ	-11239
hereum	-11240
ubarak	-11241
ກໍ່ໄດ້	-11242
ທີ່ຮັກ	-11243
ເຈລະຈາ	-11244
ເສື້ອຍ	-11245
ເອັນຊີ	-11246
ໃກ້ຄຽງ	-11247
ໄວຍະວະ	-11248
ໍ່ສ້າງ	-11249
▁Brown	-11250
▁Intel	-11251
▁Peter	-11252
▁Villa	-11253
▁Wuhan	-11254
▁ກະຈັດ	-11255
▁ຂະບວນ	-11256
▁ບລັອກ	-11257
▁ບຸລຸດ	-11258
▁ອະດີດ	-11259
ຄວາມບໍ່	-11260
ດັ່ງກ່າ	-11261
ຖ່ອມຕົວ	-11262
ບາດເຈັບ	-11263
ຢ່າງແຮງ	-11264
ສູງກວ່າ	-11265
ອາດຈະມີ	-11266
ອຸປະສັກ	-11267
ເຊື້ອໄຟ	-11268
ເປັນນັກ	-11269
ແຫ່ງລັດ	-11270
▁(2014)	-11271
▁Review	-11272
▁Soccer	-11273
▁Studio	-11274
▁Zipper	-11275
▁equine	-11276
▁ການບິນ	-11277
▁ຄ່າໄຖ່	-11278
▁ຍາກຈົນ	-11279
▁ບັນຍັດ	-11280
▁ຢ່າລືມ	-11281
▁ລູກຊາຍ	-11282
▁ວັນຈັນ	-11283
▁ສະຫງວນ	-11284
▁ໂດຍກົງ	-11285
ຄຸ້ນເຄີຍ	-11286
ຈັກກະວານ	-11287
ຕົວເລືອກ	-11288
ທຽບເທົ່າ	-11289
ບັນດາມາດ	-11290
ມັດທະຍົມ	-11291
ຢາວັກຊີນ	-11292
ເຕົ້ານົມ	-11293
ເຮັດຫຍັງ	-11294
ໃນຄອບຄົວ	-11295
▁Belmont	-11296
▁Dresses	-11297
▁Michael	-11298
▁Olympic	-11299
▁spindle	-11300
▁ຂ້ອຍຢາກ	-11301
▁ຄວາມຈິງ	-11302
▁ທ່ານຄວນ	-11303
▁ຢັ້ງຢືນ	-11304
ewatering	-11305
ກວ່າເກົ່າ	-11306
ຊອກຫາວິທີ	-11307
ຊ່ວຍປະຢັດ	-11308
ທີ່ທ່ານຈະ	-11309
ລະອຽດອ່ອນ	-11310
ອົດສະຕາລີ	-11311
ເດີນທາງໄປ	-11312
ເພື່ອນມິດ	-11313
▁Silicone	-11314
▁Skeleton	-11315
▁Ultimate	-11316
▁ໃນຂອບເຂດ	-11317
ຄວາມສໍາພັນ	-11318
ຖະແຫຼງຂ່າວ	-11319
ສະມາຊິກຂອງ	-11320
ສິ່ງສໍາຄັນ	-11321
ສູນບໍລິການ	-11322
ເງິນລົງທຶນ	-11323
ແລະວິທີການ	-11324
ໄປກວ່ານັ້ນ	-11325
▁cardboard	-11326
▁ການສະເຫນີ	-11327
▁ກາລະໂອກາດ	-11328
▁ຕື່ນເຕັ້ນ	-11329
ຂອງການສຶກສາ	-11330
ຈໍານວນຫນຶ່ງ	-11331
ດັ່ງກ່າວໄດ້	-11332
ທີ່ບໍ່ສາມາດ	-11333
ລົງຄະແນນສຽງ	-11334
▁blockchain	-11335
▁ການຕັ້ງຄ່າ	-11336
▁ຜູ້ຕາງຫນ້າ	-11337
ຖົງຂີ້ເຫຍື້ອ	-11338
ຢ່າງເຕັມສ່ວນ	-11339
ລະບົບຕ່ອງໂສ້	-11340
ສະພາບອາກາດໃນ	-11341
ສໍາລັບລູກຄ້າ	-11342
ການປ່ຽນແປງຂອງ	-11343
▁ເຄື່ອງສໍາອາງ	-11344
ບໍ່ຈໍາເປັນຕ້ອງ	-11345
▁ຄາສິໂນອອນໄລນ໌	-11346
▁ສໍາລັບເດັກຍິງ	-11347
▁ດໍາເນີນທຸລະກິດ	-11348
▁ຖ້າທ່ານຕ້ອງການ	-11349
3%	-11350
MN	-11351
cb	-11352
hr	-11353
ກຸ	-11354
▁%	-11355
350	-11356
380	-11357
="4	-11358
="5	-11359
ART	-11360
ERS	-11361
IDE	-11362
che	-11363
fin	-11364
ges	-11365
ima	-11366
ona	-11367
oul	-11368
rel	-11369
win	-11370
ຄີມ	-11371
ຖອດ	-11372
ລຽບ	-11373
ເຊລ	-11374
ເລຍ	-11375
ໂກນ	-11376
ໂຕຣ	-11377
ໂສກ	-11378
ໄລກ	-11379
▁(8	-11380
▁7.	-11381
▁BO	-11382
▁DB	-11383
▁Da	-11384
▁ES	-11385
▁FL	-11386
▁HY	-11387
▁MO	-11388
▁TN	-11389
▁su	-11390
▁ອງ	-11391
▁ໂຟ	-11392
-300	-11393
Cola	-11394
alth	-11395
bank	-11396
chun	-11397
html	-11398
ines	-11399
rane	-11400
tain	-11401
ກູໂກ	-11402
ຂວາຍ	-11403
ຖ້ຽວ	-11404
ທົ່ງ	-11405
ຣດິດ	-11406
ຫນອມ	-11407
ຫລຽວ	-11408
ຫຼືອ	-11409
ຽນມາ	-11410
▁108	-11411
▁BCH	-11412
▁Bai	-11413
▁CEO	-11414
▁ECN	-11415
▁Ger	-11416
▁Ham	-11417
▁Lap	-11418
▁NEW	-11419
▁OFF	-11420
▁Pvc	-11421
▁Rec	-11422
▁Run	-11423
▁Sin	-11424
▁Tan	-11425
▁VIP	-11426
▁alt	-11427
▁our	-11428
▁ຄາຍ	-11429
▁ດີໆ	-11430
▁ນວຍ	-11431
▁ນັດ	-11432
▁ຮັງ	-11433
▁ໄຂ່	-11434
ptide	-11435
ກະດາດ	-11436
ກະສັດ	-11437
ຄາບອນ	-11438
ນິເວດ	-11439
ເມດຕາ	-11440
ແຫລ່ງ	-11441
ໃບໄມ້	-11442
ໍາມະນ	-11443
▁ASTM	-11444
▁Bldg	-11445
▁CANN	-11446
▁Cord	-11447
▁Film	-11448
▁Jiao	-11449
▁Join	-11450
▁Mail	-11451
▁Mass	-11452
▁Rome	-11453
▁Tong	-11454
▁[...	-11455
▁soft	-11456
▁view	-11457
▁ປັ໊ມ	-11458
▁ພາຍຸ	-11459
▁ຫມົກ	-11460
▁ເຝິກ	-11461
▁ເອີຍ	-11462
abolic	-11463
loride	-11464
ources	-11465
ກິດການ	-11466
ກໍາແພງ	-11467
ທີ່ຈະລ	-11468
ມາເປັນ	-11469
ລວມຂອງ	-11470
ລາຍຮັບ	-11471
ສິດສອນ	-11472
ຫຼາຍປີ	-11473
ອາຍພິດ	-11474
ຮາກຖານ	-11475
ເຂັ້ມຂ	-11476
ເຊີແລນ	-11477
ໂຕຣເຈນ	-11478
ໃນກຸ່ມ	-11479
ໃຫ້ຄໍາ	-11480
ໄຮ້ສາຍ	-11481
▁2014,	-11482
▁Huafu	-11483
▁Jinan	-11484
▁Point	-11485
▁Separ	-11486
▁drone	-11487
▁hover	-11488
▁silic	-11489
▁smart	-11490
▁stero	-11491
▁ກະຕ່າ	-11492
▁ກະບົດ	-11493
▁ຊຽງໄຮ	-11494
▁ມານີ້	-11495
▁ເພີ້ມ	-11496
▁ເລັ່ງ	-11497
Pirater	-11498
odegrad	-11499
ຂ້າງຄຽງ	-11500
ຄວາມລັບ	-11501
ຄູອາຈານ	-11502
ທີ່ຜ່ານ	-11503
ນາທິການ	-11504
ພາຍຫຼັງ	-11505
ສຸພາສິດ	-11506
ເອົາມັນ	-11507
ໂຍກຍ້າຍ	-11508
ໃຫ້ເປັນ	-11509
ໄພພິບັດ	-11510
▁10,000	-11511
▁Coffee	-11512
▁Domain	-11513
▁Motors	-11514
▁Player	-11515
▁Rabies	-11516
▁unlock	-11517
▁wallet	-11518
▁ຊູແອັດ	-11519
▁ລໍາໂພງ	-11520
▁ວັນສຸກ	-11521
▁ວົງຈອນ	-11522
▁ຫມໍ້ໄຟ	-11523
endering	-11524
ກໍາປູເຈຍ	-11525
ຍຸດຕິທໍາ	-11526
ທີ່ອາດຈະ	-11527
ນິລັນດອນ	-11528
ຫັດຖະກໍາ	-11529
ໃນກໍລະນີ	-11530
ໃນຂອບເຂດ	-11531
▁Collect	-11532
▁Gratuit	-11533
▁Tianjin	-11534
▁ຂ້ອຍບໍ່	-11535
▁ຄວາມບໍ່	-11536
▁ສົ່ງອອກ	-11537
▁ແທ້ໆທີ່	-11538
ການສະຫນອງ	-11539
ຄວາມໄວສູງ	-11540
ນັກລົງທຶນ	-11541
ພິພິທະພັນ	-11542
ມາຢ້ຽມຢາມ	-11543
ສິ່ງທີ່ດີ	-11544
ອາລູມິນຽມ	-11545
ເບິ່ງເຫັນ	-11546
ເລັກໂຕນິກ	-11547
▁Coinbase	-11548
▁Compress	-11549
▁Festival	-11550
▁Machines	-11551
▁download	-11552
▁ethereum	-11553
▁ຄົ້ນຄວ້າ	-11554
▁ປະເພດຂອງ	-11555
▁ໃນຮູບແບບ	-11556
ທີ່ຮ້າຍແຮງ	-11557
ຜູ້ບໍລິໂພກ	-11558
ລະຫວ່າງສອງ	-11559
ສະບຽງອາຫານ	-11560
ໂອກາດທີ່ຈະ	-11561
ໃນສະຖານທີ່	-11562
▁ຄວາມໄວສູງ	-11563
▁ທົນທານຕໍ່	-11564
▁ມັນໄດ້ຖືກ	-11565
ifunctional	-11566
odegradable	-11567
ທີ່ມີຄຸນຄ່າ	-11568
ບົບໄຮໂດຼລິກ	-11569
ໃນປະຫວັດສາດ	-11570
▁Genotropin	-11571
▁ບໍລິສັດແລະ	-11572
▁ຫຼັງຈາກທີ່	-11573
ການຂະຫຍາຍຕົວ	-11574
ການເກັບຮັກສາ	-11575
ວິວັດທະນາການ	-11576
ໃນການເຮັດວຽກ	-11577
▁ບັນດາຜູ້ແທນ	-11578
▁ປີທີ່ຜ່ານມາ	-11579
▁ແລະການຜະລິດ	-11580
▁ແລະນັ້ນແມ່ນ	-11581
ຂອງການພັດທະນາ	-11582
ຢູ່ໃນສະຖານທີ່	-11583
ເງິນຂອງບັນທຶກ	-11584
ແລະຄ່າໃຊ້ຈ່າຍ	-11585
ໍລິສັດເຮືອບິນ	-11586
▁testosterone	-11587
▁ທີ່ຢູ່ຕິດຕໍ່	-11588
▁ບໍ່ວ່າຈະເປັນ	-11589
ສິ່ງທີ່ພວກເຂົາ	-11590
▁ການປົກຫຸ້ມຂອງ	-11591
▁ຖົງການກັ່ນຕອງ	-11592
▁ເຫຼົ່ານີ້ແມ່ນ	-11593
▁ຄໍາທີ່ກ່ຽວຂ້ອງ	-11594
ທີ່ຫນ້າຕື່ນເຕັ້ນ	-11595
?’	-11596
CB	-11597
De	-11598
LA	-11599
RH	-11600
RO	-11601
vy	-11602
▁u	-11603
.12	-11604
10)	-11605
122	-11606
15)	-11607
AME	-11608
INA	-11609
ech	-11610
gro	-11611
rib	-11612
ule	-11613
ກຽວ	-11614
ດົງ	-11615
ທູບ	-11616
ສອດ	-11617
ຫນິ	-11618
ຫາດ	-11619
ແບນ	-11620
ໂອ້	-11621
▁53	-11622
▁67	-11623
▁ep	-11624
▁nh	-11625
▁py	-11626
▁ບີ	-11627
Free	-11628
angu	-11629
comm	-11630
ious	-11631
rain	-11632
ugby	-11633
umen	-11634
wind	-11635
ດ້າຍ	-11636
ບົ່ງ	-11637
ອຟແວ	-11638
ຮົ່ວ	-11639
ັກຊິ	-11640
ເລັບ	-11641
ເຫຼວ	-11642
▁121	-11643
▁21:	-11644
▁But	-11645
▁Fin	-11646
▁Gem	-11647
▁Get	-11648
▁Her	-11649
▁LCD	-11650
▁Lan	-11651
▁Pad	-11652
▁Ros	-11653
▁Sok	-11654
▁TOP	-11655
▁Tel	-11656
▁cur	-11657
▁emb	-11658
▁pix	-11659
▁ກັງ	-11660
▁ຊາກ	-11661
▁ຫາບ	-11662
▁ຫີບ	-11663
▁ເຈີ	-11664
▁ແຟນ	-11665
▁ແມນ	-11666
▁ໂຄມ	-11667
▁ໂຊມ	-11668
ators	-11669
aylor	-11670
chool	-11671
craft	-11672
icken	-11673
riday	-11674
ສັ້ນໆ	-11675
ອຸດົມ	-11676
ເບື່ອ	-11677
ເລັ່ງ	-11678
ແກະສະ	-11679
ແຄ້ວນ	-11680
ແປກໃຈ	-11681
ໂຄມໄຟ	-11682
ໃນລັດ	-11683
▁0.15	-11684
▁BCHT	-11685
▁Circ	-11686
▁Disk	-11687
▁Ever	-11688
▁Head	-11689
▁NEMA	-11690
▁Ping	-11691
▁Sign	-11692
▁WIFI	-11693
▁post	-11694
▁tent	-11695
▁tube	-11696
▁ກ້ຽງ	-11697
▁ຊ້າຍ	-11698
▁ຫຍາຍ	-11699
▁ຫຍໍ້	-11700
▁ຫມຸນ	-11701
▁ເບີດ	-11702
▁ເພນີ	-11703
▁ເຟີນ	-11704
▁ເມລິ	-11705
▁ໂນ້ມ	-11706
androl	-11707
ionate	-11708
roller	-11709
ຄົນນີ້	-11710
ຈະຕ້ອງ	-11711
ທິປະໄຕ	-11712
ທີ່ລາວ	-11713
ັ່ງຄັດ	-11714
ແຮ່ທາດ	-11715
ໃນທ້າຍ	-11716
ໄບເບິນ	-11717
▁Covid	-11718
▁Grade	-11719
▁Patch	-11720
▁Tours	-11721
▁ມາຮອດ	-11722
▁ເບີໂທ	-11723
itecoin	-11724
ຕະວັດທີ	-11725
ສັງກະສີ	-11726
ສານເຄມີ	-11727
ສາມາດມີ	-11728
ເສັ້ນໄຍ	-11729
ເຮັດມັນ	-11730
ໃຫ້ເກີດ	-11731
ໄດ້ສ້າງ	-11732
▁Boiler	-11733
▁Sensor	-11734
▁ປະເພນີ	-11735
▁ປາຍທາງ	-11736
▁ມັນກໍ່	-11737
▁ວິເຄາະ	-11738
▁ສະຫນິດ	-11739
▁ຮ່ວມມື	-11740
▁ເກມອອນ	-11741
▁ໃຫ້ແກ່	-11742
ກັບຄືນມາ	-11743
ຊະນະເລີດ	-11744
ຊີວິດຂອງ	-11745
ດັ້ງເດີມ	-11746
ຜູ້ຫນຶ່ງ	-11747
ຢູ່ນະຄອນ	-11748
ຢູ່ເຮືອນ	-11749
ອາດຈະບໍ່	-11750
ອ້ອມຂ້າງ	-11751
ເປັນຢ່າງ	-11752
ເຜົາໄຫມ້	-11753
ແຕ່ງຕັ້ງ	-11754
ໄວທີ່ສຸດ	-11755
▁192.168	-11756
▁Channel	-11757
▁Optical	-11758
▁Remover	-11759
▁Scooter	-11760
▁desktop	-11761
▁stretch	-11762
▁ກໍາເນີດ	-11763
▁ຄວາມຮູ້	-11764
▁ຄາດຄະເນ	-11765
▁ຕົ້ນໄມ້	-11766
▁ຕ່ໍາສຸດ	-11767
▁ທ້ອງຟ້າ	-11768
▁ນອກນັ້ນ	-11769
▁ເກົາຫຼີ	-11770
▁ເຄັດລັບ	-11771
▁ເປັນນິດ	-11772
▁ເຮືອບິນ	-11773
▁ແລກປ່ຽນ	-11774
ຂອງອິນເດຍ	-11775
ຕົວຊີ້ວັດ	-11776
ທະນາຍຄວາມ	-11777
ເຊື້ອເຊີນ	-11778
ເປີດກວ້າງ	-11779
ເມື່ອທ່ານ	-11780
ເວົ້າເຖິງ	-11781
ແລະຂໍ້ມູນ	-11782
ໃຫ້ບຸກຄົນ	-11783
▁Longgang	-11784
▁ການກະທໍາ	-11785
▁ພຶດຕິກໍາ	-11786
▁ມິດຕະພາບ	-11787
▁ວັນອາທິດ	-11788
▁ສະຖານທູດ	-11789
▁ຫຼາຍກວ່າ	-11790
▁ເຈົ້າຢູ່	-11791
ການສົ່ງອອກ	-11792
ຕົ້ນຕໍແມ່ນ	-11793
ລະບາຍອາກາດ	-11794
ເຂົ້າເມືອງ	-11795
ແລະພວກເຮົາ	-11796
▁Christian	-11797
▁corrosion	-11798
▁jailbreak	-11799
▁ການຮັບຮອງ	-11800
▁ເມື່ອຂ້ອຍ	-11801
ທີ່ຈະນໍາໃຊ້	-11802
ທີ່ເກີດຂຶ້ນ	-11803
ປົກກະຕິແລ້ວ	-11804
ແຜ່ນດິນໃຫຍ່	-11805
▁ການແຂ່ງຂັນ	-11806
▁ຈິນຕະນາການ	-11807
▁ໃນເວລານັ້ນ	-11808
ຄວາມຫມັ້ນຄົງ	-11809
ປະດິດຄິດສ້າງ	-11810
ລະເບີດຝັງດິນ	-11811
▁Corporation	-11812
▁Refinecolor	-11813
▁ບັນຊີລາຍຊື່	-11814
ການປົກຫຸ້ມຂອງ	-11815
ເງື່ອນໄຂສະດວກ	-11816
▁Instrumental	-11817
▁Precipitator	-11818
▁ກັບຄືນໄປບ່ອນ	-11819
▁ຫຼາຍກວ່ານັ້ນ	-11820
ການປິ່ນປົວດ້ວຍ	-11821
▁ດ້ວຍຫົວຂໍ້ວ່າ	-11822
▁ຫນັງສືຜ່ານແດນ	-11823
ທີ່ມີປະສິດທິຜົນ	-11824
ແລະສະຫນັບສະຫນູນ	-11825
▁ລັດຖະມົນຕີກະຊວງ	-11826
3-	-11827
57	-11828
AF	-11829
DB	-11830
GT	-11831
SE	-11832
ки	-11833
ອໍ	-11834
ົົ	-11835
໊ກ	-11836
-17	-11837
.34	-11838
OWN	-11839
PCS	-11840
ema	-11841
hen	-11842
hol	-11843
spa	-11844
ຈັງ	-11845
ດວງ	-11846
ບ່າ	-11847
ລີດ	-11848
ຫາງ	-11849
ຫາລ	-11850
ໂກ້	-11851
▁#6	-11852
▁Av	-11853
▁HR	-11854
▁SW	-11855
▁ປູ	-11856
▁ໄດ	-11857
.6.4	-11858
acen	-11859
aner	-11860
apor	-11861
atts	-11862
ette	-11863
ilin	-11864
ique	-11865
izza	-11866
kers	-11867
nice	-11868
ogen	-11869
orge	-11870
oros	-11871
ozer	-11872
rier	-11873
wall	-11874
ດຸ່ນ	-11875
ຝັ່ງ	-11876
ຢັ້ງ	-11877
ຫວັນ	-11878
ຫຼັບ	-11879
ະລາດ	-11880
▁(30	-11881
▁10.	-11882
▁128	-11883
▁14:	-11884
▁40,	-11885
▁8.2	-11886
▁93;	-11887
▁CCN	-11888
▁DMF	-11889
▁FOB	-11890
▁Kar	-11891
▁Mob	-11892
▁Pac	-11893
▁Wet	-11894
▁Wol	-11895
▁imp	-11896
▁mil	-11897
▁non	-11898
▁van	-11899
▁ກາກ	-11900
▁ບຶດ	-11901
▁ບຸດ	-11902
▁ບຽດ	-11903
▁ຫໍ່	-11904
▁ເລດ	-11905
▁ແລນ	-11906
hacks	-11907
istan	-11908
merce	-11909
otion	-11910
stock	-11911
ຄູຝຶກ	-11912
ພັນທຸ	-11913
ສະເຕີ	-11914
ອາຊິດ	-11915
ຸກເກີ	-11916
ເພິ່ງ	-11917
▁1100	-11918
▁1950	-11919
▁95%.	-11920
▁Cand	-11921
▁Cine	-11922
▁Cost	-11923
▁Drop	-11924
▁Golf	-11925
▁Lake	-11926
▁Land	-11927
▁Qing	-11928
▁Tang	-11929
▁This	-11930
▁Wuxi	-11931
▁cool	-11932
▁tank	-11933
▁ກະແສ	-11934
▁ກ່ວາ	-11935
▁ຄວັນ	-11936
▁ຈິ້ງ	-11937
▁ຊ້ອນ	-11938
▁ຕົວກ	-11939
▁ຢັ້ງ	-11940
▁ວ່ອງ	-11941
▁ວ່າງ	-11942
▁ອີ່ມ	-11943
▁ເພັດ	-11944
▁ເມືອ	-11945
▁ເມົາ	-11946
▁ເສີຍ	-11947
affeta	-11948
tattoo	-11949
ກັນວ່າ	-11950
ດັດແປງ	-11951
ນອກຈາກ	-11952
ຜູກມັດ	-11953
ພີກເຊລ	-11954
ມົນທົນ	-11955
ລິມປິກ	-11956
ວ່ານີ້	-11957
ສະຫລຸບ	-11958
ັກຊິໂກ	-11959
ເຄີຍມີ	-11960
ໂອ້ລົມ	-11961
▁Grill	-11962
▁Trade	-11963
▁nylon	-11964
▁sight	-11965
▁ຈຸນລະ	-11966
▁ປະຫານ	-11967
▁ສາຫັດ	-11968
▁ຫມິ່ນ	-11969
▁ຫວັ່ນ	-11970
▁ໂດຍມີ	-11971
agnetic	-11972
ຂາເປົ່າ	-11973
ຄາດເດົາ	-11974
ດາວໂຫຼດ	-11975
ຕ່ໍາສຸດ	-11976
ຖ້ຽວບິນ	-11977
ສູງເຖິງ	-11978
ອມມູນິດ	-11979
ອ້າງອິງ	-11980
ຮັບເອົາ	-11981
ເກົາຫລີ	-11982
ເດັກຊາຍ	-11983
ແມ່ນໄດ້	-11984
ແລະທ່ານ	-11985
ໄວຫນຸ່ມ	-11986
▁(2010)	-11987
▁Cooler	-11988
▁Heroes	-11989
▁Jacket	-11990
▁Report	-11991
▁Sludge	-11992
▁Yamaha	-11993
▁ດີກວ່າ	-11994
▁ທຽນຈິນ	-11995
▁ນັ້ນຈະ	-11996
▁ນໍາທິດ	-11997
▁ນໍ້າໃຈ	-11998
▁ພວກມັນ	-11999
▁ຢ່າງໃດ	-12000
▁ອົບຮົມ	-12001
▁ເຮົາກໍ	-12002
ຄົນພິການ	-12003
ທາງອີເມວ	-12004
ບັນຍາກາດ	-12005
ພວກເຈົ້າ	-12006
ລົ້ມເຫຼວ	-12007
ລ່ວງຫນ້າ	-12008
ເຮັດດ້ວຍ	-12009
ໂປໂມຊັ່ນ	-12010
▁Patrick	-12011
▁Saracen	-12012
▁Spotify	-12013
▁ຄຸ້ມຄອງ	-12014
▁ດັດຊະນີ	-12015
▁ຕົກແຕ່ງ	-12016
▁ທໍາຮ້າຍ	-12017
▁ຫຼ້າສຸດ	-12018
▁ເອກະພົບ	-12019
ຈັດການກັບ	-12020
ຕົ້ນຕໍຂອງ	-12021
ທີ່ຊັດເຈນ	-12022
ມຸ່ງຫມັ້ນ	-12023
ວິທະຍາໄລກ	-12024
ສູນກາງພັກ	-12025
ອັດຕາສ່ວນ	-12026
ເຂົ້າຫນົມ	-12027
ແມ້ກະທັ້ງ	-12028
ແລະໄດ້ຮັບ	-12029
ໃກ້ຊິດກັບ	-12030
▁LinkedIn	-12031
▁Shipping	-12032
▁interior	-12033
▁terminal	-12034
▁ກວດເບິ່ງ	-12035
▁ກ່ຽວຂ້ອງ	-12036
▁ລະບົບການ	-12037
▁ສະແຫວງຫາ	-12038
ການແລກປ່ຽນ	-12039
ການໄກ່ເກ່ຍ	-12040
ຄວາມຜິດພາດ	-12041
ຄວາມສະຫງົບ	-12042
ວ່າມັນແມ່ນ	-12043
ສົນທິສັນຍາ	-12044
ເລືອກທີ່ຈະ	-12045
ແລະພັດທະນາ	-12046
ແລະວິຊາຊີບ	-12047
▁Community	-12048
▁Packaging	-12049
▁ຄ່າທໍານຽມ	-12050
▁ທີ່ແທ້ຈິງ	-12051
▁ຜູ້ຈັດການ	-12052
▁ແລະທ່ານຈະ	-12053
ຈັດຈໍາຫນ່າຍ	-12054
ພຽງເລັກນ້ອຍ	-12055
ຢ່າງຖືກຕ້ອງ	-12056
ສະແດງສິລະປະ	-12057
ເພື່ອປັບປຸງ	-12058
▁Compressor	-12059
▁Microfiber	-12060
▁ບ່ອນຈອດລົດ	-12061
▁ປະທານປະເທດ	-12062
▁ແລະວິທີການ	-12063
ຂອງພວກເຮົາໃນ	-12064
ຄວາມຫຍຸ້ງຍາກ	-12065
ພະຍາຍາມທີ່ຈະ	-12066
ເຈົ້າຫນ້າທີ່	-12067
ເຮັດໃຫ້ປະລາດ	-12068
▁ລະຫັດສິນຄ້າ	-12069
▁ວິທະຍາໄລຂອງ	-12070
▁ຫົວຫນ້າຄະນະ	-12071
▁ຮູບຊົງກະບອກ	-12072
ປະສິດທິພາບສູງ	-12073
ຢ່າງເລິກເຊິ່ງ	-12074
ສະທ້ອນໃຫ້ເຫັນ	-12075
ສໍາລັບທຸລະກິດ	-12076
ແລະການປະຕິບັດ	-12077
ໂດຍສະເພາະແມ່ນ	-12078
▁ກະລຸນາຕິດຕໍ່	-12079
▁ການເຂົ້າເຖິງ	-12080
▁ຖະຫນົນຫົນທາງ	-12081
▁ນັກວິທະຍາສາດ	-12082
▁ສໍາລັບການຂາຍ	-12083
▁ເນັ້ນຫນັກວ່າ	-12084
ເຮັດວຽກຮ່ວມກັບ	-12085
▁ປະເພດຖົງປະເພດ	-12086
▁ສ້າງແບບຈໍາລອງ	-12087
ສະຫນອງການບໍລິການ	-12088
▁ທີ່ຢູ່ຕິດຕໍ່ທັງ	-12089
DI	-12090
Fe	-12091
OH	-12092
VA	-12093
da	-12094
fr	-12095
my	-12096
zo	-12097
ຟາ	-12098
▁”	-12099
-22	-12100
.07	-12101
.91	-12102
.95	-12103
112	-12104
25,	-12105
3]:	-12106
ENT	-12107
MLE	-12108
OND	-12109
aya	-12110
cor	-12111
don	-12112
eda	-12113
hui	-12114
ito	-12115
itz	-12116
leg	-12117
lux	-12118
ງ່ນ	-12119
ຕັກ	-12120
ຖັກ	-12121
ບ້າ	-12122
ຟາກ	-12123
ວາດ	-12124
ົວະ	-12125
ເຈດ	-12126
ໂຟມ	-12127
▁-1	-12128
▁GS	-12129
▁HS	-12130
▁NC	-12131
▁ON	-12132
▁VI	-12133
▁my	-12134
▁ຍູ	-12135
▁ຕື	-12136
.0.1	-12137
JIAN	-12138
atab	-12139
enny	-12140
exas	-12141
ough	-12142
pher	-12143
wood	-12144
ຊີວາ	-12145
ດີໃຈ	-12146
ດເຕີ	-12147
ມິຕິ	-12148
ຫນານ	-12149
ຫນຽວ	-12150
ຫິມະ	-12151
ຮຸ້ນ	-12152
ົາມາ	-12153
ແຕ່ນ	-12154
ໆກັນ	-12155
▁123	-12156
▁15:	-12157
▁225	-12158
▁280	-12159
▁Cab	-12160
▁DMC	-12161
▁Deb	-12162
▁Dev	-12163
▁Ess	-12164
▁Hen	-12165
▁Kit	-12166
▁Lat	-12167
▁Lor	-12168
▁Mem	-12169
▁Sky	-12170
▁Yes	-12171
▁hel	-12172
▁mel	-12173
▁ຂົວ	-12174
▁ຊົດ	-12175
▁ຕະລ	-12176
▁ມອດ	-12177
▁ລວດ	-12178
▁ສອກ	-12179
▁ອີ່	-12180
▁ເຕະ	-12181
▁ແຖບ	-12182
istic	-12183
tdown	-12184
urich	-12185
velop	-12186
vious	-12187
ກະປົກ	-12188
ຂົນຕາ	-12189
ບລັອກ	-12190
ປະກວດ	-12191
ພຸດທະ	-12192
ວິຈານ	-12193
ສະດຸກ	-12194
ັດທາຍ	-12195
ເຮືອງ	-12196
ໃສ່ໃນ	-12197
ໄວຣັສ	-12198
▁Band	-12199
▁Bish	-12200
▁Cash	-12201
▁Cour	-12202
▁Demo	-12203
▁Down	-12204
▁Duct	-12205
▁Guan	-12206
▁Town	-12207
▁Trip	-12208
▁Xbox	-12209
▁arch	-12210
▁gold	-12211
▁huge	-12212
▁mill	-12213
▁more	-12214
▁tape	-12215
▁tatt	-12216
▁work	-12217
▁ນ້ອມ	-12218
▁ບ້ວງ	-12219
▁ມ້ຽນ	-12220
▁ຫມູນ	-12221
▁ຫລອມ	-12222
▁ເນັດ	-12223
ential	-12224
eroean	-12225
ກັບຄົນ	-12226
ການນໍາ	-12227
ຂອງພັກ	-12228
ຕ້ອງມີ	-12229
ບັນທຸກ	-12230
ປີໃຫມ່	-12231
ມອບໃຫ້	-12232
ຢູ່ທາງ	-12233
ວີດີໂອ	-12234
ອາເມລິ	-12235
ັບປິ້ງ	-12236
ເສຍດາຍ	-12237
ເຫຼົ້າ	-12238
ໃຫ້ໄດ້	-12239
ໍານ້ໍາ	-12240
▁2008,	-12241
▁April	-12242
▁Break	-12243
▁CPTPP	-12244
▁Cisco	-12245
▁Cross	-12246
▁Khark	-12247
▁Santa	-12248
▁Stone	-12249
▁hacks	-12250
▁ຖືວ່າ	-12251
▁ທາງຕາ	-12252
▁ຫມັ່ນ	-12253
▁ໃນພາກ	-12254
Unthank	-12255
acquard	-12256
ensions	-12257
ຄລິກໃສ່	-12258
ຄວາມງາມ	-12259
ຄັ້ງນີ້	-12260
ຄືບຫນ້າ	-12261
ຈົນກ່ວາ	-12262
ທາງເທີງ	-12263
ທົ່ວທຸກ	-12264
ຫລອກລວງ	-12265
ຫຼາຍແລະ	-12266
ອະວະກາດ	-12267
ອຸປະຖໍາ	-12268
ເງິນທຶນ	-12269
ແຜນຮ່າງ	-12270
ໃຫ້ຄວາມ	-12271
▁Cotton	-12272
▁Cutter	-12273
▁Foshan	-12274
▁Letter	-12275
▁Sodium	-12276
▁Valley	-12277
▁ກະດ້າງ	-12278
▁ຂອງຕົນ	-12279
▁ດຽວກັນ	-12280
▁ຕໍາຫນິ	-12281
▁ທໍ້ຖອຍ	-12282
▁ນັກຮົບ	-12283
▁ນ້ໍາຕາ	-12284
▁ບັນຍາຍ	-12285
▁ມະເຮັງ	-12286
▁ວັນທີ່	-12287
▁ສັດປ່າ	-12288
▁ອິຕາລີ	-12289
▁ອຸປະມາ	-12290
▁ເຂົາຈະ	-12291
▁ແມ່ນບໍ	-12292
▁ແລະຖ້າ	-12293
▁ແຫວງຫາ	-12294
ກອມມູນິດ	-12295
ກິນອາຫານ	-12296
ຕ່າງໆແລະ	-12297
ທາງລົດໄຟ	-12298
ປະເພດຖົງ	-12299
ຫລາຍຢ່າງ	-12300
ອື່ນໆຂອງ	-12301
▁Chicken	-12302
▁Climate	-12303
▁Mubarak	-12304
▁ຊັບຊ້ອນ	-12305
▁ຊຶ່ງຢູ່	-12306
▁ຕ້ານທານ	-12307
▁ບົກພ່ອງ	-12308
▁ຫມາຍເຫດ	-12309
▁ແຕ່ຫນ້າ	-12310
▁ໃນຊີວິດ	-12311
ກໍລະນີນີ້	-12312
ຂ້ອຍສາມາດ	-12313
ດາວນ໌ໂຫລດ	-12314
ບຸລິມະສິດ	-12315
ບໍ່ເສຍຄ່າ	-12316
ຜົນສະທ້ອນ	-12317
ວັນນະຄະດີ	-12318
ສໍາພັນກັນ	-12319
ໃນວິທີການ	-12320
▁Business	-12321
▁ກະທັນຫັນ	-12322
▁ຊາວຫນຸ່ມ	-12323
▁ທີ່ສາມາດ	-12324
▁ປາດຖະຫນາ	-12325
▁ພາດສະຕິກ	-12326
▁ສັນຕິພາບ	-12327
▁ເຂດແຄ້ວນ	-12328
▁ເຈົ້າກັບ	-12329
ທີ່ງ່າຍດາຍ	-12330
ຢ່າງຮຸນແຮງ	-12331
ຫຼີ້ນຫຼີ້ນ	-12332
ເຮົານໍາໃຊ້	-12333
▁Mountains	-12334
▁Separator	-12335
▁halloween	-12336
▁polyester	-12337
▁ການພົວພັນ	-12338
▁ການເຕີບໂຕ	-12339
▁ຂໍ້ກໍານົດ	-12340
▁ຖືກນໍາໃຊ້	-12341
▁ເຊັ່ນນັ້ນ	-12342
ສະຫະປະຊາຊາດ	-12343
ສະຫະສະມາຄົມ	-12344
ັບປິ້ງມໍເຕີ	-12345
ເທົ່າທຽມກັນ	-12346
ເປັນຫນຶ່ງໃນ	-12347
ເຮັດສິ່ງນີ້	-12348
▁ພວກເຮົາບໍ່	-12349
▁ເຄື່ອງນຸ່ງ	-12350
ລາຍລັກອັກສອນ	-12351
ສະນະແມ່ເຫຼັກ	-12352
▁ການທ່ອງທ່ຽວ	-12353
▁ຄວາມເຂົ້າໃຈ	-12354
▁ເລືອກຂະຫນາດ	-12355
ທັກສະດ້ານໄອທີ	-12356
ທີ່ພວກເຮົາໄດ້	-12357
▁DavidUnthank	-12358
▁ຕິດຕໍ່ພົວພັນ	-12359
ເພື່ອຕອບສະຫນອງ	-12360
ເສັ້ນຜ່າສູນກາງ	-12361
▁ສະເຫຼີມສະຫຼອງ	-12362
▁ແຕ່ຫນ້າເສຍດາຍ	-12363
ການເຄື່ອນໄຫວຂອງ	-12364
▁ວັນເດືອນປີເກີດ	-12365
ທີ່ດີທີ່ສຸດທີ່ຈະ	-12366
ສ້າງຄວາມເຂັ້ມແຂງ	-12367
ເພື່ອຄວາມຕ້ອງການ	-12368
▁ຄວາມເປັນສ່ວນຕົວ	-12369
%;	-12370
',	-12371
02	-12372
DH	-12373
GI	-12374
GR	-12375
HA	-12376
KT	-12377
MO	-12378
Nm	-12379
bu	-12380
fg	-12381
ิซ	-12382
-07	-12383
-26	-12384
.17	-12385
.25	-12386
.70	-12387
.88	-12388
202	-12389
485	-12390
ENS	-12391
ICK	-12392
ONG	-12393
avy	-12394
bot	-12395
fix	-12396
iol	-12397
ita	-12398
mal	-12399
men	-12400
obe	-12401
oli	-12402
roz	-12403
ກົກ	-12404
ຄອບ	-12405
ຊີກ	-12406
ຕາກ	-12407
ຕຽມ	-12408
ນຸມ	-12409
ຜົງ	-12410
ມອງ	-12411
ມົງ	-12412
ສາບ	-12413
ຫມາ	-12414
າມາ	-12415
ຶດງ	-12416
▁("	-12417
▁4-	-12418
▁74	-12419
▁CY	-12420
▁GA	-12421
▁LO	-12422
▁Of	-12423
▁ma	-12424
▁vn	-12425
▁ຄີ	-12426
2000	-12427
acth	-12428
amps	-12429
erry	-12430
etic	-12431
ison	-12432
lots	-12433
ocon	-12434
oist	-12435
oung	-12436
pers	-12437
tube	-12438
uary	-12439
umma	-12440
ທຸລະ	-12441
ົາວະ	-12442
▁(20	-12443
▁0.3	-12444
▁1.8	-12445
▁22:	-12446
▁Bur	-12447
▁Ear	-12448
▁Exp	-12449
▁Hou	-12450
▁How	-12451
▁JPG	-12452
▁Jia	-12453
▁Lou	-12454
▁Nac	-12455
▁Raw	-12456
▁Toy	-12457
▁red	-12458
▁soc	-12459
▁ຄັງ	-12460
▁ດັກ	-12461
▁ທູນ	-12462
▁ບົວ	-12463
▁ຜັນ	-12464
▁ພົມ	-12465
▁ພໍ້	-12466
▁ມັງ	-12467
▁ລິບ	-12468
▁ລຶບ	-12469
▁ເພຍ	-12470
▁ເລີ	-12471
▁≥10	-12472
aceut	-12473
apter	-12474
arian	-12475
ennis	-12476
ering	-12477
ource	-12478
paper	-12479
ustry	-12480
ຄ່ອຍໆ	-12481
ດີງາມ	-12482
ຝລັ່ງ	-12483
ມິນນິ	-12484
ຫມ້າຍ	-12485
ັກຊ້າ	-12486
ຶດງໍ້	-12487
ເຫລັກ	-12488
▁1914	-12489
▁Cell	-12490
▁Dark	-12491
▁Gate	-12492
▁Mand	-12493
▁Stop	-12494
▁lady	-12495
▁prev	-12496
▁tric	-12497
▁ກົ້ມ	-12498
▁ຂ້ຽນ	-12499
▁ຄຸ້ນ	-12500
▁ຊ້າງ	-12501
▁ຖ້ວຍ	-12502
▁ພ່ອງ	-12503
▁ຫຍາບ	-12504
▁ຫຍິບ	-12505
▁ເບັດ	-12506
▁ແປ້ງ	-12507
Sphere	-12508
ission	-12509
olding	-12510
online	-12511
rolley	-12512
ຈຸດນີ້	-12513
ຊໍານານ	-12514
ຕິດພັນ	-12515
ທຽບກັບ	-12516
ບັນຍາຍ	-12517
ປະຕິກິ	-12518
ວ່າລາວ	-12519
ເຕັມໃຈ	-12520
ເມື່ອຍ	-12521
ເລັກໂທ	-12522
ເຫຼັ້ມ	-12523
ໂດຍລວມ	-12524
ໃນທຸກໆ	-12525
▁Class	-12526
▁Initi	-12527
▁Istan	-12528
▁Music	-12529
▁PROMO	-12530
▁Spool	-12531
▁TRUST	-12532
▁Vinyl	-12533
▁Watts	-12534
▁prote	-12535
▁ຊໍາລະ	-12536
▁ປະການ	-12537
▁ລານີ້	-12538
▁ອິນຊີ	-12539
▁ເລກທີ	-12540
shopify	-12541
ການເກັບ	-12542
ການເສັງ	-12543
ຄະລາກອນ	-12544
ຍຸຕິທໍາ	-12545
ທີ່ສ້າງ	-12546
ທີ່ເຮົາ	-12547
ບໍ່ມີໃຜ	-12548
ພະເຈົ້າ	-12549
ສະໂມສອນ	-12550
ສໍາເນົາ	-12551
ຫລາຍຄົນ	-12552
ຮີບດ່ວນ	-12553
ຮ້ອຍຄົນ	-12554
ົາວະຊົນ	-12555
ແຖວຫນ້າ	-12556
▁Friday	-12557
▁Orange	-12558
▁Resort	-12559
▁Zurich	-12560
▁exacth	-12561
▁guitar	-12562
▁powder	-12563
▁ຂອງລາວ	-12564
▁ຄໍາສັບ	-12565
▁ງຶດງໍ້	-12566
▁ຕອນນີ້	-12567
▁ຕີລາຄາ	-12568
▁ມີຫ້ອງ	-12569
▁ວ່າບໍ່	-12570
▁ສໍາພາດ	-12571
▁ໄຊຊະນະ	-12572
ຊ່ວຍທ່ານ	-12573
ບ່ອນນັ່ງ	-12574
ມູນເຊື້ອ	-12575
ເຄື່ອນໄຫ	-12576
ເຊື້ອຊາດ	-12577
ເທົ່າກັບ	-12578
ໂຄງປະກອບ	-12579
ໃຊ້ເພື່ອ	-12580
▁Battery	-12581
▁Beroean	-12582
▁Pickets	-12583
▁Venturi	-12584
▁android	-12585
▁scratch	-12586
▁ຄະນະນັກ	-12587
▁ຄຸນະພາບ	-12588
▁ຄົນອື່ນ	-12589
▁ຕາມນັ້ນ	-12590
▁ທົ່ວໂລກ	-12591
▁ບໍ່ມີໃຜ	-12592
▁ປະຕິທິນ	-12593
▁ພັນລະນາ	-12594
▁ຫລັກສູດ	-12595
▁ແລະເປັນ	-12596
aceutical	-12597
androlone	-12598
propylene	-12599
ການຕິດຕໍ່	-12600
ການປຽບທຽບ	-12601
ຂອງຕະຫຼາດ	-12602
ຂອງນັກຮຽນ	-12603
ທາດໂປຼຕີນ	-12604
ທີ່ແນະນໍາ	-12605
ບໍ່ຈໍາກັດ	-12606
ພຣະອົງໄດ້	-12607
ມິນນິໂຊຕາ	-12608
ສາມາດເປັນ	-12609
ອອກແຮງງານ	-12610
ເງິນເດືອນ	-12611
ເປັນພິເສດ	-12612
ແຈ້ງເຕືອນ	-12613
ແລະປັບປຸງ	-12614
ໂລຫະປະສົມ	-12615
▁Airlines	-12616
▁Electric	-12617
▁Istanbul	-12618
▁Knitting	-12619
▁Previous	-12620
▁ນໍາເຂົ້າ	-12621
▁ບໍ່ມີການ	-12622
▁ປອກເປືອກ	-12623
▁ພວກເຈົ້າ	-12624
▁ສະເຕນເລດ	-12625
▁ອັດຕາການ	-12626
▁ເປັນເວລາ	-12627
ຜູ້ຕາງຫນ້າ	-12628
ພາລະບົດບາດ	-12629
ອາຍຸສູງສຸດ	-12630
▁Changchun	-12631
▁Container	-12632
▁Marketing	-12633
▁Rendering	-12634
▁ຄຣິດສະມັດ	-12635
▁ລະຫັດເງິນ	-12636
▁ສະກຸນເງິນ	-12637
▁ອຸປະຕິເຫດ	-12638
▁ເພື່ອສ້າງ	-12639
▁ແລະເຄື່ອງ	-12640
refinecolor	-12641
ຕ້ອນຮັບທ່ານ	-12642
ທຸກປະເພດຂອງ	-12643
ສາຍການຜະລິດ	-12644
ອັນໃຫຍ່ຫຼວງ	-12645
ເສດຖະກິດໂລກ	-12646
▁exacthacks	-12647
▁ຂອງພວກເຂົາ	-12648
▁ຄວາມສໍາຄັນ	-12649
▁ທ່ານກໍາລັງ	-12650
▁ບໍລິສັດໄດ້	-12651
▁ສະພາບອາກາດ	-12652
▁ອະນຸຍາດໃຫ້	-12653
▁ແຕ່ພວກເຮົາ	-12654
▁ແລະຂ້ອຍກໍ່	-12655
▁ໃຫ້ບໍລິການ	-12656
ກອງປະຊຸມໃຫຍ່	-12657
ຄວາມອາດສາມາດ	-12658
ເຮັດວຽກຢູ່ໃນ	-12659
ແນ່ໃຈວ່າທ່ານ	-12660
▁ການປະມວນຜົນ	-12661
▁ຕົວຫນ່ຽວນໍາ	-12662
▁ເດືອນຕົ້ນປີ	-12663
ທີ່ມີຄວາມຫມາຍ	-12664
▁ການຊ່ວຍເຫຼືອ	-12665
▁ຂ້າພະເຈົ້າຂໍ	-12666
▁ໄດ້ເຂົ້າຮ່ວມ	-12667
ເຊິ່ງກັນແລະກັນ	-12668
▁ທະຫານເສຍອົງຄະ	-12669
▁ພວກເຮົາທຸກຄົນ	-12670
ພວກເຮົາຈະທົດແທນ	-12671
ວິທະຍາໄລກ່ຽວກັບ	-12672
ໃຫ້ການຝຶກອົບຮົມ	-12673
▁ເປັນບໍລິສັດທີ່	-12674
ທີ່ຂ້າພະເຈົ້າໄດ້	-12675
ສະແຕນເລດສະແຕນເລດ	-12676
▁ການສະຫນັບສະຫນູນ	-12677
!,	-12678
,2	-12679
/-	-12680
/3	-12681
09	-12682
En	-12683
He	-12684
JD	-12685
PL	-12686
PM	-12687
Up	-12688
WG	-12689
fs	-12690
iu	-12691
nm	-12692
yp	-12693
ຜາ	-12694
ໄບ	-12695
-09	-12696
.01	-12697
ALL	-12698
AND	-12699
awa	-12700
bro	-12701
ews	-12702
hib	-12703
htt	-12704
inh	-12705
ius	-12706
luj	-12707
mil	-12708
oir	-12709
riv	-12710
tek	-12711
uls	-12712
viv	-12713
yun	-12714
ກ່ວ	-12715
ນົກ	-12716
ຫິວ	-12717
ອຽນ	-12718
ເລນ	-12719
ເຫມ	-12720
ແດດ	-12721
້ອາ	-12722
▁",	-12723
▁61	-12724
▁AI	-12725
▁LF	-12726
▁SC	-12727
▁er	-12728
▁ຝີ	-12729
▁ໂຖ	-12730
▁ໄຕ	-12731
aces	-12732
cing	-12733
icol	-12734
iles	-12735
iral	-12736
ning	-12737
ocol	-12738
okyt	-12739
oose	-12740
opro	-12741
ures	-12742
ຈົ່ມ	-12743
ດ່າງ	-12744
ຕົວະ	-12745
ສາມີ	-12746
ຫມໍ້	-12747
ື້ອກ	-12748
ເຊັບ	-12749
ແກ່ງ	-12750
ແຄ້ນ	-12751
▁188	-12752
▁210	-12753
▁4.3	-12754
▁5.5	-12755
▁7.4	-12756
▁90%	-12757
▁ALL	-12758
▁Dar	-12759
▁Dut	-12760
▁Flu	-12761
▁Hex	-12762
▁IEC	-12763
▁Laz	-12764
▁NAS	-12765
▁Syn	-12766
▁Tom	-12767
▁Ton	-12768
▁WPC	-12769
▁don	-12770
▁eng	-12771
▁imm	-12772
▁log	-12773
▁rad	-12774
▁ref	-12775
▁sex	-12776
▁ຂົມ	-12777
▁ຟຸດ	-12778
▁ວຽນ	-12779
▁ແຊກ	-12780
▁ໄຕ້	-12781
Haber	-12782
ORDER	-12783
antic	-12784
icket	-12785
iforn	-12786
isure	-12787
itter	-12788
loads	-12789
onald	-12790
onder	-12791
ongee	-12792
ooder	-12793
ptine	-12794
rifug	-12795
river	-12796
stone	-12797
under	-12798
water	-12799
ກໍໄດ້	-12800
ຊຽງໄຮ	-12801
ດຸ່ນດ	-12802
ພິສູດ	-12803
ລິເມດ	-12804
ສັດຕະ	-12805
ສັດຕູ	-12806
ສາເຫດ	-12807
ອບຄອບ	-12808
ເຜີ້ງ	-12809
ໄອແລນ	-12810
ໍລະນີ	-12811
▁1050	-12812
▁Dete	-12813
▁Meta	-12814
▁Patt	-12815
▁Porn	-12816
▁Quan	-12817
▁Shot	-12818
▁Stan	-12819
▁Time	-12820
▁Yong	-12821
▁bead	-12822
▁qual	-12823
▁ripp	-12824
▁tips	-12825
▁ຊີ້ນ	-12826
▁ຕັ່ງ	-12827
▁ບ່າຍ	-12828
▁ມືຖື	-12829
▁ລັອກ	-12830
▁ສ້ອຍ	-12831
▁ເອັດ	-12832
▁ແຫນ່	-12833
▁ໂທຫາ	-12834
▁ໄຫລ່	-12835
▁ໄຮໂດ	-12836
acetam	-12837
ishing	-12838
ophone	-12839
ormone	-12840
ກວດພົບ	-12841
ຄວນຮູ້	-12842
ດັດແກ້	-12843
ຕົວຂອງ	-12844
ບົດຂຽນ	-12845
ປະຫວັດ	-12846
ລຶກລັບ	-12847
ສະຫລາດ	-12848
ສົມດຸນ	-12849
ັບເລັດ	-12850
ແມ່ພິມ	-12851
ແລະຖືກ	-12852
▁2012,	-12853
▁2016)	-12854
▁Check	-12855
▁Ferry	-12856
▁Flute	-12857
▁Ninja	-12858
▁Rokyt	-12859
▁Scott	-12860
▁Smith	-12861
▁Texas	-12862
▁Ultra	-12863
▁Watch	-12864
▁Zhang	-12865
▁trans	-12866
▁valve	-12867
▁ກິດຈະ	-12868
▁ນະລົກ	-12869
▁ປີສາດ	-12870
▁ສາທິດ	-12871
▁ຫມ່ໍາ	-12872
▁ເຄືອງ	-12873
▁ແນໃສ່	-12874
Changes	-12875
atabase	-12876
ifornia	-12877
opamine	-12878
ກາງແຈ້ງ	-12879
ຂອງປ່ຽງ	-12880
ຈ່າຍຄ່າ	-12881
ຍົກຍ້າຍ	-12882
ຖ່າຍທອດ	-12883
ພ້ອມກັນ	-12884
ຢ່າງບໍ່	-12885
ລະປະທານ	-12886
ສັບຊ້ອນ	-12887
▁BORDER	-12888
▁Canber	-12889
▁Client	-12890
▁Equina	-12891
▁Forums	-12892
▁Rooder	-12893
▁Switch	-12894
▁Travel	-12895
▁pixels	-12896
▁rotary	-12897
▁ກະປ໋ອງ	-12898
▁ນັບແຕ່	-12899
▁ສູນກາງ	-12900
▁ອັບເດດ	-12901
▁ເອີລົບ	-12902
▁ແຮງງານ	-12903
cription	-12904
volution	-12905
ຈັດພີມມາ	-12906
ບັນຈຸພັນ	-12907
ພວກເຮົາມ	-12908
ພາບປະກອບ	-12909
ລົ້ມເຫລວ	-12910
ສະພາແຫ່ງ	-12911
ຫຼາຍຂື້ນ	-12912
▁Acrylic	-12913
▁Drifter	-12914
▁Dusting	-12915
▁Medical	-12916
▁TRUSTED	-12917
▁Therapy	-12918
▁Vietnam	-12919
▁Wenzhou	-12920
▁Yinzhou	-12921
▁discuss	-12922
▁ກາງແຈ້ງ	-12923
▁ທ່ານໄດ້	-12924
▁ປະໂລຫິດ	-12925
▁ມືອາຊີບ	-12926
▁ວ່າຄວາມ	-12927
▁ອາບນ້ໍາ	-12928
Changeset	-12929
ການກວດສອບ	-12930
ການວິເຄາະ	-12931
ຈິດວິນຍານ	-12932
ຕີລາຄາສູງ	-12933
ປະລິນຍາຕີ	-12934
ຫນຶ່ງແມ່ນ	-12935
ອອກແບບໂດຍ	-12936
ຮູບແບບການ	-12937
ໃນພື້ນທີ່	-12938
່ຽວກັບການ	-12939
▁Material	-12940
▁RayHaber	-12941
▁ກົດລະບຽບ	-12942
▁ທີ່ມີການ	-12943
▁ພ້ອມດ້ວຍ	-12944
▁ມິນລິເມດ	-12945
▁ໃນນັ້ນມີ	-12946
ການຢັ້ງຢືນ	-12947
ການສອບເສັງ	-12948
ຄວາມຮັບຮູ້	-12949
ຕົວຈິງແລ້ວ	-12950
ລ່ວງລະເມີດ	-12951
ອາຫານເຊົ້າ	-12952
ແຕກຕ່າງຈາກ	-12953
ແມ່ນພຽງແຕ່	-12954
ໃນການສຶກສາ	-12955
ໃຫ້ປະຊາຊົນ	-12956
▁Rokytnice	-12957
▁ການຕະຫຼາດ	-12958
▁ຂໍ້ສະເຫນີ	-12959
▁ຕອບສະຫນອງ	-12960
▁ຕາເວັນຕົກ	-12961
▁ຕ່າງປະເທດ	-12962
▁ທະນາຍຄວາມ	-12963
▁ທີ່ມີຄວາມ	-12964
▁ສີນ້ໍາຕານ	-12965
▁ເດືອນຕຸລາ	-12966
ຂອງເດັກນ້ອຍ	-12967
ຈະເປັນແນວໃດ	-12968
ທີ່ຈົດທະບຽນ	-12969
ທີ່ມີປະໂຫຍດ	-12970
ມະຫາກໍາກິລາ	-12971
ເພື່ອສະຫນອງ	-12972
ເຮັດໃຫ້ຂ້ອຍ	-12973
ແລະເງື່ອນໄຂ	-12974
ໃກ້ຂ້ອຍໂທຫາ	-12975
▁California	-12976
▁Skateboard	-12977
▁ອັກຄະສາວົກ	-12978
▁ເສີມຂະຫຍາຍ	-12979
ການເຊື່ອມໂຍງ	-12980
ທີ່ເຂົາເຈົ້າ	-12981
ເມື່ອພວກເຮົາ	-12982
▁Temperature	-12983
▁ເກັບຂີ້ຝຸ່ນ	-12984
ຂະຫຍາຍຕົວຢ່າງ	-12985
ທາງອິນເຕີເນັດ	-12986
ທີ່ມີຢູ່ໃນທຸກ	-12987
ເຮັດຄວາມສະອາດ	-12988
▁ຕໍ່ໄປນີ້ແມ່ນ	-12989
▁ສະພາບແວດລ້ອມ	-12990
▁ນະຄອນໂຮ່ຈີມິນ	-12991
▁ຢ່າລືມກ່ຽວກັບ	-12992
▁ເຄື່ອງດູດຝຸ່ນ	-12993
▁ໃນເວລາທີ່ທ່ານ	-12994
ພຣະຜູ້ເປັນເຈົ້າ	-12995
▁ແລະໂຮງງານຜະລິດ	-12996
ຢ່າງມີປະສິດທິຜົນ	-12997
))	-12998
AK	-12999
IB	-13000
Le	-13001
PO	-13002
do	-13003
ບີ	-13004
-70	-13005
.64	-13006
105	-13007
302	-13008
360	-13009
Win	-13010
amm	-13011
ded	-13012
kok	-13013
ozz	-13014
rie	-13015
ຂວດ	-13016
ຟັນ	-13017
ຫອງ	-13018
ຫາວ	-13019
ຫຸງ	-13020
ອໍາ	-13021
ເກຍ	-13022
ໂງ່	-13023
້ວກ	-13024
▁#5	-13025
▁(9	-13026
▁2-	-13027
▁77	-13028
▁Do	-13029
▁Ep	-13030
▁Ev	-13031
▁GO	-13032
▁HI	-13033
▁Ol	-13034
▁PT	-13035
▁Pr	-13036
▁TO	-13037
▁Us	-13038
▁av	-13039
▁ໄຖ	-13040
0000	-13041
84.2	-13042
Blog	-13043
apez	-13044
ards	-13045
ared	-13046
best	-13047
book	-13048
esis	-13049
igan	-13050
mesh	-13051
ours	-13052
room	-13053
roph	-13054
uble	-13055
ກິພີ	-13056
ຄວັນ	-13057
ຄອບຄ	-13058
ຊະນາ	-13059
ຊື້ນ	-13060
ດູດນ	-13061
ຖົ່ວ	-13062
ຖ່ານ	-13063
ປາຖະ	-13064
ຟ້ອງ	-13065
ມະຕິ	-13066
ວິດີ	-13067
ວ່າມ	-13068
ສາຂາ	-13069
ຫ່ວງ	-13070
ະນຶກ	-13071
ເດີ້	-13072
▁1/2	-13073
▁304	-13074
▁888	-13075
▁Bin	-13076
▁CPA	-13077
▁Ins	-13078
▁Job	-13079
▁Ken	-13080
▁LAS	-13081
▁Leg	-13082
▁May	-13083
▁Mun	-13084
▁SAR	-13085
▁SSL	-13086
▁Van	-13087
▁WEF	-13088
▁Yuy	-13089
▁bul	-13090
▁det	-13091
▁ios	-13092
▁ຍົມ	-13093
▁ຕາບ	-13094
▁ປູ່	-13095
▁ຢືມ	-13096
▁ຫວນ	-13097
▁ເບຍ	-13098
▁ເອດ	-13099
▁ແນນ	-13100
▁ແນມ	-13101
Jilin	-13102
alian	-13103
anton	-13104
ersey	-13105
itive	-13106
odeon	-13107
phalt	-13108
ກະທູ້	-13109
ປັດຕະ	-13110
ມາກັບ	-13111
ລັກຊີ	-13112
ສະເຫນ	-13113
ອິນຊີ	-13114
ານັ້ນ	-13115
າວິທີ	-13116
ຽງຈັນ	-13117
ໃນມື້	-13118
ໄວຣັດ	-13119
▁1300	-13120
▁ANSI	-13121
▁Buck	-13122
▁Camp	-13123
▁Chen	-13124
▁Feed	-13125
▁HDPE	-13126
▁Kate	-13127
▁film	-13128
▁porn	-13129
▁prom	-13130
▁ກຼາມ	-13131
▁ຄ້ອຍ	-13132
▁ຊ້ອມ	-13133
▁ຕ້ອຍ	-13134
▁ທຸລະ	-13135
▁ລີ້ນ	-13136
▁ຫນຽວ	-13137
▁ຫມໍ້	-13138
▁ເຊັດ	-13139
▁ເລຂາ	-13140
▁ເສືອ	-13141
▁ແຫວນ	-13142
▁ໂປໂລ	-13143
atform	-13144
eptine	-13145
ithium	-13146
totype	-13147
ການຈັດ	-13148
ການປູກ	-13149
ຂຶ້ນມາ	-13150
ຊິງຕັນ	-13151
ດຽວກັບ	-13152
ຕອບແທນ	-13153
ຕົວກອງ	-13154
ທອງແດງ	-13155
ທາງລົບ	-13156
ທີ່ອາດ	-13157
ທໍາງານ	-13158
ຫລາຍປີ	-13159
າກຫລາຍ	-13160
ແຊກແຊງ	-13161
ແຜນທີ່	-13162
ໃຊ້ວຽກ	-13163
ໆນ້ອຍໆ	-13164
▁2016.	-13165
▁3.2.1	-13166
▁CHINA	-13167
▁Franc	-13168
▁Staff	-13169
▁psych	-13170
▁quote	-13171
▁vinyl	-13172
▁ດັດນີ	-13173
▁ນໍາໄປ	-13174
▁ວິຈານ	-13175
▁ສະບຽງ	-13176
▁ສະຫນາ	-13177
▁ສັກຢາ	-13178
▁ສັບພະ	-13179
▁ສາວົກ	-13180
▁ໂບນັດ	-13181
eration	-13182
ຄວາມຜິດ	-13183
ຕ້ອງໃຊ້	-13184
ນາຍຫນ້າ	-13185
ປັກກິ່ງ	-13186
ພັນລະຍາ	-13187
ອີກຄັ້ງ	-13188
ໃນເມືອງ	-13189
▁0086-1	-13190
▁Compos	-13191
▁Marble	-13192
▁Robert	-13193
▁Teflon	-13194
▁ການແພດ	-13195
▁ຕັ້ງໃຈ	-13196
▁ບັນລັງ	-13197
▁ພໍ່ແມ່	-13198
▁ສະຫຼອງ	-13199
▁ສະຫຼຸບ	-13200
▁ໃນຄວາມ	-13201
ກວດເບິ່ງ	-13202
ຄໍາເວົ້າ	-13203
ລະດູຫນາວ	-13204
ສະຖານທູດ	-13205
ຮອງປະທານ	-13206
▁100,000	-13207
▁Bearing	-13208
▁Cutting	-13209
▁Ductile	-13210
▁Factory	-13211
▁Kharkiv	-13212
▁Pacific	-13213
▁Wedding	-13214
▁ຄວາມງາມ	-13215
▁ຈຸດຫມາຍ	-13216
▁ຕື້ໂດລາ	-13217
▁ທີ່ຂ້ອຍ	-13218
▁ທີ່ຫນ້າ	-13219
▁ທີ່ເຮົາ	-13220
▁ວົງເງິນ	-13221
▁ເບີກບານ	-13222
▁ໄດ້ສ້າງ	-13223
▁ໄດ້ເປັນ	-13224
ຂອງບຸກຄົນ	-13225
ຂອງອົງການ	-13226
ຂອງແມ່ຍິງ	-13227
ຂໍ້ສັງເກດ	-13228
ທຸລະກິດຂະ	-13229
ພ້ອມທີ່ຈະ	-13230
ສົມທົບກັນ	-13231
ຮຽນຮູ້ຈາກ	-13232
ເຄື່ອງຕັດ	-13233
ໃນບໍລິເວນ	-13234
ໄດ້ຮັບຮອງ	-13235
ໄດ້ຮັບຮູ້	-13236
▁American	-13237
▁Canberra	-13238
▁Function	-13239
▁Training	-13240
▁ການຮັກສາ	-13241
▁ຍຶດຫມັ້ນ	-13242
▁ທີ່ປຶກສາ	-13243
▁ບ່ອນນັ່ງ	-13244
▁ພາບພະຍົນ	-13245
▁ເຮົາຕ້ອງ	-13246
ນັກສິລະປິນ	-13247
ປະຈໍາເດືອນ	-13248
ສໍາລັບຄວາມ	-13249
ໃຊ້ອຸປະກອນ	-13250
▁resources	-13251
▁ການຜ່າຕັດ	-13252
▁ການສູນເສຍ	-13253
▁ກ່ອນທີ່ຈະ	-13254
▁ນະຄອນຫຼວງ	-13255
▁ວັນອັງຄານ	-13256
▁ໄດ້ຕະຫຼອດ	-13257
ການຄ້າຫນ້ອຍ	-13258
ການຕັດສິນໃຈ	-13259
ຄວາມຖືກຕ້ອງ	-13260
ທີ່ໂດດເດັ່ນ	-13261
ນັກທ່ອງທ່ຽວ	-13262
ພຣະກິດຕິຄຸນ	-13263
ເຮັດໃຫ້ເກີດ	-13264
▁ມັນເປັນການ	-13265
▁ເຄື່ອງດື່ມ	-13266
▁ເຈົ້າສາມາດ	-13267
ຕາເວັນອອກກາງ	-13268
ປະທານາທິບໍດີ	-13269
ຜູ້ອໍານວຍການ	-13270
ຜົນບັງຄັບໃຊ້	-13271
ສ່ວນທີ່ເຫຼືອ	-13272
ຫຼີກເວັ້ນການ	-13273
ເພີ່ມຂຶ້ນຂອງ	-13274
ແລະການປັບປຸງ	-13275
ໃນການກໍ່ສ້າງ	-13276
▁Conditioner	-13277
▁Nickelodeon	-13278
▁ຄວາມແຕກຕ່າງ	-13279
▁ຄະນະຈັດຕັ້ງ	-13280
▁ຕິດຕັ້ງຜ່ານ	-13281
▁ທີ່ກອງປະຊຸມ	-13282
▁ທ່ານຕ້ອງການ	-13283
▁ສາຍການຜະລິດ	-13284
ກອບເປັນຈໍານວນ	-13285
ຂອງບັນດາປະເທດ	-13286
▁ທໍາຄວາມສະອາດ	-13287
▁ປະຫວັດສາດຂອງ	-13288
▁ຜູ້ເຂົ້າຮ່ວມ	-13289
▁ໃບຢັ້ງຢືນການ	-13290
ຊັບສິນທາງປັນຍາ	-13291
ທີ່ມີຄວາມສາມາດ	-13292
ເຄື່ອງນຸ່ງຫົ່ມ	-13293
▁ການດໍາເນີນງານ	-13294
▁ນອກເຫນືອໄປຈາກ	-13295
▁ໃນຄໍາສັບຕ່າງໆ	-13296
ສັນຍາການຄ້າເສລີ	-13297
▁ຄວາມສາມາດໃນການ	-13298
Ad	-13299
FA	-13300
KE	-13301
MK	-13302
Ne	-13303
TD	-13304
UL	-13305
kW	-13306
lp	-13307
wu	-13308
zy	-13309
ຕມ	-13310
ຜີ	-13311
ອູ	-13312
-85	-13313
.50	-13314
165	-13315
769	-13316
:05	-13317
ERY	-13318
abl	-13319
aic	-13320
ato	-13321
col	-13322
ful	-13323
kin	-13324
mmx	-13325
oom	-13326
oxy	-13327
tai	-13328
uns	-13329
zer	-13330
ຊີນ	-13331
ທົວ	-13332
ປົນ	-13333
ພັຍ	-13334
ມີນ	-13335
ລຽງ	-13336
ຮັດ	-13337
ເຫງ	-13338
ໂຟນ	-13339
▁#,	-13340
▁EL	-13341
▁KY	-13342
▁RC	-13343
▁SI	-13344
▁ml	-13345
----	-13346
afil	-13347
bags	-13348
oles	-13349
oria	-13350
plic	-13351
stru	-13352
ulph	-13353
ylum	-13354
ຈຸລະ	-13355
ພົ່ນ	-13356
ລະຕະ	-13357
ຫນາມ	-13358
ຫຼົກ	-13359
ອ່ຽງ	-13360
ະນີ້	-13361
ເຣັກ	-13362
ແປ້ງ	-13363
▁2.7	-13364
▁4.5	-13365
▁518	-13366
▁6.0	-13367
▁777	-13368
▁Bab	-13369
▁DOC	-13370
▁Jog	-13371
▁Lit	-13372
▁Los	-13373
▁Mor	-13374
▁Nex	-13375
▁Not	-13376
▁Shi	-13377
▁Tap	-13378
▁Ten	-13379
▁URL	-13380
▁Zoo	-13381
▁cou	-13382
▁reg	-13383
▁sur	-13384
▁ກັກ	-13385
▁ຊັນ	-13386
▁ຕົບ	-13387
▁ບຣາ	-13388
▁ບົນ	-13389
▁ລາດ	-13390
▁ເກຍ	-13391
▁ເບກ	-13392
▁ແຫລ	-13393
▁ໂຄບ	-13394
▁ໂປດ	-13395
▁ໂສ້	-13396
/2018	-13397
ERIES	-13398
INGBO	-13399
annab	-13400
ateur	-13401
attle	-13402
inson	-13403
ruary	-13404
ungal	-13405
ຄູປອງ	-13406
ງ່າຍໆ	-13407
ຍາກໍາ	-13408
ຕາບອດ	-13409
ຕິຜົນ	-13410
ຕົກໃຈ	-13411
ນໍາມາ	-13412
ບົດທີ	-13413
ປະຖົມ	-13414
ສາມປີ	-13415
ຫຼືໄປ	-13416
ຮາດແວ	-13417
ັກຮຽນ	-13418
ເຂົ່າ	-13419
ແລະຢາ	-13420
ໂປຣແກ	-13421
▁(3.5	-13422
▁0.00	-13423
▁100,	-13424
▁COIN	-13425
▁Coal	-13426
▁Gray	-13427
▁Hipp	-13428
▁Kies	-13429
▁Maxi	-13430
▁Past	-13431
▁Real	-13432
▁Tran	-13433
▁Unit	-13434
▁Xiam	-13435
▁coin	-13436
▁foil	-13437
▁past	-13438
▁snow	-13439
▁ກ້າມ	-13440
▁ຂີ້ເ	-13441
▁ຄລິບ	-13442
▁ຈັ່ງ	-13443
▁ບົ່ງ	-13444
▁ປ່ຽມ	-13445
▁ມາລະ	-13446
▁ສະຖາ	-13447
▁ຫ່ຽວ	-13448
▁ແທ່ນ	-13449
▁ໂອ້ຍ	-13450
▁“...	-13451
6084.2	-13452
ONDALE	-13453
ailand	-13454
ethane	-13455
ground	-13456
istory	-13457
loader	-13458
osphor	-13459
ການກິນ	-13460
ການຕັດ	-13461
ຈະເລີນ	-13462
ຈາກຈີນ	-13463
ດ້ວຍມື	-13464
ຕິດກັບ	-13465
ຖາມວ່າ	-13466
ຖົງຖົງ	-13467
ທີ່ຄົນ	-13468
ປະກະຕິ	-13469
ຜູ້ຂາຍ	-13470
ຜູ້ຮັບ	-13471
ຜ່າກາງ	-13472
ມີອາຍຸ	-13473
ວາງອອກ	-13474
ສຸດຍອດ	-13475
ອອກສຽງ	-13476
ເຫລົ່າ	-13477
ແທດຈິງ	-13478
▁1,000	-13479
▁2.6.4	-13480
▁2015,	-13481
▁Frame	-13482
▁Hubei	-13483
▁Medic	-13484
▁Peach	-13485
▁Solid	-13486
▁Space	-13487
▁Study	-13488
▁USMLE	-13489
▁Under	-13490
▁shaft	-13491
▁ກົນໄກ	-13492
▁ກໍາໄລ	-13493
▁ຈະຖືກ	-13494
▁ນີ້ຈະ	-13495
▁ປະກັນ	-13496
▁ລັງຈະ	-13497
▁ເດືອດ	-13498
▁ແຕ່ມີ	-13499
▁ໂຢຮັນ	-13500
▁ໄປສູ່	-13501
acetime	-13502
apezoid	-13503
unching	-13504
ກະຕັນຍູ	-13505
ກິພີເດຍ	-13506
ຂອງກຸ່ມ	-13507
ຂ້ານ້ອຍ	-13508
ຂ້າມຟາກ	-13509
ຊັ້ນສູງ	-13510
ດເຕີລີ່	-13511
ບັນເທີງ	-13512
ພຣະຄຣິດ	-13513
ັ້ນແມ່ນ	-13514
ເຂົ້າຫາ	-13515
ແຕ້ມຮູບ	-13516
ແມ່ນຢູ່	-13517
▁(2011)	-13518
▁Hotels	-13519
▁Indian	-13520
▁Pallet	-13521
▁Pongee	-13522
▁Pulver	-13523
▁Sealed	-13524
▁Valves	-13525
▁iphone	-13526
▁mobile	-13527
▁ripple	-13528
▁ຂອງມັນ	-13529
▁ຂອບເຂດ	-13530
▁ຈອງຫອງ	-13531
▁ຊຶ່ງຈະ	-13532
▁ຍ້ອງຍໍ	-13533
▁ດິນແດນ	-13534
▁ຖົງກອງ	-13535
▁ບັນດາກ	-13536
▁ປະເສີດ	-13537
▁ລູກສາວ	-13538
▁ວ່າມັນ	-13539
▁ສະຖິຕິ	-13540
▁ສະຫງ່າ	-13541
▁ສຶກວ່າ	-13542
▁ເຈຕະນາ	-13543
▁ເຫລັ້ມ	-13544
▁ແລະນາງ	-13545
▁ແລະບໍ່	-13546
▁ໃນຊ່ວງ	-13547
essional	-13548
ຕ່າງໆທີ່	-13549
ອົກຊີເຈນ	-13550
ຮັບມືກັບ	-13551
ເຊັ່ນນີ້	-13552
ເຖິງແມ່ນ	-13553
ເພື່ອຊາດ	-13554
ເສື້ອຍາວ	-13555
ໂສກເສົ້າ	-13556
ໃນທີ່ສຸດ	-13557
▁Friends	-13558
▁Furnace	-13559
▁Taffeta	-13560
▁article	-13561
▁ຄາດຫມາຍ	-13562
▁ຍົກຍ້ອງ	-13563
▁ພົ້ນຈາກ	-13564
▁ວັນເສົາ	-13565
▁ຫລັກຖານ	-13566
▁ເນື້ອໃນ	-13567
▁ເວບໄຊທ໌	-13568
▁ເສລີພາບ	-13569
ຄູ່ຜົວເມຍ	-13570
ຈໍານວນຂອງ	-13571
ທາງວິນຍານ	-13572
ບັດເຄຣດິດ	-13573
ຜູ້ທີ່ໄດ້	-13574
ມອບລາງວັນ	-13575
ສະຖານະພາບ	-13576
ໃນຕອນທ້າຍ	-13577
▁86-574-8	-13578
▁Internet	-13579
▁Recovery	-13580
▁conveyor	-13581
▁ທີ່ນະຄອນ	-13582
▁ນັກສະແດງ	-13583
▁ປີຜ່ານມາ	-13584
▁ລະດູຫນາວ	-13585
▁ສັນຍາລັກ	-13586
▁ເຈົ້າທີ່	-13587
▁ເຊິ່ງໄດ້	-13588
▁ເວັບໄຊຕ໌	-13589
ທີ່ພັກອາໄສ	-13590
ບາງສ່ວນຂອງ	-13591
ປະສິດຕິຜົນ	-13592
ສາມາດຜະລິດ	-13593
ແຜ່ນດິນໂລກ	-13594
▁Machining	-13595
▁Morehacks	-13596
▁Zhongshan	-13597
▁diaphragm	-13598
▁ຈິດວິນຍານ	-13599
▁ນັກລົງທຶນ	-13600
▁ຜູ້ຄົນຂອງ	-13601
▁ຮ້ານອາຫານ	-13602
▁ເຈົ້າດ້ວຍ	-13603
▁ເດືອນເມສາ	-13604
▁ເປັນເຈົ້າ	-13605
▁ເຫລົ່ານີ້	-13606
▁ເຮັດແນວໃດ	-13607
▁ແນ່ນອນວ່າ	-13608
ຈົບການສຶກສາ	-13609
ປະເພດຂອງການ	-13610
ສັກຢາວັກຊີນ	-13611
ສິ່ງທີ່ເປັນ	-13612
ແລະປະສົບການ	-13613
▁CANNONDALE	-13614
▁Initiative	-13615
▁ຊັບພະຍາກອນ	-13616
▁ຍື່ນພາຍໃຕ້	-13617
▁ດໍາເນີນການ	-13618
▁ມັນແມ່ນການ	-13619
▁ສະຖຽນລະພາບ	-13620
▁ສົ່ງອີເມລ໌	-13621
ຄວນໄດ້ຮັບການ	-13622
ຄວາມຫນາແຫນ້ນ	-13623
ປະຊາຊົນນະຄອນ	-13624
ປະສົບກັບຄວາມ	-13625
ເປັນອັນຕະລາຍ	-13626
ແລະການນໍາໃຊ້	-13627
ໃນເວລາດຽວກັນ	-13628
▁3.2.16084.2	-13629
▁ຂ້ອຍຕ້ອງການ	-13630
▁ຈັດພີມມາໂດຍ	-13631
▁ຕາມນັ້ນແລ້ວ	-13632
▁ປົກກະຕິແລ້ວ	-13633
ຂອງພົນລະເມືອງ	-13634
ພຽງແຕ່ຕ້ອງການ	-13635
▁Testosterone	-13636
▁ຄະນະຊາວຫນຸ່ມ	-13637
▁ໃນເວລາດຽວກັນ	-13638
ປະຫຍັດພະລັງງານ	-13639
ສົນທະນາກ່ຽວກັບ	-13640
ສ້າງຕັ້ງຂຶ້ນໃນ	-13641
ທີ່ເປັນອັນຕະລາຍ	-13642
ບັນດາຜະລິດຕະພັນ	-13643
▁ການສົ່ງເສີມການ	-13644
▁ກົດຫມາຍວ່າດ້ວຍ	-13645
▁ຍິ່ງໄປກວ່ານັ້ນ	-13646
▁ພວກເຮົາຕ້ອງການ	-13647
▁ມົນທົນກວາງຕຸ້ງ	-13648
▁ສາມາດໄດ້ຮັບການ	-13649
▁ໂດຍພື້ນຖານແລ້ວ	-13650
/7	-13651
04	-13652
AA	-13653
ME	-13654
UK	-13655
ка	-13656
ດຣ	-13657
ິສ	-13658
-06	-13659
4">	-13660
:86	-13661
Che	-13662
GHT	-13663
Hub	-13664
aut	-13665
bug	-13666
buy	-13667
cat	-13668
edi	-13669
eek	-13670
hot	-13671
ief	-13672
lad	-13673
oga	-13674
oke	-13675
usp	-13676
vad	-13677
ກອດ	-13678
ຊາມ	-13679
ປວງ	-13680
ປູນ	-13681
ຢວນ	-13682
ລຸນ	-13683
ຫິນ	-13684
ອຶດ	-13685
ແທງ	-13686
ແມວ	-13687
ແອນ	-13688
ໂຄນ	-13689
ໂຕະ	-13690
ໂບດ	-13691
▁+1	-13692
▁5)	-13693
▁97	-13694
▁Ax	-13695
▁Oh	-13696
▁SO	-13697
▁Ub	-13698
▁Vi	-13699
▁Yu	-13700
▁Ze	-13701
▁if	-13702
▁ອໍ	-13703
▁ຮູ	-13704
▁ໄຈ	-13705
000,	-13706
1200	-13707
Cont	-13708
ONUS	-13709
ajon	-13710
appy	-13711
aron	-13712
bert	-13713
comp	-13714
days	-13715
etra	-13716
fect	-13717
igid	-13718
lear	-13719
mark	-13720
part	-13721
rive	-13722
roit	-13723
spir	-13724
vada	-13725
ຊັ່ງ	-13726
ຖິ້ມ	-13727
ບິດາ	-13728
ບ້ວງ	-13729
ພະຍາ	-13730
ພາຍຸ	-13731
ມໍ່ໆ	-13732
ຫມວກ	-13733
ຫລົງ	-13734
ແຟ້ນ	-13735
▁(18	-13736
▁(3,	-13737
▁(50	-13738
▁1.3	-13739
▁CPU	-13740
▁DIY	-13741
▁Dan	-13742
▁GDP	-13743
▁Had	-13744
▁Jum	-13745
▁Low	-13746
▁MOQ	-13747
▁PPS	-13748
▁Reb	-13749
▁Sep	-13750
▁UPS	-13751
▁Wal	-13752
▁Wil	-13753
▁amp	-13754
▁enc	-13755
▁org	-13756
▁sem	-13757
▁squ	-13758
▁tor	-13759
▁ຄາບ	-13760
▁ຊຕມ	-13761
▁ຊາມ	-13762
▁ດຸນ	-13763
▁ດົມ	-13764
▁ບຽບ	-13765
▁ລິນ	-13766
▁ຫາງ	-13767
▁ເກີ	-13768
▁ແຊວ	-13769
▁ໄຄ່	-13770
▁ໄຟລ	-13771
-2017	-13772
acker	-13773
falls	-13774
iston	-13775
leece	-13776
ກຸສົນ	-13777
ຍະລັກ	-13778
ທັນໃດ	-13779
ນະວັດ	-13780
ປະຈັກ	-13781
ປັດໄຈ	-13782
ພາກັນ	-13783
ລະນຶກ	-13784
ສະທໍາ	-13785
ຫາຍາກ	-13786
ຽນບຽນ	-13787
ເດືອດ	-13788
▁(199	-13789
▁1400	-13790
▁1990	-13791
▁2004	-13792
▁Arab	-13793
▁Cams	-13794
▁EMBA	-13795
▁Fund	-13796
▁Mary	-13797
▁Rest	-13798
▁Wang	-13799
▁cluj	-13800
▁glut	-13801
▁here	-13802
▁hero	-13803
▁part	-13804
▁prec	-13805
▁vibr	-13806
▁visa	-13807
▁ຂ່າຍ	-13808
▁ຄ້ໍາ	-13809
▁ຍົວະ	-13810
▁ທິດາ	-13811
▁ຮຸ້ນ	-13812
▁ເກືອ	-13813
Pieces	-13814
ashing	-13815
ersion	-13816
quency	-13817
ດີເລີດ	-13818
ຖົງຢາງ	-13819
ຢູ່ນອກ	-13820
ລອນດອນ	-13821
ລ່າສັດ	-13822
ສະແຫວງ	-13823
ສັງລວມ	-13824
ສືບສວນ	-13825
ຫາເງິນ	-13826
ຫຼືບໍ່	-13827
ເຊີດຊູ	-13828
ແລະຂາຍ	-13829
ແລະໃຫ້	-13830
ໂຣກໂຣກ	-13831
▁2010)	-13832
▁Adele	-13833
▁BONUS	-13834
▁Bohem	-13835
▁Cloth	-13836
▁Hacks	-13837
▁Insul	-13838
▁Linen	-13839
▁Money	-13840
▁Store	-13841
▁Trust	-13842
▁Yuyao	-13843
▁ester	-13844
▁heels	-13845
▁pizza	-13846
▁pulse	-13847
▁scene	-13848
▁shelf	-13849
▁ກະຈົກ	-13850
▁ນາຍົກ	-13851
▁ສາມັນ	-13852
▁ໃນບາງ	-13853
agement	-13854
anthate	-13855
ຄວາມດັນ	-13856
ຄວາມຝັນ	-13857
ຊະນາການ	-13858
ທຸກບ່ອນ	-13859
ປາຊີຟິກ	-13860
ພາບຖ່າຍ	-13861
ລະຕະຟອມ	-13862
ຫມາກຜົນ	-13863
ອີກແລ້ວ	-13864
ເຕືອນໄພ	-13865
ເສລີພາບ	-13866
ແມ່ຂ່າຍ	-13867
▁Advert	-13868
▁Canton	-13869
▁Cinema	-13870
▁Claret	-13871
▁ComPro	-13872
▁Geocon	-13873
▁Hunter	-13874
▁Plasma	-13875
▁Sports	-13876
▁Window	-13877
▁indoor	-13878
▁ladies	-13879
▁ການວາງ	-13880
▁ຂ້ອຍມີ	-13881
▁ດຶງດູດ	-13882
▁ຫລັງຄາ	-13883
▁ແລະລາວ	-13884
▁ແລະວ່າ	-13885
▁ໂດຍລວມ	-13886
▁ໄດ້ຈັດ	-13887
▁ໄວລຸ້ນ	-13888
.08.2018	-13889
ຂອງນະຄອນ	-13890
ຊຸ່ມຊື່ນ	-13891
ປະຈໍາຕົວ	-13892
ພັນທະມິດ	-13893
ພໍສົມຄວນ	-13894
ຫນ້ານັ້ນ	-13895
ຫລາກຫລາຍ	-13896
ຫົວຫນ່ວຍ	-13897
ີມສະຫລອງ	-13898
ເສື້ອຜ້າ	-13899
ເຮືອນຄົວ	-13900
ໂປແກຼມສະ	-13901
ໃນໂຄງການ	-13902
ໄປບໍ່ໄດ້	-13903
▁Profile	-13904
▁Rangers	-13905
▁Silicon	-13906
▁Starter	-13907
▁Testing	-13908
▁dresses	-13909
▁eyelash	-13910
▁handbag	-13911
▁pirates	-13912
▁ການເງິນ	-13913
▁ປະຊາກອນ	-13914
▁ວິໄສທັດ	-13915
▁ສາລະພາບ	-13916
▁ສິ້ນສຸດ	-13917
▁ອຸດສາຫະ	-13918
▁ເຈົ້ານີ	-13919
▁ໃນຊຸມປີ	-13920
ການຮັບຮອງ	-13921
ຂອງຫນັງສື	-13922
ຄິດວ່າມັນ	-13923
ບັນທຶກການ	-13924
ພູມສັນຖານ	-13925
ຢູ່ໃນຫ້ອງ	-13926
ສະກັດກັ້ນ	-13927
ສະເຫມີພາບ	-13928
ສິ່ງຕ່າງໆ	-13929
ສົ່ງອອກໄປ	-13930
ໃນແຕ່ລະປີ	-13931
▁February	-13932
▁Jiaozhou	-13933
▁Purifier	-13934
▁Whatsapp	-13935
▁ຄາດວ່າຈະ	-13936
▁ງົບປະມານ	-13937
▁ຜົນຜະລິດ	-13938
▁ລັດສະຫມີ	-13939
▁ສະພາແຫ່ງ	-13940
▁ສະຫວັດດີ	-13941
▁ຫມາຍຄວາມ	-13942
▁ເຂົ້າກັບ	-13943
▁ເຈົ້າໄດ້	-13944
▁ເອີ້ນວ່າ	-13945
▁ໄດ້ປະກາດ	-13946
▁ໄດ້ມີການ	-13947
ຂອງສະຫະລັດ	-13948
ຄິດສ້າງສັນ	-13949
ຄຸນລັກສະນະ	-13950
ຈາກພວກເຮົາ	-13951
ທັງຫມົດທີ່	-13952
ທີ່ຂ້ອຍໄດ້	-13953
ບັນດາກະຊວງ	-13954
ລັບສັບຊ້ອນ	-13955
ເຄິ່ງຫນຶ່ງ	-13956
▁Copyright	-13957
▁ການກວດສອບ	-13958
▁ຂະຫນາດຂອງ	-13959
▁ຊ່ວຍເຫລືອ	-13960
▁ຕົວຂຶ້ນໄປ	-13961
▁ຜູ້ທີ່ໄດ້	-13962
▁ຢືນຢັນວ່າ	-13963
▁ເຄື່ອງກອງ	-13964
▁ແສງຕາເວັນ	-13965
▁ໃນຄໍາສັ່ງ	-13966
ຂອງເວັບໄຊທ໌	-13967
ຄຸນນະພາບຂອງ	-13968
ທີ່ສຸດໃນໂລກ	-13969
ບໍ່ດັ່ງນັ້ນ	-13970
ສາມາດຄວບຄຸມ	-13971
ຫຼຸດຜ່ອນການ	-13972
ເຕົ້າໂຮມກັນ	-13973
ເອເລັກໂຕນິກ	-13974
ແລະພະລັງງານ	-13975
▁SharePoint	-13976
▁ກອງທັບເຮືອ	-13977
▁ຄວາມຜິດພາດ	-13978
▁ທຸກທໍລະມານ	-13979
▁ນໍາທິດສະນີ	-13980
▁ເພື່ອບັນລຸ	-13981
▁ແລະນີ້ແມ່ນ	-13982
▁ໂດຍຜ່ານການ	-13983
ວັນຄຣິດສະມາດ	-13984
ສາມາດແຂ່ງຂັນ	-13985
ສໍາຄັນທີ່ສຸດ	-13986
ໃນເບື້ອງຕົ້ນ	-13987
▁Advertising	-13988
▁ຂໍຂອບໃຈທ່ານ	-13989
▁ຄວາມແມ່ນຍໍາ	-13990
ການປ່ອຍອາຍພິດ	-13991
ປ້ອງກັນບໍ່ໃຫ້	-13992
ພວກເຮົາມີຄວາມ	-13993
ເລີ່ມຕົ້ນດ້ວຍ	-13994
▁ທ່ານຈະໄດ້ຮັບ	-13995
▁ເພີ່ມທະວີການ	-13996
ກ່ຽວກັບສິ່ງທີ່	-13997
ລະດັບຄວາມກ້ວາງ	-13998
▁ຂໍ້ມູນຂ່າວສານ	-13999
▁ທີ່ແຕກຕ່າງກັນ	-14000
▁ເງິນຝາກຄໍາວ່າ	-14001
▁ເພື່ອຮັບປະກັນ	-14002
▁ແຕ່ຂ້າພະເຈົ້າ	-14003
ລະບົບປະຕິບັດການ	-14004
▁ຄວາມຄິດສ້າງສັນ	-14005
▁ບັນດາວິສາຫະກິດ	-14006
ທັງຫມົດໃນທົ່ວໂລກ	-14007
▁ດັ່ງນັ້ນພວກເຮົາ	-14008
▁ພັດທະນາຊົນນະບົດ	-14009
▁ເປັນການຄ້າຫນ້ອຍ	-14010
%)	-14011
%,	-14012
/8	-14013
03	-14014
07	-14015
AB	-14016
Bl	-14017
CD	-14018
DR	-14019
HC	-14020
HP	-14021
LD	-14022
MB	-14023
TP	-14024
__	-14025
gn	-14026
sd	-14027
tl	-14028
ty	-14029
ос	-14030
ра	-14031
ຖາ	-14032
ັຟ	-14033
ເຝ	-14034
.11	-14035
.18	-14036
/01	-14037
/11	-14038
11,	-14039
136	-14040
160	-14041
307	-14042
:06	-14043
ATS	-14044
Biz	-14045
CHF	-14046
ICE	-14047
LAN	-14048
NET	-14049
ado	-14050
fig	-14051
fox	-14052
ika	-14053
ira	-14054
ket	-14055
mir	-14056
omo	-14057
ubl	-14058
url	-14059
wys	-14060
ຈູງ	-14061
ຈຽງ	-14062
ຊອງ	-14063
ປຶກ	-14064
ຣັບ	-14065
ຫວ້	-14066
ູ້ມ	-14067
ເປຍ	-14068
ແຄນ	-14069
ແອບ	-14070
ໂຊນ	-14071
ໄວກ	-14072
▁8.	-14073
▁DV	-14074
▁Dy	-14075
▁HG	-14076
▁Ja	-14077
▁Ra	-14078
▁Xi	-14079
▁br	-14080
▁ev	-14081
▁oz	-14082
▁pu	-14083
▁ຈູ	-14084
▁ໂຣ	-14085
▁ໂຫ	-14086
▁★★	-14087
2020	-14088
Site	-14089
adel	-14090
anes	-14091
aven	-14092
awei	-14093
bles	-14094
cent	-14095
ello	-14096
ends	-14097
ewel	-14098
iety	-14099
iger	-14100
imer	-14101
inth	-14102
king	-14103
opes	-14104
rint	-14105
rust	-14106
ules	-14107
unes	-14108
ysis	-14109
ຊ່າງ	-14110
ຖີ້ມ	-14111
ວກກີ	-14112
ຫາປາ	-14113
ັກທີ	-14114
ເຟີ້	-14115
ໂຫວດ	-14116
່າມີ	-14117
▁(51	-14118
▁***	-14119
▁04:	-14120
▁218	-14121
▁64,	-14122
▁Cad	-14123
▁FCC	-14124
▁Fac	-14125
▁IRB	-14126
▁Lib	-14127
▁MUM	-14128
▁Men	-14129
▁Pcb	-14130
▁Rub	-14131
▁TKT	-14132
▁Viv	-14133
▁Wei	-14134
▁fix	-14135
▁get	-14136
▁leg	-14137
▁one	-14138
▁was	-14139
▁ຊິບ	-14140
▁ທວດ	-14141
▁ປົບ	-14142
▁ຣົບ	-14143
▁ລອນ	-14144
▁ວານ	-14145
▁ແດດ	-14146
▁ແປວ	-14147
▁ແຮມ	-14148
▁ໂຍງ	-14149
▁ໄຮ່	-14150
anger	-14151
eball	-14152
elfie	-14153
esser	-14154
imber	-14155
inski	-14156
ittle	-14157
namfg	-14158
oress	-14159
rozen	-14160
ມິນນີ	-14161
ລະຍຸດ	-14162
ລາສາດ	-14163
ໃນພາກ	-14164
▁0.01	-14165
▁1960	-14166
▁1980	-14167
▁1998	-14168
▁2003	-14169
▁GAME	-14170
▁JACK	-14171
▁Need	-14172
▁Pill	-14173
▁ROHS	-14174
▁Rain	-14175
▁bing	-14176
▁chip	-14177
▁drum	-14178
▁hell	-14179
▁mail	-14180
▁nozz	-14181
▁orig	-14182
▁sand	-14183
▁taxi	-14184
▁ທໍລະ	-14185
▁ພໍໃຈ	-14186
▁ສັດທ	-14187
▁ເຊີຍ	-14188
▁ແປກໆ	-14189
arinet	-14190
fabric	-14191
icheng	-14192
ighter	-14193
valume	-14194
ກັບມັນ	-14195
ການຊື້	-14196
ການອອກ	-14197
ຂອງທໍ່	-14198
ຊອກຮູ້	-14199
ດິນຊາຍ	-14200
ຕໍ່ມື້	-14201
ບັນຫາກ	-14202
ບັນຫານ	-14203
ພັນຂອງ	-14204
ລໍາໂພງ	-14205
ຫົວຄິດ	-14206
ເປົ໋າກ	-14207
ເຫມືອນ	-14208
ໄດ້ໂດຍ	-14209
▁2010,	-14210
▁2011)	-14211
▁Final	-14212
▁Image	-14213
▁JBoss	-14214
▁Louis	-14215
▁Magic	-14216
▁Metat	-14217
▁Vegas	-14218
▁after	-14219
▁cloud	-14220
▁flute	-14221
▁ກໍາມະ	-14222
▁ລັດທິ	-14223
▁ລົດໄຟ	-14224
▁ສະດຸດ	-14225
▁ຫນ່າຍ	-14226
▁ເຂົ່າ	-14227
▁ເຈິ່ນ	-14228
▁ເຫື່ອ	-14229
▁ແລ້ວນ	-14230
atalyst	-14231
engzhou	-14232
itation	-14233
science	-14234
uploads	-14235
ການເທຣດ	-14236
ຂັດແຍ່ງ	-14237
ຂົນຂວາຍ	-14238
ຄວາມຍາວ	-14239
ຈົນເຖິງ	-14240
ທັງຫລາຍ	-14241
ທາງລຸ່ມ	-14242
ທຸກເວລາ	-14243
ບາງສ່ວນ	-14244
ປັດສະວະ	-14245
ປ່ອຍໃຫ້	-14246
ພະຍາບານ	-14247
ສູງກ່ວາ	-14248
ອາຍແກັດ	-14249
ອື່ນໆໃນ	-14250
ເດີມພັນ	-14251
ແມ່ນແຕ່	-14252
ໄລຍະຍາວ	-14253
ໄຮໂດລິກ	-14254
▁Anchor	-14255
▁Huawei	-14256
▁Keygen	-14257
▁Laptop	-14258
▁Safety	-14259
▁Taylor	-14260
▁Valent	-14261
▁Virgin	-14262
▁Xiamen	-14263
▁asylum	-14264
▁pretty	-14265
▁recept	-14266
▁triche	-14267
▁webcam	-14268
▁ກະທັ່ງ	-14269
▁ຂົງເຂດ	-14270
▁ຕາແມັດ	-14271
▁ບົດຂຽນ	-14272
▁ສົມມຸດ	-14273
▁ອະຄະຕິ	-14274
▁ແຕ່ການ	-14275
▁ແປພາສາ	-14276
▁ໂດຍໃຊ້	-14277
.06.2018	-14278
aminated	-14279
ethylene	-14280
ກັນກະທົບ	-14281
ຊີເອັນຊີ	-14282
ທີ່ຈະໃຫ້	-14283
ທົດສະວັດ	-14284
ບ້ານເກີດ	-14285
ປະຕູຮົ້ວ	-14286
ປະສົບຜົນ	-14287
ພຣະຄໍາພີ	-14288
ສະກັດຈາກ	-14289
ສະແດງຜົນ	-14290
ຫມູ່ບ້ານ	-14291
ອີກຕໍ່ໄປ	-14292
ເຂົ້າສານ	-14293
ເຊັ່ນກັນ	-14294
ໂຮ່ຈິມິນ	-14295
ໃນຊຸມຊົນ	-14296
▁Charger	-14297
▁Charles	-14298
▁Horizon	-14299
▁January	-14300
▁Stepper	-14301
▁Vintage	-14302
▁Wolford	-14303
▁Youtube	-14304
▁cheater	-14305
▁hosting	-14306
▁lottery	-14307
▁ການສົ່ງ	-14308
▁ຊື່ເຄມີ	-14309
▁ຊົມເຊີຍ	-14310
▁ທຸກຢ່າງ	-14311
▁ບັງເອີນ	-14312
▁ປາຊີຟິກ	-14313
▁ວິຕາມິນ	-14314
▁ສໍາຫຼັບ	-14315
▁ເຄົາລົບ	-14316
▁ເຕັກນິກ	-14317
▁ເບິ່ງຄື	-14318
▁ໄຮໂດລິກ	-14319
urization	-14320
ການຄິດໄລ່	-14321
ການຟື້ນຟູ	-14322
ຂອງຜູ້ຊາຍ	-14323
ຄວາມເຊື່ອ	-14324
ທີ່ກໍາລັງ	-14325
ພາລາມິເຕີ	-14326
ສາຍການບິນ	-14327
ສາມາດສ້າງ	-14328
ຫນ້ອຍກວ່າ	-14329
ເພື່ອເຮັດ	-14330
ເຫດຜົນທີ່	-14331
ແລະການຄ້າ	-14332
ແລະຂົງເຂດ	-14333
▁Industry	-14334
▁Platform	-14335
▁Security	-14336
▁passport	-14337
▁ການເມືອງ	-14338
▁ຄວາມເຈັບ	-14339
▁ຈຸນລະສານ	-14340
▁ທາດເຫຼັກ	-14341
▁ພຣະເຈົ້າ	-14342
▁ພີໄບເບິນ	-14343
▁ສົກກະປົກ	-14344
▁ສ່ວນທ່ານ	-14345
romagnetic	-14346
ການຈັດສົ່ງ	-14347
ຂອງທຸລະກິດ	-14348
ຂອງມັນແມ່ນ	-14349
ຄວາມສໍາຄັນ	-14350
ທີ່ສູງຂຶ້ນ	-14351
ບໍາລຸງສ້າງ	-14352
ປະຕິກິລິຍາ	-14353
ພັດທະນາໂດຍ	-14354
ມັນເຊື້ອໄຟ	-14355
ຢ່າງສົມບູນ	-14356
ສໍາເລັດຜົນ	-14357
ເນື້ອເຍື່ອ	-14358
ເລັກໂທຣນິກ	-14359
ແລະພວກເຂົາ	-14360
ໄດ້ຈັດຕັ້ງ	-14361
▁Countdown	-14362
▁collector	-14363
▁ຂີ້ເຫຍື້ອ	-14364
▁ຄວາມລະອຽດ	-14365
▁ຄຸນປະຫຍັດ	-14366
▁ວິສະວະກໍາ	-14367
▁ສະກັດກັ້ນ	-14368
▁ເຄື່ອງສີດ	-14369
▁ເດືອນມີນາ	-14370
▁ເຮົາສາມາດ	-14371
▁ແລະມັນກໍ່	-14372
▁ໄດ້ໃຫ້ການ	-14373
▁ໄຟອັນຕລາຍ	-14374
ຂອງກອງປະຊຸມ	-14375
ຂອງປະເທດຊາດ	-14376
ຄວາມສໍາເລັດ	-14377
ເຮືອຂ້າມຟາກ	-14378
▁Dewatering	-14379
▁generateur	-14380
▁ການຈັດສົ່ງ	-14381
▁ການແລກປ່ຽນ	-14382
▁ຂະຫນາດກ່ອງ	-14383
▁ປື້ມບັນທຶກ	-14384
▁ພົນລະເມືອງ	-14385
▁ສະນັ້ນຂ້ອຍ	-14386
▁ສະມາຊິກຂອງ	-14387
▁ໃນປະເທດຈີນ	-14388
ຂອງພວກເຮົາຈະ	-14389
ຊ່ວຍເຫຼືອລ້າ	-14390
ພົບປະແລກປ່ຽນ	-14391
ຫຼາຍດັ່ງນັ້ນ	-14392
ຮັບຜິດຊອບຕໍ່	-14393
ເປັນເຈົ້າພາບ	-14394
ເຮັດຄວາມເຢັນ	-14395
▁ການລົງທະບຽນ	-14396
▁ກຸ່ມບໍລິສັດ	-14397
▁ສາມາດໃຊ້ໄດ້	-14398
ຂົນສົ່ງສິນຄ້າ	-14399
ນະຄອນໂຮ່ຈີມິນ	-14400
ສົບຜົນສໍາເລັດ	-14401
ເປັນທີ່ຮູ້ຈັກ	-14402
▁ບໍລິສັດເຊົ່າ	-14403
▁ມັນຖືກນໍາໃຊ້	-14404
▁ວັນຄຣິດສະມາດ	-14405
▁ສ້າງຕັ້ງຂື້ນ	-14406
ຜູ້ຊ່ຽວຊານດ້ານ	-14407
▁ເຂົ້າສູ່ລະບົບ	-14408
▁ແລະຜະລິດຕະພັນ	-14409
ກ່ຽວກັບເວັບໄຊທ໌	-14410
ເພື່ອແກ້ໄຂບັນຫາ	-14411
ໄດ້ຮັບຜົນປະໂຫຍດ	-14412
▁ເພື່ອຕອບສະຫນອງ	-14413
ແລະຂະຫນາດຮູບຖ່າຍ	-14414
▁ການສັກຢາປ້ອງກັນ	-14415
08	-14416
EV	-14417
GA	-14418
RT	-14419
XD	-14420
jo	-14421
kt	-14422
mi	-14423
ti	-14424
tv	-14425
wh	-14426
xx	-14427
▁★	-14428
.27	-14429
.40	-14430
.57	-14431
.60	-14432
101	-14433
128	-14434
17)	-14435
21)	-14436
ASH	-14437
CSE	-14438
KGS	-14439
Mpa	-14440
ULL	-14441
ZHO	-14442
cin	-14443
emp	-14444
mar	-14445
mes	-14446
olo	-14447
oof	-14448
opy	-14449
wei	-14450
ຂົວ	-14451
ຄິວ	-14452
ຄຽດ	-14453
ຊອນ	-14454
ຊາບ	-14455
ປີ້	-14456
ຟອງ	-14457
ມືກ	-14458
ຣິສ	-14459
ວ່ງ	-14460
ເທກ	-14461
ເຟດ	-14462
ແບກ	-14463
ໄວໆ	-14464
ໄສ້	-14465
▁73	-14466
▁84	-14467
▁96	-14468
▁CI	-14469
▁CV	-14470
▁Kg	-14471
▁Lu	-14472
▁MN	-14473
▁Mu	-14474
▁es	-14475
▁ng	-14476
▁ກັ	-14477
▁ພວ	-14478
▁ວກ	-14479
▁≤0	-14480
-311	-14481
.0.3	-14482
.1.1	-14483
/300	-14484
Land	-14485
code	-14486
ever	-14487
iana	-14488
icks	-14489
iper	-14490
ista	-14491
izab	-14492
leti	-14493
omer	-14494
ຄື້ນ	-14495
ຕິກິ	-14496
ຖິ່ນ	-14497
ຖືພາ	-14498
ທ່ຽວ	-14499
ມ້ຽນ	-14500
ສອດຄ	-14501
ເທດຍ	-14502
ເພດຍ	-14503
ເຫີຍ	-14504
ແກຣນ	-14505
▁!!!	-14506
▁(15	-14507
▁(33	-14508
▁(5)	-14509
▁(86	-14510
▁+/-	-14511
▁1.4	-14512
▁19:	-14513
▁212	-14514
▁270	-14515
▁5.0	-14516
▁Apg	-14517
▁Att	-14518
▁Bei	-14519
▁CCC	-14520
▁DHL	-14521
▁DNA	-14522
▁Est	-14523
▁Fan	-14524
▁Jay	-14525
▁Jon	-14526
▁NCS	-14527
▁Pil	-14528
▁Ram	-14529
▁Rep	-14530
▁Tus	-14531
▁VPN	-14532
▁Vis	-14533
▁War	-14534
▁air	-14535
▁att	-14536
▁doc	-14537
▁esc	-14538
▁fre	-14539
▁has	-14540
▁lig	-14541
▁lin	-14542
▁pen	-14543
▁syn	-14544
▁zlp	-14545
▁ຍົດ	-14546
▁ດື້	-14547
▁ຕຶບ	-14548
▁ປອນ	-14549
▁ປຶກ	-14550
▁ປົນ	-14551
▁ພິກ	-14552
▁ລອບ	-14553
▁ອຽດ	-14554
▁ເປິ	-14555
▁ເວດ	-14556
▁ແມວ	-14557
▁ແອກ	-14558
▁ໂຟມ	-14559
acter	-14560
amide	-14561
angel	-14562
axies	-14563
crypt	-14564
earch	-14565
email	-14566
ganik	-14567
ifang	-14568
odiac	-14569
ontal	-14570
rites	-14571
stein	-14572
utsch	-14573
width	-14574
woven	-14575
ກັບໄປ	-14576
ຂອງສີ	-14577
ຕະລຶງ	-14578
ທຸກໍາ	-14579
ນ້ໍາມ	-14580
ປະການ	-14581
ປັດໃຈ	-14582
ຜະນຶກ	-14583
ຟໍເນຍ	-14584
ມັນມີ	-14585
ມີຢູ່	-14586
ຣາເອນ	-14587
ລົງໃນ	-14588
ລົດເມ	-14589
ວະແພດ	-14590
ສອງປີ	-14591
ຫລ່ຽມ	-14592
ເພດານ	-14593
▁1999	-14594
▁Acad	-14595
▁Acid	-14596
▁Arts	-14597
▁Boat	-14598
▁CCNA	-14599
▁Cake	-14600
▁Cred	-14601
▁Eric	-14602
▁Meth	-14603
▁Moto	-14604
▁Nozz	-14605
▁Ride	-14606
▁Tank	-14607
▁Team	-14608
▁Vict	-14609
▁fake	-14610
▁high	-14611
▁kids	-14612
▁neur	-14613
▁prop	-14614
▁stud	-14615
▁tele	-14616
▁zomb	-14617
▁ຊະບາ	-14618
▁ມົ້ວ	-14619
▁ອາວຸ	-14620
▁ອີຢູ	-14621
▁ອ່າວ	-14622
▁ເອິກ	-14623
▁ໂຄ້ງ	-14624
▁ໂງ່ນ	-14625
.16113	-14626
Design	-14627
atcher	-14628
bright	-14629
elling	-14630
ensile	-14631
escent	-14632
odcast	-14633
oltage	-14634
ometer	-14635
ກະດ້າງ	-14636
ການາດາ	-14637
ຂອງເກມ	-14638
ຄາດວ່າ	-14639
ຊິກສາດ	-14640
ດີກ່ວາ	-14641
ຜ່ານໄປ	-14642
ມັນກໍ່	-14643
ຢູ່ລາວ	-14644
ລູກສາວ	-14645
ສານພິດ	-14646
ສີສົ້ມ	-14647
ຫລືບໍ່	-14648
ຮູບຊົງ	-14649
ແບັກທີ	-14650
ແປງການ	-14651
ໂດຍອີງ	-14652
ໃຈຮ້າຍ	-14653
ໃຫມ່ໃນ	-14654
ໃຫ້ທຶນ	-14655
ໍານັ້ນ	-14656
▁2005,	-14657
▁2016,	-14658
▁Angle	-14659
▁Broad	-14660
▁Mahar	-14661
▁Patti	-14662
▁Queen	-14663
▁Quest	-14664
▁Sound	-14665
▁break	-14666
▁cross	-14667
▁eBook	-14668
▁stuff	-14669
▁ກໍາມື	-14670
▁ຖາວອນ	-14671
▁ວີຊ່າ	-14672
▁ສະວິດ	-14673
▁ຮໍໂມນ	-14674
▁ແລະຈະ	-14675
,000.00	-14676
ilicate	-14677
izabeth	-14678
ຂັດແຍ້ງ	-14679
ຂົ່ມຂູ່	-14680
ຊະຍາກໍາ	-14681
ດ່ານັ້ງ	-14682
ທີ່ລະບຸ	-14683
ທີ່ໃຫຍ່	-14684
ນັ່ງຢູ່	-14685
ພິທີການ	-14686
ສາຍສົ່ງ	-14687
ຫລັກສູດ	-14688
ຫລ້າສຸດ	-14689
ອງປະຊຸມ	-14690
ຮູບແຕ້ມ	-14691
ຮ່າງການ	-14692
ຮ້ານຂາຍ	-14693
ເວບໄຊທ໌	-14694
ແລະນ້ໍາ	-14695
ໂດດດ່ຽວ	-14696
ໍຊິງຕັນ	-14697
▁20,000	-14698
▁Coupon	-14699
▁Disney	-14700
▁Floral	-14701
▁Hadoop	-14702
▁Marvel	-14703
▁NINGBO	-14704
▁Nevada	-14705
▁coffee	-14706
▁feeder	-14707
▁height	-14708
▁jacket	-14709
▁soccer	-14710
▁travel	-14711
▁ການຕອບ	-14712
▁ການໂອນ	-14713
▁ຂັບລົດ	-14714
▁ຕະຫລົກ	-14715
▁ນັ້ນກໍ	-14716
▁ນິ້ວມື	-14717
▁ນີ້ພວກ	-14718
▁ຜູ້ໃຊ້	-14719
▁ມັກເພງ	-14720
▁ສອງສາມ	-14721
▁ສະຫລອງ	-14722
▁ເລກທີ່	-14723
▁ແມ່ຂອງ	-14724
ດຸ່ນດ່ຽງ	-14725
ທີ່ເຈົ້າ	-14726
ນໍາໄປສູ່	-14727
ບັນດານໃຈ	-14728
ບໍ່ວ່າຈະ	-14729
ປຸກລະດົມ	-14730
ວິກິດການ	-14731
ວ່າມັນມີ	-14732
ສູນຍາກາດ	-14733
ຫມາຍເຖິງ	-14734
ອະໄວຍະວະ	-14735
ເກັບຝຸ່ນ	-14736
ເງິນເຟີ້	-14737
ເທື່ອຄົນ	-14738
ໃຫ້ບັນດາ	-14739
▁Angeles	-14740
▁Chengdu	-14741
▁Desktop	-14742
▁Edition	-14743
▁altcoin	-14744
▁cyclone	-14745
▁ກວມເອົາ	-14746
▁ກາງເວັນ	-14747
▁ກາລັກຊີ	-14748
▁ຂົ່ມເຫງ	-14749
▁ງ່າຍດາຍ	-14750
▁ຍ້ອນວ່າ	-14751
▁ປະກອບມີ	-14752
▁ປັກກິ່ງ	-14753
▁ພື້ນຜິວ	-14754
▁ຫຸ່ນຍົນ	-14755
▁ເຜີຍແຜ່	-14756
▁ເວືອງດີ	-14757
▁ເຮົາບໍ່	-14758
▁ແຕ່ເຮົາ	-14759
▁ແມ່ນໍ້າ	-14760
▁ໂດຍທ່ານ	-14761
▁ໂດຍຜ່ານ	-14762
ກັບເຄື່ອງ	-14763
ຂອງອົງກອນ	-14764
ຊ່ອງຫວ່າງ	-14765
ທີ່ມີອາຍຸ	-14766
ນັບມື້ນັບ	-14767
ບັງຄັບໃຫ້	-14768
ພອນສະຫວັນ	-14769
ມໍ່ໆມານີ້	-14770
ຫ່າງໄກສອກ	-14771
ຮູບແບບຂອງ	-14772
ເຂັ້ມຂົ້ນ	-14773
ເຊັ່ນນັ້ນ	-14774
ເພື່ອຄວາມ	-14775
ໂຄງການນີ້	-14776
▁Detector	-14777
▁Hangheng	-14778
▁Terminal	-14779
▁dopamine	-14780
▁galaxies	-14781
▁ຂຶ້ນຢ່າງ	-14782
▁ຈໍາຫນ່າຍ	-14783
▁ສະບັບທີ່	-14784
▁ສີດໍາແລະ	-14785
▁ເຈົ້າຖືກ	-14786
▁ເຟີນິເຈີ	-14787
▁ແຕ່ວັນທີ	-14788
▁ໂປໂມຊັ່ນ	-14789
▁ໃນທີ່ນີ້	-14790
ການປະຕິວັດ	-14791
ການຫຸ້ມຫໍ່	-14792
ກໍາຫນົດເອງ	-14793
ຄິດຄໍາເຫັນ	-14794
ທຸລະກິດທີ່	-14795
ບັນດາບັນຫາ	-14796
ບົດຄວາມນີ້	-14797
ປ່ຽນແປງໄດ້	-14798
ມີຄຸນນະພາບ	-14799
ມືອາຊີບຂອງ	-14800
ຢ່າງຈະແຈ້ງ	-14801
າວິທະຍາສາດ	-14802
ເກີດຂື້ນໃນ	-14803
ເປັນຜູ້ນໍາ	-14804
ເສັ້ນເລືອດ	-14805
ເອື້ອຍນ້ອງ	-14806
ໃນກອງປະຊຸມ	-14807
ໃນຂະບວນການ	-14808
▁Elizabeth	-14809
▁Enanthate	-14810
▁Tailoress	-14811
▁Technical	-14812
▁extrusion	-14813
▁ການຕິດຕາມ	-14814
▁ການສໍາພາດ	-14815
▁ຄວາມສະອາດ	-14816
▁ຄວາມສົນໃຈ	-14817
▁ຜັນຂະຫຍາຍ	-14818
▁ຜູ້ຕິດຕາມ	-14819
▁ພາຍໃຕ້ການ	-14820
▁ເພື່ອຊ່ວຍ	-14821
▁ເມື່ອນັ້ນ	-14822
▁ແລະແນ່ນອນ	-14823
ຂອງທ່ານແມ່ນ	-14824
ຄວາມແມ່ນຍໍາ	-14825
ຊາວອົບພະຍົບ	-14826
ຕະຫຼອດຊີວິດ	-14827
ທີ່ມີຊື່ວ່າ	-14828
ບໍ່ດົນມານີ້	-14829
ລາຍຊື່ອີເມວ	-14830
ສວນສາທາລະນະ	-14831
ແຮງດັນໄຟຟ້າ	-14832
ໃນຕອນກາງຄືນ	-14833
ໃນພາກສະຫນາມ	-14834
▁Tianeptine	-14835
▁hoverboard	-14836
▁skateboard	-14837
▁ທີ່ພວກເຮົາ	-14838
▁ທີ່ຢູ່ອາໄສ	-14839
▁ທີ່ຮ່າໂນ້ຍ	-14840
▁ມັນເຮັດໃຫ້	-14841
▁ມີປະສົບການ	-14842
▁ເຄື່ອງເຮັດ	-14843
▁ແຕ່ພວກເຂົາ	-14844
▁ແລະຂ້ອຍໄດ້	-14845
ຂອງການນໍາໃຊ້	-14846
ຄະນະຊາວຫນຸ່ມ	-14847
ດັ່ງກ່າວແມ່ນ	-14848
ສ້າງຕັ້ງຂື້ນ	-14849
ອີເລັກໂທຣນິກ	-14850
ເນື່ອງຈາກວ່າ	-14851
ເປັນຜູ້ຜະລິດ	-14852
ເພີ່ມທະວີການ	-14853
ເລີ່ມຕົ້ນການ	-14854
▁2.6.4.16113	-14855
▁ນອກນັ້ນທ່ານ	-14856
▁ພ້ອມກັນນັ້ນ	-14857
▁ລາຍຊື່ອີເມວ	-14858
ທາງເລືອກໃນການ	-14859
ຮ່ວມມືລະຫວ່າງ	-14860
ເສດຖະກິດສາກົນ	-14861
ແລະການຄຸ້ມຄອງ	-14862
ໃນການຄົ້ນຄວ້າ	-14863
▁ການຂະຫຍາຍຕົວ	-14864
▁ລ້ານເທື່ອຄົນ	-14865
▁ເມື່ອພວກເຮົາ	-14866
ທາງດ້ານກົດຫມາຍ	-14867
ໃນລະຫວ່າງວັນທີ	-14868
▁ການເຊື່ອມໂລຫະ	-14869
▁ປະສິດທິພາບສູງ	-14870
▁ພວກເຮົາສະເຫນີ	-14871
▁ສິ່ງທີ່ຄວນຮູ້	-14872
▁ເຕັບປິ້ງມໍເຕີ	-14873
ກ້າວຫນ້າທາງດ້ານ	-14874
ສໍາລັບການນໍາໃຊ້	-14875
ຂອງພວກເຮົາສໍາລັບ	-14876
▁ຖ້າຫາກວ່າທ່ານມີ	-14877
AG	-14878
AW	-14879
BF	-14880
DE	-14881
Ds	-14882
MI	-14883
SH	-14884
TE	-14885
TT	-14886
Wh	-14887
gr	-14888
nb	-14889
ni	-14890
oC	-14891
pg	-14892
sl	-14893
tn	-14894
vo	-14895
ào	-14896
ຝ່	-14897
!!!	-14898
-27	-14899
-36	-14900
00€	-14901
039	-14902
12,	-14903
20,	-14904
414	-14905
701	-14906
For	-14907
Ltd	-14908
NOV	-14909
SON	-14910
SQL	-14911
Sup	-14912
ben	-14913
bor	-14914
cal	-14915
cle	-14916
cnc	-14917
eep	-14918
eko	-14919
gee	-14920
gie	-14921
kle	-14922
opl	-14923
rix	-14924
ude	-14925
ຂືນ	-14926
ຂູດ	-14927
ຄັງ	-14928
ງັບ	-14929
ຕຸຍ	-14930
ຕົມ	-14931
ນິງ	-14932
ນຶກ	-14933
ບຣາ	-14934
ພອດ	-14935
ສາງ	-14936
ສົກ	-14937
ສຽບ	-14938
ຫວະ	-14939
ະລື	-14940
ແກມ	-14941
ໂມ້	-14942
▁".	-14943
▁71	-14944
▁PV	-14945
▁XH	-14946
▁ed	-14947
▁fr	-14948
▁jw	-14949
▁op	-14950
▁ຖູ	-14951
▁ອນ	-14952
74-8	-14953
77-6	-14954
High	-14955
Tags	-14956
URAL	-14957
ased	-14958
avan	-14959
bide	-14960
ebob	-14961
elle	-14962
enge	-14963
esto	-14964
held	-14965
idad	-14966
ilun	-14967
ites	-14968
ixel	-14969
loss	-14970
mill	-14971
odel	-14972
onto	-14973
oval	-14974
phen	-14975
rate	-14976
thon	-14977
uman	-14978
unds	-14979
untu	-14980
ways	-14981
ying	-14982
ກະວີ	-14983
ຈ້ອງ	-14984
ຊິນີ	-14985
ນລັງ	-14986
ສະລະ	-14987
ຫນວກ	-14988
ີມັງ	-14989
ແຈ່ມ	-14990
ໆຂອງ	-14991
▁(36	-14992
▁0.8	-14993
▁145	-14994
▁256	-14995
▁330	-14996
▁850	-14997
▁AMP	-14998
▁Are	-14999
▁Bak	-15000
▁Bet	-15001
▁Bos	-15002
▁Bud	-15003
▁CHE	-15004
▁CSG	-15005
▁Dun	-15006
▁ETC	-15007
▁Eva	-15008
▁Lao	-15009
▁MIU	-15010
▁NBR	-15011
▁Put	-15012
▁Rij	-15013
▁VOC	-15014
▁add	-15015
▁ent	-15016
▁tit	-15017
▁use	-15018
▁ທູ້	-15019
▁ນິກ	-15020
▁ບຽນ	-15021
▁ຝ່າ	-15022
▁ພວງ	-15023
▁ອັງ	-15024
▁ຮວມ	-15025
▁ຮັດ	-15026
▁ເດຍ	-15027
▁ເດ່	-15028
▁ເຟີ	-15029
▁ໂພກ	-15030
▁ໄພ່	-15031
1,000	-15032
Guang	-15033
Homes	-15034
Quick	-15035
admin	-15036
build	-15037
gmail	-15038
otian	-15039
ringe	-15040
sters	-15041
ຂໍໃຫ້	-15042
ທະວີບ	-15043
ທາລະນ	-15044
ນີ້ໃນ	-15045
ພະຫັດ	-15046
ພິບານ	-15047
ລະບອບ	-15048
ສູບຢາ	-15049
ຫຼ່ຽມ	-15050
ິດີໂອ	-15051
ເກສອນ	-15052
ໄປກັບ	-15053
ໄປຮອດ	-15054
ໄຟເບີ	-15055
▁Bing	-15056
▁FXCC	-15057
▁Just	-15058
▁Lady	-15059
▁Lego	-15060
▁MCSA	-15061
▁Mont	-15062
▁Priv	-15063
▁Rail	-15064
▁Saud	-15065
▁Snow	-15066
▁Swed	-15067
▁Walk	-15068
▁With	-15069
▁iPod	-15070
▁need	-15071
▁sign	-15072
▁time	-15073
▁turn	-15074
▁ຍ່ໍາ	-15075
▁ທະນູ	-15076
▁ສະນະ	-15077
▁ຫະລື	-15078
▁ຫຼາກ	-15079
▁ເຫລວ	-15080
▁ແຫລະ	-15081
▁ໄຟລ໌	-15082
Online	-15083
ervice	-15084
ຂໍເອົາ	-15085
ຈະເຮັດ	-15086
ຈໍາແນກ	-15087
ຕໍ່ກັບ	-15088
ທີ່ສອງ	-15089
ນີ້ຖືກ	-15090
ບຸນຄຸນ	-15091
ປະຫມາດ	-15092
ພາກກາງ	-15093
ພິທີໄຂ	-15094
ມັດທາຍ	-15095
ຢູ່ລອດ	-15096
ລໍາບາກ	-15097
ສະຖານະ	-15098
ສູ້ຊົນ	-15099
ອັກເສບ	-15100
ເສຍແຕ່	-15101
ເຫລົ້າ	-15102
ເອີລົບ	-15103
ເອົາມາ	-15104
ໃຕ້ດິນ	-15105
ໃນກາເຟ	-15106
ໃນຫຼາຍ	-15107
▁5,000	-15108
▁Advan	-15109
▁Alpha	-15110
▁Drive	-15111
▁Girls	-15112
▁Grant	-15113
▁Great	-15114
▁Piper	-15115
▁Plant	-15116
▁Young	-15117
▁mixer	-15118
▁ຊາຕານ	-15119
▁ຕິຕຽນ	-15120
▁ປານໃດ	-15121
▁ພິການ	-15122
▁ສັດທາ	-15123
▁ຫລ່ຽມ	-15124
▁ອີເມລ	-15125
▁ເບືອນ	-15126
▁ເປືອຍ	-15127
▁ໂບຮານ	-15128
Station	-15129
ategory	-15130
rifugal	-15131
roidery	-15132
ການຮ້າຍ	-15133
ຂອງນ້ໍາ	-15134
ຂອງເຕົາ	-15135
ຂອງແຂວງ	-15136
ຂອງແຫຼວ	-15137
ຄົນນັ້ນ	-15138
ຈ້າງງານ	-15139
ທີ່ຕັ້ງ	-15140
ບໍ່ເຫັນ	-15141
ມື້ນັ້ນ	-15142
ຢຸດເຊົາ	-15143
ຢ້ຽມຊົມ	-15144
ລົດໃຫຍ່	-15145
ລ້ວນແຕ່	-15146
ສັ່ງແພດ	-15147
ຫຼາຍຂອງ	-15148
ອ້ອມຮອບ	-15149
ຮ້ອງເພງ	-15150
ເຈດຕະນາ	-15151
▁August	-15152
▁Baiyun	-15153
▁Beilun	-15154
▁Bungal	-15155
▁Medium	-15156
▁Munich	-15157
▁Prepar	-15158
▁Rating	-15159
▁Ribbon	-15160
▁resort	-15161
▁silica	-15162
▁ticket	-15163
▁ຄິດວ່າ	-15164
▁ຖະຫນອມ	-15165
▁ຜົນງານ	-15166
▁ມະຫາວິ	-15167
▁ລົບກວນ	-15168
▁ວັນພຸດ	-15169
▁ສູນເສຍ	-15170
▁ຫົວພິມ	-15171
▁ອັບອາຍ	-15172
▁ເຕັມທີ	-15173
axophone	-15174
enbolone	-15175
inthians	-15176
ການສັກຢາ	-15177
ຂອງພະຍາດ	-15178
ຕະຫຼອດໄປ	-15179
ທັງພາຍໃນ	-15180
ນ້ໍາຖ້ວມ	-15181
ລະດັບສູງ	-15182
ສະແຫວງຫາ	-15183
ແກ່ງແຍ້ງ	-15184
ແຫ່ງຄວາມ	-15185
ໃນເອີຣົບ	-15186
▁Bangkok	-15187
▁Cookies	-15188
▁History	-15189
▁Huizhou	-15190
▁Impulse	-15191
▁Modular	-15192
▁Monster	-15193
▁SpongeB	-15194
▁Weifang	-15195
▁Yueqing	-15196
▁biscuit	-15197
▁bonuses	-15198
▁sprites	-15199
▁ດ້ຽນບຽນ	-15200
▁ທຸກສິ່ງ	-15201
▁ນີ້ເປັນ	-15202
▁ບຸນຄຣິດ	-15203
▁ຜ່ານການ	-15204
▁ພັນລ້ານ	-15205
▁ມະຫາສານ	-15206
▁ສາມັກຄີ	-15207
▁ຫ້ອງຮຽນ	-15208
▁ອ້າງອີງ	-15209
▁ເຊິ່ງມີ	-15210
▁ເຕັມທີ່	-15211
▁ເສັ້ນໄຍ	-15212
▁ເຮົາໄດ້	-15213
▁ແມ່ນວ່າ	-15214
umenstock	-15215
ກາກ່ຽວກັບ	-15216
ຂັ້ນຕອນທີ	-15217
ງາມຄວາມດີ	-15218
ຈະກາຍເປັນ	-15219
ຊ່ຽວຊານໃນ	-15220
ຕ້ານເຊື້ອ	-15221
ທີ່ນໍາໃຊ້	-15222
ທົ່ວໄປຂອງ	-15223
ບັນດາແຂວງ	-15224
ປະເຊີນກັບ	-15225
ຜູ້ຈັດການ	-15226
ສັນລະເສີນ	-15227
ສຸຂະພາບດີ	-15228
ສໍາຜັດກັບ	-15229
ະລາຍຫາຍໄປ	-15230
ເລື່ອງຂອງ	-15231
ແລະການຂາຍ	-15232
ແລະນໍາໃຊ້	-15233
▁Bohemian	-15234
▁Virginia	-15235
▁litecoin	-15236
▁ຂອງມະນຸດ	-15237
▁ຄວາມສ່ຽງ	-15238
▁ຄະນິດສາດ	-15239
▁ບັນລຸໄດ້	-15240
▁ສິ່ງນັ້ນ	-15241
▁ເຂົ້າຄຸກ	-15242
▁ເຈົ້າຈື່	-15243
▁ເຈົ້າອອກ	-15244
▁ແທັບເລັດ	-15245
Industrial	-15246
ກ່ຽວກັບມັນ	-15247
ຂອງທ່ານກັບ	-15248
ຂໍ້ລິເລີ່ມ	-15249
ຕະຫຼອດເວລາ	-15250
ປະທານປະເທດ	-15251
ປະເທດອື່ນໆ	-15252
ຫຼັງຈາກການ	-15253
ຫຼາຍເກີນໄປ	-15254
ເປັນເລື່ອງ	-15255
ເພື່ອເບິ່ງ	-15256
ໃນເວລານັ້ນ	-15257
ໃນໄລຍະເວລາ	-15258
▁2017-2018	-15259
▁Composite	-15260
▁Francisco	-15261
▁Frequency	-15262
▁Wallpaper	-15263
▁ການປຽບທຽບ	-15264
▁ການຮຽນຮູ້	-15265
▁ຂໍ້ມູນຈາກ	-15266
▁ອາລູມິນຽມ	-15267
▁ເຈົ້າຈົ່ງ	-15268
▁ໃນອະນາຄົດ	-15269
ການຄົ້ນຄ້ວາ	-15270
ຄວາມເຈັບປວດ	-15271
ຈໍານວນຫນ້ອຍ	-15272
ທີ່ຂ້ອນຂ້າງ	-15273
ທີ່ມີທ່າແຮງ	-15274
ຜູ້ປະຈໍາການ	-15275
▁ການປະຕິວັດ	-15276
▁ການປຸງແຕ່ງ	-15277
▁ການສົ່ງອອກ	-15278
▁ການສໍາຫຼວດ	-15279
▁ຄັ້ງທໍາອິດ	-15280
▁ນັກຊ່ຽວຊານ	-15281
▁ບໍາລຸງສ້າງ	-15282
▁ປະຕິບັດງານ	-15283
▁ມະຫາສະຫມຸດ	-15284
▁ຫມູ່ເພື່ອນ	-15285
ຂອງວິສາຫະກິດ	-15286
ດ້ານຜົນກະທົບ	-15287
ຖະຫນົນຫົນທາງ	-15288
ທີ່ຢູ່ເບື້ອງ	-15289
ປ້ອງກັນປະເທດ	-15290
ພົບເຫັນຢູ່ໃນ	-15291
ເຄື່ອງສໍາອາງ	-15292
▁Corinthians	-15293
▁ຂະຫນາດຫນຶ່ງ	-15294
▁ຈັດພີມມາສຸດ	-15295
▁ຜົນກະທົບຂອງ	-15296
▁ເຄື່ອງຫຼີ້ນ	-15297
ຂອງການບໍລິການ	-15298
ທາງດ້ານສັງຄົມ	-15299
ທີ່ທ່ານກໍາລັງ	-15300
ທີ່ບໍ່ແມ່ນການ	-15301
ບັນດາມາດຕະການ	-15302
ບໍລິການການບິນ	-15303
ສໍາລັບປະຊາຊົນ	-15304
ຮ່ວມມືຂອງທ່ານ	-15305
ເຕັກໂນໂລຊີສູງ	-15306
ໂອ້ລົມສົນທະນາ	-15307
▁ຄວາມໄວ້ວາງໃຈ	-15308
▁ດັ່ງນັ້ນຈຶ່ງ	-15309
▁ຕາເວັນອອກກາງ	-15310
ຈໍາເປັນຕ້ອງໄດ້	-15311
ເຂົ້າຮ່ວມໃນການ	-15312
▁Certification	-15313
▁ພວກເຮົາສະຫນອງ	-15314
▁ອັບເດດຫຼ້າສຸດ	-15315
ຊັບພະຍາກອນມະນຸດ	-15316
ທີ່ໃຫຍ່ທີ່ສຸດໃນ	-15317
ຫມາຍຄວາມວ່າທ່ານ	-15318
ຫົວຄິດປະດິດສ້າງ	-15319
ໄດ້ຮັບການປັບປຸງ	-15320
▁ນັກຄົ້ນຄວ້າໄດ້	-15321
▁ສໍາລັບການສັກຢາ	-15322
▁ເປັນຄັ້ງທໍາອິດ	-15323
ທີ່ແຕກຕ່າງກັນຂອງ	-15324
ພັດທະນາແບບຍືນຍົງ	-15325
▁Electromagnetic	-15326
▁Multifunctional	-15327
▁ນາຍົກລັດຖະມົນຕີ	-15328
06	-15329
AV	-15330
NO	-15331
cz	-15332
dh	-15333
ea	-15334
fu	-15335
tg	-15336
ิน	-15337
(11	-15338
(33	-15339
-2,	-15340
-24	-15341
.22	-15342
.24	-15343
/05	-15344
/06	-15345
00,	-15346
138	-15347
170	-15348
232	-15349
240	-15350
260	-15351
949	-15352
ANG	-15353
IFA	-15354
ITE	-15355
Our	-15356
POT	-15357
aba	-15358
ahn	-15359
eri	-15360
ete	-15361
exe	-15362
isk	-15363
ité	-15364
jan	-15365
mit	-15366
shi	-15367
tic	-15368
ugu	-15369
ກັກ	-15370
ກູນ	-15371
ຂົມ	-15372
ງໍາ	-15373
ຊັດ	-15374
ຊີດ	-15375
ຊືມ	-15376
ດໍາ	-15377
ຕຶກ	-15378
ພົດ	-15379
ຣາດ	-15380
ວຸດ	-15381
ຫົດ	-15382
ອາບ	-15383
ັບຍ	-15384
ົ້ງ	-15385
ົ໋ວ	-15386
ໂອບ	-15387
▁).	-15388
▁.”	-15389
▁5-	-15390
▁8)	-15391
▁Ah	-15392
▁CW	-15393
▁FM	-15394
▁LR	-15395
▁OK	-15396
▁OR	-15397
▁RJ	-15398
▁SL	-15399
▁VM	-15400
▁WE	-15401
▁ZY	-15402
▁so	-15403
▁tw	-15404
▁ທ່	-15405
▁ຟິ	-15406
Fran	-15407
INCE	-15408
Time	-15409
XBET	-15410
ZHOU	-15411
adow	-15412
ague	-15413
comb	-15414
ffic	-15415
flow	-15416
imeo	-15417
info	-15418
mann	-15419
odes	-15420
otto	-15421
phia	-15422
pire	-15423
razy	-15424
sson	-15425
uder	-15426
umps	-15427
urch	-15428
visa	-15429
wing	-15430
ກະສິ	-15431
ຂະຫຍ	-15432
ດີຊີ	-15433
ປັ໊ມ	-15434
ຜ່ອງ	-15435
ມາທິ	-15436
ມຸ້ງ	-15437
ລີ່ຍ	-15438
ລູກໆ	-15439
ວິໄນ	-15440
ຫວາຍ	-15441
ອານາ	-15442
ະລາກ	-15443
າມັນ	-15444
ຸນໄພ	-15445
ເພັງ	-15446
ເມນູ	-15447
ເສີຍ	-15448
ແສ່ວ	-15449
ໄມ້ອ	-15450
▁(45	-15451
▁-40	-15452
▁165	-15453
▁185	-15454
▁3.7	-15455
▁720	-15456
▁8.1	-15457
▁91-	-15458
▁Ads	-15459
▁Ave	-15460
▁Cru	-15461
▁Don	-15462
▁Dtg	-15463
▁HCL	-15464
▁Hit	-15465
▁III	-15466
▁Imm	-15467
▁Las	-15468
▁NYE	-15469
▁PNG	-15470
▁TCP	-15471
▁Tai	-15472
▁bag	-15473
▁bet	-15474
▁cap	-15475
▁deb	-15476
▁ged	-15477
▁ins	-15478
▁lim	-15479
▁pdf	-15480
▁rep	-15481
▁rod	-15482
▁ຄີງ	-15483
▁ຊອນ	-15484
▁ດສະ	-15485
▁ຕຽນ	-15486
▁ຖູກ	-15487
▁ຟາກ	-15488
▁ມົງ	-15489
▁ສະນ	-15490
▁ຫອມ	-15491
▁ຮວງ	-15492
▁ຮວບ	-15493
▁ແບນ	-15494
/2015	-15495
/2019	-15496
JIANG	-15497
activ	-15498
anish	-15499
berry	-15500
caser	-15501
ework	-15502
lobal	-15503
ockey	-15504
opper	-15505
ounge	-15506
plica	-15507
ronze	-15508
ulong	-15509
ytics	-15510
ກະຕ່າ	-15511
ກາຊວນ	-15512
ຄູສອນ	-15513
ຊີແລນ	-15514
ທະນົງ	-15515
ພາດເມ	-15516
ມີຄຸນ	-15517
ລິນໂທ	-15518
ສາຍໄຟ	-15519
ິສຖານ	-15520
ແລະໃນ	-15521
ໃນແບບ	-15522
ໄວແລະ	-15523
▁2001	-15524
▁86-0	-15525
▁ARCH	-15526
▁Ball	-15527
▁Chic	-15528
▁Fang	-15529
▁Fold	-15530
▁HTML	-15531
▁Josh	-15532
▁MCSE	-15533
▁Marc	-15534
▁Mast	-15535
▁Name	-15536
▁RFID	-15537
▁Rijt	-15538
▁Ster	-15539
▁TGGT	-15540
▁Ware	-15541
▁apos	-15542
▁cons	-15543
▁gran	-15544
▁guys	-15545
▁lock	-15546
▁note	-15547
▁port	-15548
▁ther	-15549
▁ກໍຄື	-15550
▁ຊາຕາ	-15551
▁ຊ່ຽວ	-15552
▁ຕີໂມ	-15553
▁ນານາ	-15554
▁ປົ່ງ	-15555
▁ຟ້າມ	-15556
▁ລະອາ	-15557
▁ລິ້ງ	-15558
▁ລ້ວນ	-15559
▁ຫຼອກ	-15560
▁ອາສາ	-15561
▁ເຂັນ	-15562
▁ເດັນ	-15563
▁ເຣັດ	-15564
▁ເລາະ	-15565
▁ເອລີ	-15566
▁ແຟັກ	-15567
assium	-15568
icular	-15569
ldozer	-15570
luxury	-15571
orelin	-15572
[...]
